{
  "version": "1.0",
  "truncation": null,
  "padding": null,
  "added_tokens": [
    {
      "id": 0,
      "content": "<SOS>",
      "single_word": false,
      "lstrip": false,
      "rstrip": false,
      "normalized": false,
      "special": true
    },
    {
      "id": 1,
      "content": "<PAD>",
      "single_word": false,
      "lstrip": false,
      "rstrip": false,
      "normalized": false,
      "special": true
    },
    {
      "id": 2,
      "content": "<EOS>",
      "single_word": false,
      "lstrip": false,
      "rstrip": false,
      "normalized": false,
      "special": true
    }
  ],
  "normalizer": null,
  "pre_tokenizer": null,
  "post_processor": null,
  "decoder": null,
  "model": {
    "type": "BPE",
    "dropout": null,
    "unk_token": null,
    "continuing_subword_prefix": null,
    "end_of_word_suffix": null,
    "fuse_unk": false,
    "byte_fallback": false,
    "ignore_merges": false,
    "vocab": {
      "<SOS>": 0,
      "<PAD>": 1,
      "<EOS>": 2,
      "\t": 3,
      "\n": 4,
      " ": 5,
      "!": 6,
      "\"": 7,
      "#": 8,
      "$": 9,
      "%": 10,
      "&": 11,
      "'": 12,
      "(": 13,
      ")": 14,
      "*": 15,
      "+": 16,
      ",": 17,
      "-": 18,
      ".": 19,
      "/": 20,
      "0": 21,
      "1": 22,
      "2": 23,
      "3": 24,
      "4": 25,
      "5": 26,
      "6": 27,
      "7": 28,
      "8": 29,
      "9": 30,
      ":": 31,
      ";": 32,
      "<": 33,
      "=": 34,
      ">": 35,
      "?": 36,
      "@": 37,
      "A": 38,
      "B": 39,
      "C": 40,
      "D": 41,
      "E": 42,
      "F": 43,
      "G": 44,
      "H": 45,
      "I": 46,
      "J": 47,
      "K": 48,
      "L": 49,
      "M": 50,
      "N": 51,
      "O": 52,
      "P": 53,
      "Q": 54,
      "R": 55,
      "S": 56,
      "T": 57,
      "U": 58,
      "V": 59,
      "W": 60,
      "X": 61,
      "Y": 62,
      "Z": 63,
      "[": 64,
      "\\": 65,
      "]": 66,
      "^": 67,
      "_": 68,
      "`": 69,
      "a": 70,
      "b": 71,
      "c": 72,
      "d": 73,
      "e": 74,
      "f": 75,
      "g": 76,
      "h": 77,
      "i": 78,
      "j": 79,
      "k": 80,
      "l": 81,
      "m": 82,
      "n": 83,
      "o": 84,
      "p": 85,
      "q": 86,
      "r": 87,
      "s": 88,
      "t": 89,
      "u": 90,
      "v": 91,
      "w": 92,
      "x": 93,
      "y": 94,
      "z": 95,
      "{": 96,
      "|": 97,
      "}": 98,
      "~": 99,
      "": 100,
      " ": 101,
      "¡": 102,
      "¢": 103,
      "£": 104,
      "¤": 105,
      "¥": 106,
      "¦": 107,
      "§": 108,
      "¨": 109,
      "©": 110,
      "ª": 111,
      "«": 112,
      "¬": 113,
      "­": 114,
      "®": 115,
      "¯": 116,
      "°": 117,
      "±": 118,
      "²": 119,
      "³": 120,
      "´": 121,
      "µ": 122,
      "¶": 123,
      "·": 124,
      "¸": 125,
      "º": 126,
      "»": 127,
      "½": 128,
      "¿": 129,
      "À": 130,
      "Á": 131,
      "Â": 132,
      "Ã": 133,
      "Ä": 134,
      "Å": 135,
      "Ç": 136,
      "È": 137,
      "É": 138,
      "Ê": 139,
      "Í": 140,
      "Ð": 141,
      "Ñ": 142,
      "Ò": 143,
      "Ó": 144,
      "Ô": 145,
      "Õ": 146,
      "Ö": 147,
      "×": 148,
      "Ø": 149,
      "Ú": 150,
      "Ü": 151,
      "Ý": 152,
      "Þ": 153,
      "ß": 154,
      "à": 155,
      "á": 156,
      "â": 157,
      "ã": 158,
      "ä": 159,
      "å": 160,
      "æ": 161,
      "ç": 162,
      "è": 163,
      "é": 164,
      "ê": 165,
      "ë": 166,
      "ì": 167,
      "í": 168,
      "î": 169,
      "ï": 170,
      "ð": 171,
      "ñ": 172,
      "ò": 173,
      "ó": 174,
      "ô": 175,
      "õ": 176,
      "ö": 177,
      "÷": 178,
      "ø": 179,
      "ù": 180,
      "ú": 181,
      "û": 182,
      "ü": 183,
      "ý": 184,
      "þ": 185,
      "ÿ": 186,
      "œ": 187,
      "Š": 188,
      "š": 189,
      "Ž": 190,
      "ž": 191,
      "ƒ": 192,
      "ˆ": 193,
      "˜": 194,
      "–": 195,
      "—": 196,
      "‘": 197,
      "’": 198,
      "“": 199,
      "”": 200,
      "„": 201,
      "†": 202,
      "•": 203,
      "…": 204,
      "‰": 205,
      "‹": 206,
      "›": 207,
      "€": 208,
      "™": 209,
      "e ": 210,
      "s ": 211,
      "t ": 212,
      "in": 213,
      "th": 214,
      "er": 215,
      "an": 216,
      "on": 217,
      "d ": 218,
      "y ": 219,
      "ou": 220,
      "or": 221,
      "o ": 222,
      "tt": 223,
      "ing": 224,
      ". ": 225,
      "it": 226,
      "ar": 227,
      "en": 228,
      "p:": 229,
      "//": 230,
      "om": 231,
      "htt": 232,
      "al": 233,
      "p://": 234,
      "http://": 235,
      "ing ": 236,
      "re": 237,
      "a ": 238,
      "the ": 239,
      "st": 240,
      ", ": 241,
      "at": 242,
      "to ": 243,
      "..": 244,
      "ly": 245,
      "ow": 246,
      "ic": 247,
      "l ": 248,
      "er ": 249,
      "es": 250,
      "ly/": 251,
      "on ": 252,
      ".ly/": 253,
      ": ": 254,
      "f ": 255,
      "at ": 256,
      "bit": 257,
      "bit.ly/": 258,
      "http://bit.ly/": 259,
      "oo": 260,
      "is ": 261,
      "ch": 262,
      "or ": 263,
      "you": 264,
      "in ": 265,
      "k ": 266,
      "il": 267,
      "! ": 268,
      "el": 269,
      "com": 270,
      "ed ": 271,
      "am": 272,
      "I ": 273,
      "and ": 274,
      "as": 275,
      "us": 276,
      "is": 277,
      "es ": 278,
      "ol": 279,
      "ig": 280,
      "ur": 281,
      "ac": 282,
      " @": 283,
      "for ": 284,
      "of ": 285,
      "Th": 286,
      "ha": 287,
      "ve ": 288,
      "le": 289,
      "ay": 290,
      "ee": 291,
      ".com": 292,
      "an ": 293,
      "li": 294,
      "r ": 295,
      "ad": 296,
      "id": 297,
      "- ": 298,
      "p ": 299,
      "ti": 300,
      "ne": 301,
      "lo": 302,
      "you ": 303,
      "wi": 304,
      "ay ": 305,
      "'s ": 306,
      "un": 307,
      "RT": 308,
      "ro": 309,
      "ow ": 310,
      "en ": 311,
      "m ": 312,
      "ec": 313,
      "sh": 314,
      "th ": 315,
      "wh": 316,
      ".com/": 317,
      "it ": 318,
      "!!": 319,
      "igh": 320,
      "ab": 321,
      "RT @": 322,
      "out ": 323,
      "et": 324,
      "ag": 325,
      "al ": 326,
      "ak": 327,
      "ri": 328,
      "? ": 329,
      "n ": 330,
      "ed": 331,
      "my ": 332,
      "ww": 333,
      "as ": 334,
      "ir": 335,
      "ly ": 336,
      "w ": 337,
      "op": 338,
      "le ": 339,
      "00": 340,
      "to": 341,
      "be": 342,
      "ver": 343,
      "et ": 344,
      "ot ": 345,
      "em": 346,
      "...": 347,
      "bu": 348,
      "ra": 349,
      "... ": 350,
      "pp": 351,
      "ent": 352,
      "me ": 353,
      "http://t": 354,
      "i ": 355,
      "ear": 356,
      "h ": 357,
      "with ": 358,
      "os": 359,
      "be ": 360,
      "are ": 361,
      "ust ": 362,
      "The ": 363,
      "that ": 364,
      "wor": 365,
      "ff": 366,
      "Ch": 367,
      "ati": 368,
      "'t ": 369,
      "your ": 370,
      "se": 371,
      "om ": 372,
      "all ": 373,
      "fr": 374,
      "ill ": 375,
      "wee": 376,
      "ch ": 377,
      "one ": 378,
      "this ": 379,
      "the": 380,
      "St": 381,
      "ot": 382,
      "ea": 383,
      "im": 384,
      "\" ": 385,
      "su": 386,
      "day": 387,
      "ev": 388,
      "I'": 389,
      "g ": 390,
      "sp": 391,
      "oun": 392,
      "ks ": 393,
      "oc": 394,
      "and": 395,
      "have ": 396,
      "Wh": 397,
      "eb": 398,
      "ov": 399,
      ".  ": 400,
      "ers ": 401,
      "pl": 402,
      "ex": 403,
      "tr": 404,
      "ts ": 405,
      "di": 406,
      "est": 407,
      "ight ": 408,
      "ul": 409,
      "ke ": 410,
      "ent ": 411,
      "ld ": 412,
      "ere ": 413,
      "day ": 414,
      "ome ": 415,
      "E ": 416,
      "A ": 417,
      "& ": 418,
      "0 ": 419,
      "You": 420,
      "url": 421,
      "for": 422,
      "me": 423,
      "200": 424,
      "ter": 425,
      "ood ": 426,
      "uc": 427,
      "w.": 428,
      ") ": 429,
      "from ": 430,
      "mor": 431,
      "Ne": 432,
      "ate ": 433,
      "all": 434,
      "get ": 435,
      "ie": 436,
      "just ": 437,
      "up ": 438,
      "end": 439,
      "www.": 440,
      "qu": 441,
      "art": 442,
      "oll": 443,
      "est ": 444,
      ". http://bit.ly/": 445,
      "2 ": 446,
      "um": 447,
      "ph": 448,
      "now ": 449,
      "iny": 450,
      "av": 451,
      "go": 452,
      "2009": 453,
      "con": 454,
      "so ": 455,
      "ic ": 456,
      "ob": 457,
      "king ": 458,
      "ight": 459,
      "11": 460,
      "url.com/": 461,
      "S ": 462,
      "An": 463,
      "http://tiny": 464,
      "ake ": 465,
      "res": 466,
      "ould ": 467,
      "pro": 468,
      "ut": 469,
      "was ": 470,
      "In": 471,
      "ers": 472,
      "but ": 473,
      "ess": 474,
      "do": 475,
      "u ": 476,
      "I'm ": 477,
      "not ": 478,
      "am ": 479,
      "ce ": 480,
      "od": 481,
      "http://tinyurl.com/": 482,
      "up": 483,
      "like ": 484,
      "about ": 485,
      "gr": 486,
      "la": 487,
      "by ": 488,
      "e, ": 489,
      "T ": 490,
      "lin": 491,
      "witt": 492,
      "ing to ": 493,
      "ep": 494,
      "gi": 495,
      "e. ": 496,
      "new ": 497,
      "in the ": 498,
      "pr": 499,
      "ia ": 500,
      "ally ": 501,
      "??": 502,
      "our ": 503,
      "pic": 504,
      "ks": 505,
      "Sh": 506,
      "ide": 507,
      "ess ": 508,
      "gre": 509,
      " #": 510,
      "will ": 511,
      "ack ": 512,
      "http://bit.ly/1": 513,
      "ell": 514,
      "oug": 515,
      "ap": 516,
      "ar ": 517,
      "ant ": 518,
      "ey ": 519,
      "ast ": 520,
      "our": 521,
      "can ": 522,
      "si": 523,
      "ain": 524,
      "re ": 525,
      "10": 526,
      "ai": 527,
      "do ": 528,
      "Than": 529,
      "don": 530,
      "ost": 531,
      "aw": 532,
      "s, ": 533,
      "for the ": 534,
      "ome": 535,
      "we ": 536,
      "Li": 537,
      "ation": 538,
      "se ": 539,
      "ook ": 540,
      "2009-": 541,
      "x ": 542,
      "of the ": 543,
      "ad ": 544,
      "bl": 545,
      "fe": 546,
      "what ": 547,
      "oth": 548,
      "ds ": 549,
      "5 ": 550,
      "eal": 551,
      "of": 552,
      "\t2009-": 553,
      "eck ": 554,
      "  ": 555,
      "now": 556,
      "ast": 557,
      "ite ": 558,
      "fin": 559,
      "ill": 560,
      "ick": 561,
      "us ": 562,
      "http://bit.ly/3": 563,
      "s. ": 564,
      "ey": 565,
      "1 ": 566,
      "ort": 567,
      "e.": 568,
      "gu": 569,
      "ice ": 570,
      "http://bit.ly/2": 571,
      "IN": 572,
      "4 ": 573,
      "ack": 574,
      "3 ": 575,
      "bo": 576,
      "pe": 577,
      "ark": 578,
      "rec": 579,
      "e: ": 580,
      "http://www.": 581,
      "ud": 582,
      "ed to ": 583,
      "br": 584,
      "st ": 585,
      "ton": 586,
      "ever": 587,
      "wit": 588,
      "New ": 589,
      ".. http://bit.ly/": 590,
      "app": 591,
      "ell ": 592,
      "ann": 593,
      "if ": 594,
      "ant": 595,
      "D ": 596,
      "!  ": 597,
      "ang": 598,
      "more ": 599,
      "ity ": 600,
      "ll ": 601,
      "some ": 602,
      "thin": 603,
      "ation ": 604,
      "http://bit.ly/4": 605,
      "You ": 606,
      "out": 607,
      "ure ": 608,
      "jo": 609,
      "RE": 610,
      "sc": 611,
      "anc": 612,
      "good ": 613,
      "iz": 614,
      "ust": 615,
      "per": 616,
      "....": 617,
      "Fr": 618,
      "on the ": 619,
      "foll": 620,
      "http://tinyurl.com/y": 621,
      "ail": 622,
      "s: ": 623,
      "ame ": 624,
      "ree ": 625,
      "ug": 626,
      "cl": 627,
      "go ": 628,
      "ial ": 629,
      "ost ": 630,
      "ion": 631,
      "mon": 632,
      "end ": 633,
      "ge": 634,
      "20": 635,
      "off": 636,
      "man": 637,
      "ard ": 638,
      "got ": 639,
      "ard": 640,
      "af": 641,
      "Twitt": 642,
      "has ": 643,
      "love ": 644,
      "know ": 645,
      "ood": 646,
      "TH": 647,
      "http://ow": 648,
      "Y ": 649,
      "own ": 650,
      "http://ow.ly/": 651,
      "ind": 652,
      "how ": 653,
      "az": 654,
      "!! ": 655,
      "O ": 656,
      "R ": 657,
      "see ": 658,
      "Con": 659,
      "Ph": 660,
      "blo": 661,
      "http://twit": 662,
      "ere": 663,
      "time ": 664,
      "L ": 665,
      "el ": 666,
      "s.": 667,
      "wat": 668,
      "orr": 669,
      "12": 670,
      "own": 671,
      "than": 672,
      "Re": 673,
      "ON": 674,
      "age ": 675,
      ":)": 676,
      "@m": 677,
      "ays ": 678,
      "!!!!": 679,
      "tion": 680,
      "pic.com/": 681,
      "19": 682,
      "ut ": 683,
      "http://twitpic.com/": 684,
      "read": 685,
      "they ": 686,
      "te": 687,
      "n't ": 688,
      "tting ": 689,
      "Al": 690,
      "ah": 691,
      "when ": 692,
      "It": 693,
      "AN": 694,
      "ub": 695,
      "Br": 696,
      "great ": 697,
      "tion ": 698,
      "'re ": 699,
      "ook": 700,
      "Tr": 701,
      "no ": 702,
      "ase ": 703,
      "LO": 704,
      "twee": 705,
      "Just ": 706,
      "16": 707,
      "ter ": 708,
      "ist": 709,
      "09": 710,
      "ough": 711,
      "C ": 712,
      "7 ": 713,
      "today": 714,
      "att": 715,
      "iv": 716,
      "' ": 717,
      "z ": 718,
      "tu": 719,
      "use ": 720,
      "we": 721,
      "Sp": 722,
      "sm": 723,
      "ave ": 724,
      "En": 725,
      "min": 726,
      "hel": 727,
      "peop": 728,
      "don't ": 729,
      "thing ": 730,
      "that": 731,
      "M ": 732,
      "ass": 733,
      "ies ": 734,
      "art ": 735,
      "its ": 736,
      "39": 737,
      "ber": 738,
      "follow": 739,
      "fun": 740,
      "@M": 741,
      "ving ": 742,
      "ip": 743,
      "ear ": 744,
      "de": 745,
      "co": 746,
      "it's ": 747,
      "ong ": 748,
      "We ": 749,
      "id ": 750,
      "Gre": 751,
      "week": 752,
      "eg": 753,
      "to the ": 754,
      "im ": 755,
      "pre": 756,
      ". I ": 757,
      "dr": 758,
      "any": 759,
      "think ": 760,
      "Wor": 761,
      "who ": 762,
      "ash": 763,
      "some": 764,
      "op ": 765,
      "ings ": 766,
      "mu": 767,
      "Jo": 768,
      "he": 769,
      "ion ": 770,
      "ir ": 771,
      "back ": 772,
      "ine ": 773,
      "der": 774,
      ".com ": 775,
      "ound ": 776,
      "vide": 777,
      "On": 778,
      "What ": 779,
      "inter": 780,
      "make ": 781,
      "ie ": 782,
      "How ": 783,
      "Ar": 784,
      "other ": 785,
      "8 ": 786,
      "ing the ": 787,
      "cre": 788,
      "ore ": 789,
      "ish": 790,
      "my": 791,
      "11-": 792,
      "Check ": 793,
      "old ": 794,
      "at the ": 795,
      "ver ": 796,
      "If ": 797,
      "fri": 798,
      "Pro": 799,
      "lol": 800,
      "over ": 801,
      "15": 802,
      "My ": 803,
      "fl": 804,
      "ld": 805,
      "way ": 806,
      "inn": 807,
      "ick ": 808,
      "Twitter ": 809,
      "mm": 810,
      "come ": 811,
      "work ": 812,
      "Mon": 813,
      "fir": 814,
      "every": 815,
      "ber ": 816,
      "ace ": 817,
      "fu": 818,
      "been ": 819,
      "want ": 820,
      "--": 821,
      "off ": 822,
      "\t2009-11-": 823,
      "arket": 824,
      "@j": 825,
      "Be": 826,
      "au": 827,
      "tw": 828,
      "sel": 829,
      "Am": 830,
      "s to ": 831,
      ".g": 832,
      "10 ": 833,
      "work": 834,
      "new": 835,
      "og": 836,
      "Bl": 837,
      "a b": 838,
      "he ": 839,
      "mus": 840,
      "es, ": 841,
      "had ": 842,
      "Com": 843,
      "\t5": 844,
      "This ": 845,
      "Thanks ": 846,
      "iss": 847,
      "Ex": 848,
      "ort ": 849,
      "OU": 850,
      "usin": 851,
      "| ": 852,
      "via ": 853,
      "oto": 854,
      "can": 855,
      "would ": 856,
      "people ": 857,
      "ser": 858,
      "s/": 859,
      "ST": 860,
      "so": 861,
      ":3": 862,
      "ong": 863,
      "@D": 864,
      "It's ": 865,
      "cr": 866,
      "ign": 867,
      "comp": 868,
      "G ": 869,
      "enc": 870,
      "vie": 871,
      "ide ": 872,
      "@d": 873,
      "happ": 874,
      "e! ": 875,
      "his ": 876,
      "!!!": 877,
      ", but ": 878,
      "ER": 879,
      "car": 880,
      ".. ": 881,
      "P ": 882,
      "ge ": 883,
      "14": 884,
      "aking ": 885,
      "It ": 886,
      "ik": 887,
      "line ": 888,
      "!!! ": 889,
      "ough ": 890,
      "ther": 891,
      "ade ": 892,
      "iday ": 893,
      "s and ": 894,
      "New": 895,
      "6 ": 896,
      "fi": 897,
      "AL": 898,
      "ur ": 899,
      "AT": 900,
      "last ": 901,
      "ool ": 902,
      "fe ": 903,
      "Ad": 904,
      "ach": 905,
      "loo": 906,
      "for a ": 907,
      "In ": 908,
      "tom": 909,
      "amp": 910,
      "ity": 911,
      "able ": 912,
      "than ": 913,
      "should ": 914,
      "ool": 915,
      "ist ": 916,
      "ful ": 917,
      "pres": 918,
      "iou": 919,
      "tal": 920,
      "To ": 921,
      "F ": 922,
      "any ": 923,
      "post": 924,
      "really ": 925,
      "str": 926,
      "Go": 927,
      "ish ": 928,
      "s of ": 929,
      "ure": 930,
      "OO": 931,
      "ful": 932,
      "ig ": 933,
      "duc": 934,
      "wa": 935,
      "ance ": 936,
      "Pl": 937,
      "sk": 938,
      "ee ": 939,
      "right ": 940,
      "17": 941,
      "list": 942,
      "tter ": 943,
      "ning ": 944,
      "Lo": 945,
      "tim": 946,
      "18": 947,
      "... http://bit.ly/": 948,
      "still ": 949,
      "twitt": 950,
      "only ": 951,
      "mi": 952,
      "Your ": 953,
      "cc": 954,
      "ope ": 955,
      "@S": 956,
      "ile ": 957,
      "act": 958,
      "13": 959,
      "; ": 960,
      "/ ": 961,
      "in a ": 962,
      ", and ": 963,
      "Mar": 964,
      "illi": 965,
      "tra": 966,
      "Un": 967,
      "der ": 968,
      "00 ": 969,
      "play": 970,
      "ue ": 971,
      "To": 972,
      "ia": 973,
      "man ": 974,
      "Gr": 975,
      "nex": 976,
      "haha": 977,
      "mov": 978,
      "ry ": 979,
      "ans ": 980,
      "comm": 981,
      "ve": 982,
      "For ": 983,
      "dis": 984,
      "ose ": 985,
      "job": 986,
      "ma": 987,
      "very ": 988,
      "ocial ": 989,
      "W ": 990,
      "ing a ": 991,
      "Don": 992,
      "ead ": 993,
      "there ": 994,
      "ans": 995,
      "ets ": 996,
      "here ": 997,
      "ely ": 998,
      "9 ": 999,
      "The": 1000,
      "ther ": 1001,
      "wr": 1002,
      "web": 1003,
      "cont": 1004,
      "her ": 1005,
      "their ": 1006,
      ". H": 1007,
      "@ ": 1008,
      "ting ": 1009,
      "d/": 1010,
      "-- ": 1011,
      "much ": 1012,
      "thr": 1013,
      "And ": 1014,
      "is a ": 1015,
      "with": 1016,
      ", I ": 1017,
      "rist": 1018,
      "ck": 1019,
      "at's ": 1020,
      "Car": 1021,
      "blog": 1022,
      "fee": 1023,
      "lease ": 1024,
      "one": 1025,
      "ft ": 1026,
      "Inter": 1027,
      "ial": 1028,
      "ble": 1029,
      "50": 1030,
      "check ": 1031,
      "show": 1032,
      "ents ": 1033,
      "s! ": 1034,
      "tomorr": 1035,
      "going to ": 1036,
      "aceb": 1037,
      "watch": 1038,
      ". S": 1039,
      "@J": 1040,
      "her": 1041,
      "add": 1042,
      "ats ": 1043,
      "ese ": 1044,
      "Cl": 1045,
      "K ": 1046,
      "time": 1047,
      "par": 1048,
      "@s": 1049,
      "video ": 1050,
      "@k": 1051,
      "friend": 1052,
      "ES": 1053,
      "ain ": 1054,
      "Is ": 1055,
      "ence ": 1056,
      "gir": 1057,
      "ttle ": 1058,
      "des": 1059,
      "EN": 1060,
      "ever ": 1061,
      "int": 1062,
      "night": 1063,
      "tonight": 1064,
      "ing.": 1065,
      "po": 1066,
      "AR": 1067,
      "today ": 1068,
      "edia ": 1069,
      "is the ": 1070,
      ".gd/": 1071,
      "to be ": 1072,
      "next ": 1073,
      "23": 1074,
      "fre": 1075,
      "too ": 1076,
      "oog": 1077,
      ":4": 1078,
      "tur": 1079,
      "Blo": 1080,
      "though": 1081,
      "ated ": 1082,
      "ready ": 1083,
      "Good ": 1084,
      "ps ": 1085,
      "24": 1086,
      "most ": 1087,
      "port": 1088,
      "ment ": 1089,
      "ind ": 1090,
      "stor": 1091,
      "acc": 1092,
      "akes ": 1093,
      "U ": 1094,
      "?  ": 1095,
      "a c": 1096,
      "part": 1097,
      "ry": 1098,
      "ail ": 1099,
      "25": 1100,
      "first ": 1101,
      "ate": 1102,
      "no": 1103,
      "year": 1104,
      "Wi": 1105,
      "Le": 1106,
      "ing. ": 1107,
      "run": 1108,
      "Pr": 1109,
      "igg": 1110,
      "mo": 1111,
      "ect": 1112,
      "show ": 1113,
      "night ": 1114,
      "did ": 1115,
      "NO": 1116,
      "them ": 1117,
      "free ": 1118,
      "net": 1119,
      "08": 1120,
      "bab": 1121,
      "best ": 1122,
      "hear": 1123,
      "know": 1124,
      "can't ": 1125,
      "take ": 1126,
      "too": 1127,
      "zz": 1128,
      "ff ": 1129,
      "&#": 1130,
      "bre": 1131,
      "eric": 1132,
      "need ": 1133,
      "ect ": 1134,
      "sch": 1135,
      "won": 1136,
      "oot": 1137,
      "eep ": 1138,
      "ways ": 1139,
      "will be ": 1140,
      "US": 1141,
      "Get ": 1142,
      "% ": 1143,
      "sure ": 1144,
      "then ": 1145,
      "ord": 1146,
      "ign ": 1147,
      "Qu": 1148,
      "ause ": 1149,
      "b ": 1150,
      "B ": 1151,
      "ound": 1152,
      "adi": 1153,
      "ble ": 1154,
      "ss": 1155,
      "y, ": 1156,
      "ass ": 1157,
      "onn": 1158,
      "Check out ": 1159,
      "usiness ": 1160,
      "'ll ": 1161,
      "mar": 1162,
      "AM": 1163,
      "IT": 1164,
      "hol": 1165,
      "col": 1166,
      "ok": 1167,
      "uck": 1168,
      "Te": 1169,
      ":5": 1170,
      "ating ": 1171,
      "Bo": 1172,
      "to get ": 1173,
      "Wat": 1174,
      "Bu": 1175,
      "ing, ": 1176,
      "getting ": 1177,
      "a s": 1178,
      "ember ": 1179,
      "down ": 1180,
      "OM": 1181,
      ". #": 1182,
      "good": 1183,
      "&#39": 1184,
      "I am ": 1185,
      "We": 1186,
      "live ": 1187,
      "Thanks": 1188,
      "On ": 1189,
      "AS": 1190,
      "@c": 1191,
      "hh": 1192,
      "form": 1193,
      "NE": 1194,
      "27": 1195,
      "tri": 1196,
      ": http://bit.ly/": 1197,
      "Fl": 1198,
      "where ": 1199,
      "????": 1200,
      "after ": 1201,
      "vis": 1202,
      "aa": 1203,
      "say ": 1204,
      "sle": 1205,
      "28": 1206,
      "way": 1207,
      "stu": 1208,
      "Great ": 1209,
      "29": 1210,
      "26": 1211,
      "ive ": 1212,
      "V ": 1213,
      "pos": 1214,
      "s!": 1215,
      "arketing ": 1216,
      "ouse ": 1217,
      "see": 1218,
      "org": 1219,
      "ys ": 1220,
      "tweet": 1221,
      "ary ": 1222,
      "ste": 1223,
      "were ": 1224,
      "Col": 1225,
      "@b": 1226,
      "photo": 1227,
      "look ": 1228,
      "could ": 1229,
      "ven": 1230,
      "ich ": 1231,
      "For": 1232,
      "I have ": 1233,
      "CH": 1234,
      "supp": 1235,
      "Nov": 1236,
      "Gu": 1237,
      "OR": 1238,
      "mis": 1239,
      "into ": 1240,
      "fam": 1241,
      "sal": 1242,
      "ies": 1243,
      "ty": 1244,
      "ock": 1245,
      ".m": 1246,
      "down": 1247,
      "sy": 1248,
      "ip ": 1249,
      "via @": 1250,
      "30": 1251,
      "RT ": 1252,
      "with the ": 1253,
      "eas": 1254,
      "Twee": 1255,
      "enn": 1256,
      "help ": 1257,
      "thanks ": 1258,
      "chang": 1259,
      "exc": 1260,
      "36": 1261,
      "home ": 1262,
      "lat": 1263,
      "Mus": 1264,
      "did": 1265,
      "Foll": 1266,
      "Mic": 1267,
      "sa": 1268,
      "son ": 1269,
      "c ": 1270,
      "ank": 1271,
      "Happ": 1272,
      "ise ": 1273,
      "N ": 1274,
      "ves ": 1275,
      "@B": 1276,
      "if": 1277,
      "I'll ": 1278,
      "gam": 1279,
      "start": 1280,
      "@R": 1281,
      "http://bit.ly/6": 1282,
      "never ": 1283,
      "real": 1284,
      "LE": 1285,
      "More ": 1286,
      "er, ": 1287,
      "better ": 1288,
      "air": 1289,
      "even ": 1290,
      "this": 1291,
      "’s ": 1292,
      "ates ": 1293,
      "gg": 1294,
      "mee": 1295,
      "Goog": 1296,
      "e!": 1297,
      "over": 1298,
      "you're ": 1299,
      "http://bit.ly/7": 1300,
      "again": 1301,
      "a h": 1302,
      "No ": 1303,
      "ef": 1304,
      "atur": 1305,
      "ment": 1306,
      "sur": 1307,
      "http://bit.ly/8": 1308,
      ":0": 1309,
      "RI": 1310,
      "blog ": 1311,
      "sec": 1312,
      "pu": 1313,
      "if you ": 1314,
      "she ": 1315,
      "http://bit.ly/5": 1316,
      "why ": 1317,
      "gl": 1318,
      "@K": 1319,
      "So ": 1320,
      "them": 1321,
      "Free ": 1322,
      "um ": 1323,
      "awes": 1324,
      "Do ": 1325,
      "Faceb": 1326,
      "ote ": 1327,
      "cra": 1328,
      "is.gd/": 1329,
      "tty ": 1330,
      "let ": 1331,
      "ty ": 1332,
      " http://": 1333,
      "aid ": 1334,
      "win": 1335,
      "site ": 1336,
      "&#39;": 1337,
      "Tu": 1338,
      "to see ": 1339,
      "ere's ": 1340,
      "bel": 1341,
      "red ": 1342,
      "let": 1343,
      "life ": 1344,
      "App": 1345,
      "Sun": 1346,
      "coming ": 1347,
      "hn": 1348,
      "La": 1349,
      "Vide": 1350,
      ": The ": 1351,
      ":) ": 1352,
      "tre": 1353,
      "ed by ": 1354,
      "Ob": 1355,
      "Now ": 1356,
      "clo": 1357,
      "s for ": 1358,
      "Pre": 1359,
      "inv": 1360,
      "pers": 1361,
      "LI": 1362,
      "back": 1363,
      "@C": 1364,
      "fore ": 1365,
      "ris": 1366,
      "made ": 1367,
      "tm": 1368,
      "fav": 1369,
      "feel ": 1370,
      "find ": 1371,
      "sit": 1372,
      "FRE": 1373,
      "cli": 1374,
      "Par": 1375,
      "ew": 1376,
      "@T": 1377,
      ": http://": 1378,
      "Americ": 1379,
      "I've ": 1380,
      "bec": 1381,
      "fb": 1382,
      "Di": 1383,
      "from the ": 1384,
      "RO": 1385,
      "40": 1386,
      "AC": 1387,
      "Ge": 1388,
      "iting ": 1389,
      "ream": 1390,
      "ugh": 1391,
      "view ": 1392,
      "inc": 1393,
      ". B": 1394,
      "bro": 1395,
      "heal": 1396,
      "lol ": 1397,
      "kid": 1398,
      "ild": 1399,
      "sl": 1400,
      "y.": 1401,
      "I just ": 1402,
      "fil": 1403,
      "ould": 1404,
      "DA": 1405,
      "NY": 1406,
      "os ": 1407,
      "war": 1408,
      "THE ": 1409,
      "nee": 1410,
      "ed the ": 1411,
      "going ": 1412,
      ": S": 1413,
      "ink": 1414,
      "2009 ": 1415,
      "opp": 1416,
      "looking ": 1417,
      "Ti": 1418,
      "Co": 1419,
      "ine": 1420,
      "es. ": 1421,
      "allow": 1422,
      "Do": 1423,
      "Hol": 1424,
      "ed a ": 1425,
      "s in ": 1426,
      "Why ": 1427,
      "try": 1428,
      "Or": 1429,
      "have a ": 1430,
      "- http://": 1431,
      "Thank ": 1432,
      "tter": 1433,
      "hi": 1434,
      "net ": 1435,
      "ath": 1436,
      "EE": 1437,
      "little ": 1438,
      "Happy ": 1439,
      "s on ": 1440,
      "unch": 1441,
      "working ": 1442,
      "Mo": 1443,
      ": \"": 1444,
      "always ": 1445,
      "those ": 1446,
      "uck ": 1447,
      "HA": 1448,
      "45": 1449,
      "self ": 1450,
      "twitter ": 1451,
      "Friday ": 1452,
      "many ": 1453,
      "Mi": 1454,
      "33": 1455,
      "ody ": 1456,
      "tonight ": 1457,
      "Sc": 1458,
      "Don't ": 1459,
      "e's ": 1460,
      "That ": 1461,
      "need to ": 1462,
      "SE": 1463,
      "y. ": 1464,
      "ton ": 1465,
      "Ab": 1466,
      "sol": 1467,
      "es.": 1468,
      "want to ": 1469,
      "Web": 1470,
      "hope ": 1471,
      "ener": 1472,
      "try ": 1473,
      "De": 1474,
      "les ": 1475,
      "inf": 1476,
      "oup": 1477,
      "-0": 1478,
      "Not ": 1479,
      "that's ": 1480,
      "49": 1481,
      "IC": 1482,
      "red": 1483,
      "21": 1484,
      "gra": 1485,
      "game ": 1486,
      "If you ": 1487,
      "Social ": 1488,
      "Dr": 1489,
      "Tra": 1490,
      "Love ": 1491,
      "ace": 1492,
      "J ": 1493,
      "head": 1494,
      "leas": 1495,
      "ert": 1496,
      "top ": 1497,
      "being ": 1498,
      "all the ": 1499,
      "lear": 1500,
      "onna ": 1501,
      "bur": 1502,
      "ll": 1503,
      "HO": 1504,
      "22": 1505,
      "a m": 1506,
      "view": 1507,
      "ros": 1508,
      "Have ": 1509,
      "I love ": 1510,
      "79": 1511,
      ":-": 1512,
      "Are ": 1513,
      "boo": 1514,
      "Ac": 1515,
      "produc": 1516,
      "music ": 1517,
      "78": 1518,
      "ich": 1519,
      "give ": 1520,
      "t of ": 1521,
      "ery ": 1522,
      "Can": 1523,
      "iday": 1524,
      "66": 1525,
      "star": 1526,
      "de ": 1527,
      "dec": 1528,
      "H ": 1529,
      "vel": 1530,
      "and the ": 1531,
      "before ": 1532,
      "ING ": 1533,
      "@L": 1534,
      "arg": 1535,
      "Christ": 1536,
      "vers": 1537,
      "DE": 1538,
      "spec": 1539,
      "call": 1540,
      "ical ": 1541,
      "Google ": 1542,
      "amaz": 1543,
      "ors ": 1544,
      "well ": 1545,
      "ants ": 1546,
      "on my ": 1547,
      "eff": 1548,
      "fm": 1549,
      "things ": 1550,
      "wal": 1551,
      "FF": 1552,
      "week ": 1553,
      "til ": 1554,
      "girl": 1555,
      "ily ": 1556,
      "a p": 1557,
      "MA": 1558,
      "At ": 1559,
      "not": 1560,
      "bi": 1561,
      "coun": 1562,
      "these ": 1563,
      "nk": 1564,
      "loc": 1565,
      "ward ": 1566,
      "LA": 1567,
      "VE ": 1568,
      "ny": 1569,
      "read ": 1570,
      "less ": 1571,
      "Op": 1572,
      "keep ": 1573,
      "ory ": 1574,
      "serv": 1575,
      "giving ": 1576,
      "ed in ": 1577,
      "tomorrow": 1578,
      "35": 1579,
      "Pe": 1580,
      "sion ": 1581,
      "a great ": 1582,
      "mp": 1583,
      "YOU": 1584,
      "hom": 1585,
      "hour": 1586,
      "well": 1587,
      ": @": 1588,
      ".im": 1589,
      "son": 1590,
      "ama ": 1591,
      "your": 1592,
      "75": 1593,
      "Dis": 1594,
      "land": 1595,
      "imp": 1596,
      "ason": 1597,
      "start ": 1598,
      "X ": 1599,
      "by": 1600,
      "il ": 1601,
      "shar": 1602,
      "it.": 1603,
      "s - ": 1604,
      ". L": 1605,
      "may ": 1606,
      "ink ": 1607,
      "I think ": 1608,
      "oooo": 1609,
      "unch ": 1610,
      "orn": 1611,
      "a, ": 1612,
      "long ": 1613,
      " @ ": 1614,
      "@p": 1615,
      "v ": 1616,
      "I was ": 1617,
      "ts": 1618,
      "All ": 1619,
      "ash ": 1620,
      "offic": 1621,
      "ebr": 1622,
      "pm ": 1623,
      "ER ": 1624,
      "quest": 1625,
      "IL": 1626,
      "music": 1627,
      "yn": 1628,
      "lov": 1629,
      "Rec": 1630,
      "sn": 1631,
      "rem": 1632,
      "Facebook ": 1633,
      "w/ ": 1634,
      ".im/": 1635,
      "48": 1636,
      "thing": 1637,
      "s are ": 1638,
      "ous ": 1639,
      "say": 1640,
      "another ": 1641,
      "because ": 1642,
      "Ser": 1643,
      "feel": 1644,
      "e-": 1645,
      "doing ": 1646,
      "Twitter": 1647,
      "Pres": 1648,
      "high": 1649,
      "dri": 1650,
      "Fin": 1651,
      "Rep": 1652,
      "does ": 1653,
      "Marketing ": 1654,
      "real ": 1655,
      "pm": 1656,
      "Sal": 1657,
      "right": 1658,
      "follow ": 1659,
      "morn": 1660,
      "eng": 1661,
      "> ": 1662,
      "Des": 1663,
      "Ro": 1664,
      "With ": 1665,
      "wom": 1666,
      "+ ": 1667,
      "enti": 1668,
      "play ": 1669,
      "per ": 1670,
      "-2": 1671,
      "watch ": 1672,
      "cu": 1673,
      ":  ": 1674,
      "iPh": 1675,
      "He": 1676,
      "Please ": 1677,
      "Res": 1678,
      "ond": 1679,
      "ole ": 1680,
      "... http://": 1681,
      "Media ": 1682,
      "– ": 1683,
      "few ": 1684,
      "everyone ": 1685,
      "old": 1686,
      "erc": 1687,
      "ali": 1688,
      "wait ": 1689,
      "ous": 1690,
      ".\" ": 1691,
      "een ": 1692,
      "Man": 1693,
      "ed. ": 1694,
      "GO": 1695,
      "lec": 1696,
      "this week": 1697,
      "of my ": 1698,
      "every ": 1699,
      "ins ": 1700,
      "htm": 1701,
      "artic": 1702,
      "favor": 1703,
      "fun ": 1704,
      "\n ": 1705,
      "ins": 1706,
      "gonna ": 1707,
      "38": 1708,
      "77": 1709,
      "ys": 1710,
      "air ": 1711,
      "Go ": 1712,
      "Of ": 1713,
      "fer": 1714,
      "t. ": 1715,
      "LOL": 1716,
      "ON ": 1717,
      "Up": 1718,
      "ox": 1719,
      "act ": 1720,
      "ower ": 1721,
      "tell ": 1722,
      "him ": 1723,
      "Day ": 1724,
      "tta ": 1725,
      "in S": 1726,
      "something ": 1727,
      "post ": 1728,
      "FO": 1729,
      "99": 1730,
      "w/": 1731,
      "med": 1732,
      "ited ": 1733,
      "Best ": 1734,
      "ening ": 1735,
      "in my ": 1736,
      "Off": 1737,
      "es to ": 1738,
      "ious ": 1739,
      "it. ": 1740,
      "online ": 1741,
      "a f": 1742,
      "yea": 1743,
      "! #": 1744,
      "Wee": 1745,
      "mas ": 1746,
      "Cr": 1747,
      "Rev": 1748,
      "000 ": 1749,
      "emp": 1750,
      "I w": 1751,
      "nec": 1752,
      "un ": 1753,
      "del": 1754,
      "Net": 1755,
      "sw": 1756,
      "o, ": 1757,
      "exp": 1758,
      "60": 1759,
      "didn't ": 1760,
      "Dec": 1761,
      "urr": 1762,
      "Thanks for the ": 1763,
      "'ve ": 1764,
      "e? ": 1765,
      "http://is.gd/": 1766,
      "ask": 1767,
      "under": 1768,
      "Hey ": 1769,
      "you can ": 1770,
      "Ev": 1771,
      "cle": 1772,
      "I don't ": 1773,
      "er: ": 1774,
      "ball ": 1775,
      "lik": 1776,
      "FREE ": 1777,
      "When ": 1778,
      "put ": 1779,
      "tive ": 1780,
      "money ": 1781,
      "Heal": 1782,
      "y: ": 1783,
      "44": 1784,
      "ak ": 1785,
      "AP": 1786,
      "I can ": 1787,
      "world": 1788,
      "through ": 1789,
      "bir": 1790,
      "tiv": 1791,
      "12 ": 1792,
      "ince ": 1793,
      "70": 1794,
      "Make ": 1795,
      "Fir": 1796,
      "sion": 1797,
      "Can ": 1798,
      "s #": 1799,
      "a good ": 1800,
      "They ": 1801,
      "have to ": 1802,
      "does": 1803,
      "Job": 1804,
      ".... ": 1805,
      "anna ": 1806,
      "while ": 1807,
      "Loo": 1808,
      "dat": 1809,
      "s? ": 1810,
      "great": 1811,
      "One ": 1812,
      "Fre": 1813,
      "Who ": 1814,
      "two ": 1815,
      "@g": 1816,
      "ason ": 1817,
      "it was ": 1818,
      "ach ": 1819,
      "Photo": 1820,
      "News ": 1821,
      "IG": 1822,
      "tweet ": 1823,
      "Tw": 1824,
      "enjo": 1825,
      "yf": 1826,
      "30 ": 1827,
      "the s": 1828,
      "es: ": 1829,
      "Oc": 1830,
      "around ": 1831,
      "Fi": 1832,
      "ms ": 1833,
      "ild ": 1834,
      "giv": 1835,
      "said ": 1836,
      "mag": 1837,
      "cour": 1838,
      "bar": 1839,
      "! RT @": 1840,
      "rog": 1841,
      "check out ": 1842,
      "ching ": 1843,
      "aff": 1844,
      "do you ": 1845,
      "ing: ": 1846,
      "Bea": 1847,
      "aj": 1848,
      "t.": 1849,
      "20 ": 1850,
      "Mc": 1851,
      "men": 1852,
      "69": 1853,
      "albu": 1854,
      "help": 1855,
      "usiness": 1856,
      "(via @": 1857,
      "ition ": 1858,
      "US ": 1859,
      "68": 1860,
      "My": 1861,
      "Po": 1862,
      "ep ": 1863,
      "ah ": 1864,
      "earch ": 1865,
      "zy ": 1866,
      "ational ": 1867,
      "ding ": 1868,
      "List": 1869,
      "World ": 1870,
      "ester": 1871,
      "\n\n": 1872,
      "pretty ": 1873,
      "Hel": 1874,
      "nice ": 1875,
      "ship ": 1876,
      "ley ": 1877,
      "@n": 1878,
      "Cre": 1879,
      "And": 1880,
      "Sk": 1881,
      "a d": 1882,
      "feat": 1883,
      "Will ": 1884,
      "ice": 1885,
      "soon": 1886,
      "to h": 1887,
      "ck ": 1888,
      "makes ": 1889,
      "ond ": 1890,
      "interest": 1891,
      "tru": 1892,
      "someone ": 1893,
      "pi": 1894,
      "having ": 1895,
      "eck": 1896,
      "word": 1897,
      ":(": 1898,
      "elebr": 1899,
      "using ": 1900,
      "IN ": 1901,
      "icag": 1902,
      "oo ": 1903,
      "ite": 1904,
      "Come ": 1905,
      "ny ": 1906,
      "big ": 1907,
      "miss": 1908,
      "rep": 1909,
      "tomorrow ": 1910,
      "ouse": 1911,
      "Au": 1912,
      "! http://": 1913,
      "Bre": 1914,
      "h, ": 1915,
      "int ": 1916,
      "ative ": 1917,
      "Business ": 1918,
      "are": 1919,
      "Follow": 1920,
      "happy ": 1921,
      "mom": 1922,
      "fm/": 1923,
      "Mag": 1924,
      "IS ": 1925,
      "making ": 1926,
      "Blog ": 1927,
      "TV ": 1928,
      "Ed": 1929,
      "year ": 1930,
      "IS": 1931,
      "may": 1932,
      "That's ": 1933,
      "ics ": 1934,
      "diff": 1935,
      "miss ": 1936,
      ";)": 1937,
      "er. ": 1938,
      "world ": 1939,
      "15 ": 1940,
      "ious": 1941,
      " - ": 1942,
      "call ": 1943,
      "on a ": 1944,
      "?!": 1945,
      "minut": 1946,
      "self": 1947,
      "ax": 1948,
      "@P": 1949,
      "win ": 1950,
      "Ever": 1951,
      "lnk": 1952,
      ".htm": 1953,
      "book ": 1954,
      "char": 1955,
      "morning ": 1956,
      "Hallow": 1957,
      "Tim": 1958,
      "Af": 1959,
      "lad ": 1960,
      "@t": 1961,
      "RA": 1962,
      "From ": 1963,
      "thank ": 1964,
      "pri": 1965,
      "ying ": 1966,
      "che": 1967,
      "ens ": 1968,
      "65": 1969,
      "social ": 1970,
      "ock ": 1971,
      "prom": 1972,
      "bor": 1973,
      "ha ": 1974,
      "actu": 1975,
      "says ": 1976,
      "leg": 1977,
      "ode ": 1978,
      "set ": 1979,
      "ement ": 1980,
      "cat": 1981,
      "ern": 1982,
      "ump": 1983,
      "pol": 1984,
      "succ": 1985,
      "inner ": 1986,
      "acks": 1987,
      "ope": 1988,
      "mem": 1989,
      "about the ": 1990,
      "Live ": 1991,
      "ition": 1992,
      "@l": 1993,
      "vi": 1994,
      "from": 1995,
      "it is ": 1996,
      "able": 1997,
      "followers ": 1998,
      "ni": 1999,
      "Be ": 2000,
      "88": 2001,
      "sing ": 2002,
      "es and ": 2003,
      "ower": 2004,
      "Ton": 2005,
      "ft": 2006,
      "days ": 2007,
      "ieve ": 2008,
      "11 ": 2009,
      ".ms/": 2010,
      "@A": 2011,
      "stud": 2012,
      "out of ": 2013,
      "graph": 2014,
      "anyone ": 2015,
      "100": 2016,
      "might ": 2017,
      "yr": 2018,
      "prof": 2019,
      "with @": 2020,
      "Cent": 2021,
      "ian ": 2022,
      "?? ": 2023,
      "Sm": 2024,
      "ca": 2025,
      "hand": 2026,
      "bud": 2027,
      "Rob": 2028,
      "\t6": 2029,
      "lnk.ms/": 2030,
      "07": 2031,
      "UN": 2032,
      "Su": 2033,
      "also ": 2034,
      "vo": 2035,
      "phone ": 2036,
      "Fe": 2037,
      "Sch": 2038,
      "rr": 2039,
      "ly, ": 2040,
      "Comp": 2041,
      "you are ": 2042,
      "Me": 2043,
      ".....": 2044,
      "sub": 2045,
      "Har": 2046,
      "until ": 2047,
      "VI": 2048,
      "ed.": 2049,
      "ening to ": 2050,
      "life": 2051,
      "i'": 2052,
      "dam": 2053,
      "ene": 2054,
      "way to ": 2055,
      "side ": 2056,
      "Ste": 2057,
      "there": 2058,
      ". http://": 2059,
      "sid": 2060,
      "care ": 2061,
      "which ": 2062,
      "business ": 2063,
      "ounds ": 2064,
      "media ": 2065,
      "11/": 2066,
      "Any": 2067,
      "age": 2068,
      "No": 2069,
      "exper": 2070,
      "\t2009-10": 2071,
      "nam": 2072,
      "evel": 2073,
      "orts ": 2074,
      "stop ": 2075,
      "ub ": 2076,
      "Home ": 2077,
      "ale ": 2078,
      "looks ": 2079,
      "song": 2080,
      "must ": 2081,
      "a lo": 2082,
      "out to ": 2083,
      "vil": 2084,
      "34": 2085,
      "sign": 2086,
      "day, ": 2087,
      "yl": 2088,
      ". The ": 2089,
      "TO": 2090,
      "bad ": 2091,
      "@h": 2092,
      "Top ": 2093,
      "det": 2094,
      "right now": 2095,
      "TW": 2096,
      "twitter": 2097,
      "BE": 2098,
      "lead": 2099,
      "home": 2100,
      "ush": 2101,
      "ake": 2102,
      "party ": 2103,
      "55": 2104,
      "bet": 2105,
      "ict": 2106,
      "iate ": 2107,
      "IM": 2108,
      "Oh ": 2109,
      "Sou": 2110,
      "ru": 2111,
      "away ": 2112,
      ". W": 2113,
      "ed, ": 2114,
      "inst": 2115,
      "talk ": 2116,
      "HE": 2117,
      "! I ": 2118,
      "forward ": 2119,
      "09 ": 2120,
      "with a ": 2121,
      "Sec": 2122,
      "deal": 2123,
      "Time ": 2124,
      "! http://bit.ly/": 2125,
      "ama": 2126,
      "80": 2127,
      "ual ": 2128,
      "eni": 2129,
      "CO": 2130,
      "May": 2131,
      "ster": 2132,
      "watching ": 2133,
      "done ": 2134,
      "Day": 2135,
      "o: ": 2136,
      "Satur": 2137,
      "Per": 2138,
      "Online ": 2139,
      "ady ": 2140,
      "ations ": 2141,
      "Aw": 2142,
      "Bar": 2143,
      "Part": 2144,
      "are you ": 2145,
      "ude ": 2146,
      "**": 2147,
      "yet": 2148,
      "person": 2149,
      "ones ": 2150,
      "ending ": 2151,
      "oh ": 2152,
      "ed for ": 2153,
      "eep": 2154,
      "vid": 2155,
      "ently ": 2156,
      "ii": 2157,
      "erg": 2158,
      "Video ": 2159,
      "37": 2160,
      "iPhone ": 2161,
      "= ": 2162,
      "@N": 2163,
      "ina ": 2164,
      "Se": 2165,
      "saw ": 2166,
      "Coun": 2167,
      "gh": 2168,
      "here": 2169,
      "girl ": 2170,
      "grat": 2171,
      "&#39;s ": 2172,
      "que ": 2173,
      "doesn't ": 2174,
      "@r": 2175,
      "ney ": 2176,
      "friend ": 2177,
      ", the ": 2178,
      "Z ": 2179,
      "bas": 2180,
      "Its ": 2181,
      "Em": 2182,
      "Every": 2183,
      "us/": 2184,
      "yy": 2185,
      "orry ": 2186,
      "90": 2187,
      "War": 2188,
      "house ": 2189,
      "thanks": 2190,
      "thought ": 2191,
      "cover": 2192,
      "gets ": 2193,
      "hate ": 2194,
      "yp": 2195,
      "Char": 2196,
      "Veg": 2197,
      "noth": 2198,
      "sing": 2199,
      "2n": 2200,
      "als ": 2201,
      "aul": 2202,
      "found ": 2203,
      "HH": 2204,
      "rect": 2205,
      "dont ": 2206,
      "ari": 2207,
      "Did ": 2208,
      "oto ": 2209,
      "loy": 2210,
      "load": 2211,
      "guys ": 2212,
      "su.": 2213,
      "favorite ": 2214,
      "cool ": 2215,
      "stre": 2216,
      "ster ": 2217,
      "ING": 2218,
      "beau": 2219,
      "illion ": 2220,
      "tc": 2221,
      "AT ": 2222,
      "? http://": 2223,
      "rel": 2224,
      ": RT @": 2225,
      "100 ": 2226,
      "Gir": 2227,
      "tick": 2228,
      "spir": 2229,
      "DI": 2230,
      "LA ": 2231,
      "please ": 2232,
      "seen ": 2233,
      "hun": 2234,
      "adio ": 2235,
      "ing! ": 2236,
      "plan": 2237,
      "pr/": 2238,
      "yfrog": 2239,
      "ert ": 2240,
      "itch": 2241,
      "Cont": 2242,
      "Nor": 2243,
      "su.pr/": 2244,
      "@ch": 2245,
      "les": 2246,
      "i'm ": 2247,
      "swee": 2248,
      "Black ": 2249,
      "San ": 2250,
      "lim": 2251,
      "cool": 2252,
      "times ": 2253,
      "sleep": 2254,
      "place ": 2255,
      "Music ": 2256,
      "body ": 2257,
      "ym": 2258,
      "amm": 2259,
      "ank ": 2260,
      "nl": 2261,
      "sha": 2262,
      "of a ": 2263,
      "GE": 2264,
      "Fun": 2265,
      "Our ": 2266,
      "er.": 2267,
      "month": 2268,
      "] ": 2269,
      "olog": 2270,
      "dj": 2271,
      "urs": 2272,
      "yfrog.com/": 2273,
      "hal": 2274,
      "happen": 2275,
      "AA": 2276,
      "p: ": 2277,
      "a #": 2278,
      "ag ": 2279,
      "Real": 2280,
      "rain": 2281,
      "resp": 2282,
      "ord ": 2283,
      "CE": 2284,
      "Wal": 2285,
      ":30": 2286,
      "13 ": 2287,
      "go to ": 2288,
      "adv": 2289,
      "upd": 2290,
      "Bro": 2291,
      "nt ": 2292,
      "!!!!!!!!": 2293,
      "Ha": 2294,
      "vel ": 2295,
      "rest": 2296,
      "Comm": 2297,
      "@The": 2298,
      "Cor": 2299,
      "ights ": 2300,
      "2010 ": 2301,
      "Med": 2302,
      "Dav": 2303,
      "tiful ": 2304,
      "change ": 2305,
      "@G": 2306,
      "Star": 2307,
      "Fri": 2308,
      "ness ": 2309,
      "Friday": 2310,
      "hn ": 2311,
      "awesome ": 2312,
      ".gs/": 2313,
      "Post": 2314,
      "what": 2315,
      "TO ": 2316,
      "send ": 2317,
      "it!": 2318,
      "Internet ": 2319,
      "u/": 2320,
      "!!!! ": 2321,
      "PO": 2322,
      "short": 2323,
      ".S": 2324,
      "conc": 2325,
      "How to ": 2326,
      "mas": 2327,
      "get": 2328,
      "in' ": 2329,
      "to do ": 2330,
      "ouldn't ": 2331,
      "tl": 2332,
      "it, ": 2333,
      "buy ": 2334,
      "Social Media ": 2335,
      "proble": 2336,
      "Lov": 2337,
      "actually ": 2338,
      "email ": 2339,
      "Yea": 2340,
      "soc": 2341,
      "dro": 2342,
      "oot ": 2343,
      "There ": 2344,
      "publ": 2345,
      "ows ": 2346,
      "people": 2347,
      "Can't ": 2348,
      "differ": 2349,
      "ext ": 2350,
      "val": 2351,
      "Big ": 2352,
      "Tal": 2353,
      "UR": 2354,
      "already ": 2355,
      "1st ": 2356,
      "avail": 2357,
      ",000 ": 2358,
      "umm": 2359,
      "59": 2360,
      "http://tw": 2361,
      "Chicag": 2362,
      "without ": 2363,
      "Obama ": 2364,
      "CA": 2365,
      "ital ": 2366,
      "trying to ": 2367,
      "url.": 2368,
      "Tip": 2369,
      "believe ": 2370,
      "question": 2371,
      "Rem": 2372,
      "But ": 2373,
      "top": 2374,
      "ought ": 2375,
      "Tech": 2376,
      "TE": 2377,
      "s...": 2378,
      "it out": 2379,
      "with my ": 2380,
      "list ": 2381,
      "each ": 2382,
      "YouTu": 2383,
      "itt": 2384,
      "ession": 2385,
      "\t2009-11-0": 2386,
      "xx": 2387,
      "Play": 2388,
      "hit ": 2389,
      "rock": 2390,
      "key": 2391,
      "ang ": 2392,
      "hard ": 2393,
      "ze ": 2394,
      "ing!": 2395,
      "think": 2396,
      "ounc": 2397,
      "zy": 2398,
      "turn": 2399,
      "67": 2400,
      "p/": 2401,
      "him": 2402,
      "Tri": 2403,
      "Art": 2404,
      "earn ": 2405,
      "since ": 2406,
      "Str": 2407,
      "ary": 2408,
      "a new ": 2409,
      "Ag": 2410,
      ":-)": 2411,
      "* ": 2412,
      "ret": 2413,
      "Tweet": 2414,
      "foot": 2415,
      "Peop": 2416,
      "youtu": 2417,
      "Im": 2418,
      "vot": 2419,
      "ens": 2420,
      "ya ": 2421,
      "ed on ": 2422,
      "for your ": 2423,
      "Ear": 2424,
      "” ": 2425,
      "sh ": 2426,
      "Looking ": 2427,
      "els ": 2428,
      "early ": 2429,
      "job ": 2430,
      "Ri": 2431,
      "what you ": 2432,
      "they": 2433,
      "playing ": 2434,
      "ei": 2435,
      "s?": 2436,
      "ire ": 2437,
      "tech": 2438,
      "Follow ": 2439,
      "mess": 2440,
      "name ": 2441,
      "Micha": 2442,
      "ourc": 2443,
      "Got ": 2444,
      "bb": 2445,
      "me/": 2446,
      ".. http://bit.ly/3": 2447,
      "This is ": 2448,
      "WA": 2449,
      "book": 2450,
      "cor": 2451,
      "Chr": 2452,
      "First ": 2453,
      "ucc": 2454,
      "Ju": 2455,
      "nn": 2456,
      "Thank you ": 2457,
      "cam": 2458,
      "mod": 2459,
      "proj": 2460,
      ".. http://bit.ly/4": 2461,
      "hon": 2462,
      "es/": 2463,
      "IT ": 2464,
      "food ": 2465,
      "ourn": 2466,
      "how to ": 2467,
      "25 ": 2468,
      "e_": 2469,
      "ian": 2470,
      "liv": 2471,
      ". M": 2472,
      "unity ": 2473,
      "needs ": 2474,
      "Rel": 2475,
      "Up ": 2476,
      "p.": 2477,
      "Want ": 2478,
      "VE": 2479,
      "Stre": 2480,
      "Im ": 2481,
      "reg": 2482,
      "John": 2483,
      "ap ": 2484,
      "es for ": 2485,
      "ball": 2486,
      "wea": 2487,
      "spe": 2488,
      "es of ": 2489,
      "left ": 2490,
      "\"The ": 2491,
      "2.": 2492,
      "ina": 2493,
      "res ": 2494,
      "New Y": 2495,
      "47": 2496,
      "evelop": 2497,
      "urch": 2498,
      "writ": 2499,
      "eed": 2500,
      "wonder": 2501,
      "beg": 2502,
      "sex": 2503,
      "school ": 2504,
      "BO": 2505,
      "He ": 2506,
      "ress ": 2507,
      "Her": 2508,
      "cus": 2509,
      "oup ": 2510,
      "DO": 2511,
      "What's ": 2512,
      "ustom": 2513,
      "): ": 2514,
      "ed up ": 2515,
      "Win": 2516,
      "ities ": 2517,
      "event": 2518,
      "video": 2519,
      "House ": 2520,
      "is not ": 2521,
      "UP": 2522,
      "health": 2523,
      "s.  ": 2524,
      "los": 2525,
      "mat": 2526,
      "mil": 2527,
      "full ": 2528,
      "team ": 2529,
      "Sup": 2530,
      "hot": 2531,
      "http://ow.ly/16": 2532,
      "friends ": 2533,
      "High": 2534,
      "kill": 2535,
      "long": 2536,
      "nic": 2537,
      "ME": 2538,
      "idd": 2539,
      "plac": 2540,
      "wel": 2541,
      "back to ": 2542,
      "50 ": 2543,
      "design": 2544,
      "@f": 2545,
      "umbl": 2546,
      "AND ": 2547,
      "aut": 2548,
      "look": 2549,
      "arm": 2550,
      "Life ": 2551,
      "Pal": 2552,
      "turn ": 2553,
      "4.": 2554,
      "accoun": 2555,
      "SH": 2556,
      ".. http://bit.ly/1": 2557,
      "Pu": 2558,
      "Tur": 2559,
      "ley": 2560,
      "Show ": 2561,
      "aily ": 2562,
      "ize ": 2563,
      "Money ": 2564,
      "health ": 2565,
      ".us/": 2566,
      "sun": 2567,
      "issu": 2568,
      "I'd ": 2569,
      ".. http://bit.ly/2": 2570,
      "es! ": 2571,
      "Watch ": 2572,
      "cli.gs/": 2573,
      "weekend": 2574,
      "Halloween ": 2575,
      "key ": 2576,
      "stand": 2577,
      "break": 2578,
      "By ": 2579,
      "Mac": 2580,
      "aur": 2581,
      "lu": 2582,
      "ed my ": 2583,
      "As ": 2584,
      "    ": 2585,
      "tions ": 2586,
      "want": 2587,
      "2\t": 2588,
      "Ann": 2589,
      "vir": 2590,
      "support ": 2591,
      "amazing ": 2592,
      "een": 2593,
      "movie ": 2594,
      "load ": 2595,
      "Pol": 2596,
      "Sol": 2597,
      "was": 2598,
      "for my ": 2599,
      "ayl": 2600,
      "ute ": 2601,
      "album ": 2602,
      "ner": 2603,
      "class": 2604,
      "Vis": 2605,
      "yester": 2606,
      "news ": 2607,
      "God ": 2608,
      "ott": 2609,
      "forward to ": 2610,
      "y and ": 2611,
      "Christmas ": 2612,
      ".org": 2613,
      "went ": 2614,
      "ers, ": 2615,
      "dog": 2616,
      "See ": 2617,
      "Today ": 2618,
      "58": 2619,
      "spot": 2620,
      "Wed": 2621,
      "dra": 2622,
      "une ": 2623,
      "umb": 2624,
      "... http://lnk.ms/": 2625,
      "the best ": 2626,
      "ons ": 2627,
      "dd": 2628,
      "ipp": 2629,
      "o's ": 2630,
      "AD": 2631,
      "the c": 2632,
      "room ": 2633,
      "progr": 2634,
      "shit ": 2635,
      "e?": 2636,
      "would be ": 2637,
      "Getting ": 2638,
      "YouTube ": 2639,
      "AB": 2640,
      "FF ": 2641,
      ": #": 2642,
      "sul": 2643,
      "Bir": 2644,
      "Where ": 2645,
      "here: ": 2646,
      "CK": 2647,
      "chil": 2648,
      "y!": 2649,
      "@i": 2650,
      "John ": 2651,
      "again ": 2652,
      "IR": 2653,
      "te ": 2654,
      "in your ": 2655,
      "heard ": 2656,
      "Bab": 2657,
      "head ": 2658,
      "ading ": 2659,
      "arket ": 2660,
      "market": 2661,
      "e...": 2662,
      "tap": 2663,
      "Fam": 2664,
      "business": 2665,
      "dep": 2666,
      "So": 2667,
      "bal": 2668,
      "faceb": 2669,
      "ining ": 2670,
      "fut": 2671,
      "guy ": 2672,
      "cal": 2673,
      "finish": 2674,
      "shir": 2675,
      "link ": 2676,
      "We're ": 2677,
      "Web ": 2678,
      "ons": 2679,
      "1\t": 2680,
      "open ": 2681,
      "Die": 2682,
      "mean ": 2683,
      "Mor": 2684,
      "YOU ": 2685,
      "da": 2686,
      "answ": 2687,
      "fast": 2688,
      "stat": 2689,
      "state ": 2690,
      "team": 2691,
      "izz": 2692,
      "r.com/": 2693,
      "Ir": 2694,
      "scre": 2695,
      "fac": 2696,
      "14 ": 2697,
      "FL": 2698,
      "bad": 2699,
      "tv": 2700,
      "much": 2701,
      "feature": 2702,
      "land ": 2703,
      "lma": 2704,
      "part ": 2705,
      "song ": 2706,
      "thday ": 2707,
      "camp": 2708,
      "day. ": 2709,
      "46": 2710,
      "EV": 2711,
      "ner ": 2712,
      "~ ": 2713,
      "ull": 2714,
      "Gl": 2715,
      "ship": 2716,
      "quot": 2717,
      "last night": 2718,
      "MM": 2719,
      "16 ": 2720,
      "'d ": 2721,
      "such ": 2722,
      "nl/": 2723,
      "CN": 2724,
      "http://tr": 2725,
      "so much ": 2726,
      "when you ": 2727,
      "run ": 2728,
      "Mil": 2729,
      "canc": 2730,
      "and I ": 2731,
      "Thanks for ": 2732,
      "http://twurl.": 2733,
      "Ang": 2734,
      "we're ": 2735,
      "PA": 2736,
      "ric": 2737,
      "wants ": 2738,
      "word ": 2739,
      "http://twurl.nl/": 2740,
      "All": 2741,
      "New Yor": 2742,
      "wit ": 2743,
      "Real ": 2744,
      "what's ": 2745,
      "perf": 2746,
      "http://twitpic.com/p": 2747,
      "youtube": 2748,
      "Acc": 2749,
      "vert": 2750,
      "Me ": 2751,
      "American ": 2752,
      "... http://bit.ly/4": 2753,
      "Monday ": 2754,
      "LL": 2755,
      "Wom": 2756,
      "fol": 2757,
      "3\t": 2758,
      "ID": 2759,
      "shop ": 2760,
      "Thanksgiving ": 2761,
      "today. ": 2762,
      "Hope ": 2763,
      "cast": 2764,
      "... http://bit.ly/1": 2765,
      "need": 2766,
      "uu": 2767,
      "es in ": 2768,
      "family ": 2769,
      "ing my ": 2770,
      "led": 2771,
      "boy": 2772,
      "post: ": 2773,
      "Health ": 2774,
      "17 ": 2775,
      "Sha": 2776,
      "ween ": 2777,
      ":D": 2778,
      "eter": 2779,
      "@E": 2780,
      "U.S": 2781,
      "one of ": 2782,
      "I know ": 2783,
      "stuff ": 2784,
      "TV": 2785,
      "open": 2786,
      "dio ": 2787,
      "defin": 2788,
      "Do you ": 2789,
      "Out ": 2790,
      "Wr": 2791,
      "esday ": 2792,
      "talking ": 2793,
      "ask ": 2794,
      "should be ": 2795,
      "89": 2796,
      "t, ": 2797,
      "ane ": 2798,
      "ing for ": 2799,
      "ab ": 2800,
      "from @": 2801,
      "Wow": 2802,
      "mix": 2803,
      "meet ": 2804,
      "@jo": 2805,
      "stay ": 2806,
      "<<": 2807,
      "erson": 2808,
      "Amaz": 2809,
      "hum": 2810,
      "Mr": 2811,
      "Are you ": 2812,
      "WE": 2813,
      "Mov": 2814,
      "SP": 2815,
      "ff.im/": 2816,
      "ke": 2817,
      "Revie": 2818,
      "Market": 2819,
      "Is": 2820,
      "j ": 2821,
      "ju": 2822,
      "We are ": 2823,
      "ush ": 2824,
      "as a ": 2825,
      "ress": 2826,
      "he's ": 2827,
      "Bi": 2828,
      "yle ": 2829,
      "Aff": 2830,
      "prene": 2831,
      ". I'm ": 2832,
      "bably ": 2833,
      "Tre": 2834,
      "uh": 2835,
      "NEW ": 2836,
      ".\n": 2837,
      "Gi": 2838,
      "a_": 2839,
      "ular ": 2840,
      "like a ": 2841,
      "Take ": 2842,
      "gotta ": 2843,
      "18 ": 2844,
      "November ": 2845,
      "Down": 2846,
      "Lat": 2847,
      "ially ": 2848,
      "ana ": 2849,
      "under ": 2850,
      "has been ": 2851,
      "Blog": 2852,
      "ident ": 2853,
      "glad ": 2854,
      "die ": 2855,
      "stuff": 2856,
      "MP": 2857,
      "marketing ": 2858,
      "tot": 2859,
      "Michael ": 2860,
      "Boo": 2861,
      "y's ": 2862,
      "About ": 2863,
      "4\t": 2864,
      "ger ": 2865,
      "toge": 2866,
      "ienc": 2867,
      "ye": 2868,
      "DJ": 2869,
      "ing in ": 2870,
      "haven": 2871,
      "dur": 2872,
      "err": 2873,
      "least ": 2874,
      "cri": 2875,
      "car ": 2876,
      "ps": 2877,
      "ense ": 2878,
      "ull ": 2879,
      "y! ": 2880,
      "riv": 2881,
      "this is ": 2882,
      "town ": 2883,
      "@F": 2884,
      ".\"": 2885,
      "after": 2886,
      "mysp": 2887,
      "05": 2888,
      "06": 2889,
      "dom": 2890,
      "form ": 2891,
      "elling ": 2892,
      "a few ": 2893,
      "box ": 2894,
      "1.": 2895,
      "@H": 2896,
      "Gam": 2897,
      "it! ": 2898,
      "en to ": 2899,
      "finally ": 2900,
      "time to ": 2901,
      "possi": 2902,
      "Week": 2903,
      "Att": 2904,
      "the new ": 2905,
      "As": 2906,
      "onlin": 2907,
      "isn't ": 2908,
      "Flor": 2909,
      "almost ": 2910,
      "Uni": 2911,
      "eat ": 2912,
      "info ": 2913,
      "hot ": 2914,
      "hard": 2915,
      "ture ": 2916,
      "ember": 2917,
      "event ": 2918,
      "ement": 2919,
      "I got ": 2920,
      "build": 2921,
      "pass": 2922,
      "Thurs": 2923,
      "ends ": 2924,
      "ALL ": 2925,
      "@the": 2926,
      "PP": 2927,
      "Sy": 2928,
      "ed with ": 2929,
      "whole ": 2930,
      "Congrat": 2931,
      "12-0": 2932,
      "Cle": 2933,
      "Ret": 2934,
      "ices ": 2935,
      "City ": 2936,
      "host": 2937,
      "Produc": 2938,
      "house": 2939,
      "Phil": 2940,
      "won't ": 2941,
      "MO": 2942,
      "cost": 2943,
      "cho": 2944,
      "ept ": 2945,
      "Jacks": 2946,
      "Mod": 2947,
      "kind ": 2948,
      "I can't ": 2949,
      "s.com/": 2950,
      "ange ": 2951,
      "awesome": 2952,
      "er's ": 2953,
      "ustin": 2954,
      "er and ": 2955,
      "room": 2956,
      "thinking ": 2957,
      "else ": 2958,
      "haha ": 2959,
      "best": 2960,
      "ex ": 2961,
      "Back ": 2962,
      "85": 2963,
      "last": 2964,
      "on your ": 2965,
      "Ok": 2966,
      "enough ": 2967,
      "coff": 2968,
      "ience ": 2969,
      "both ": 2970,
      "An ": 2971,
      "Vir": 2972,
      "ally": 2973,
      "http://is.gd/4": 2974,
      "ping.": 2975,
      "weekend ": 2976,
      "ed and ": 2977,
      "beautiful ": 2978,
      "vol": 2979,
      "\t2009-12-0": 2980,
      "et's ": 2981,
      "Val": 2982,
      "youn": 2983,
      "fully ": 2984,
      "em ": 2985,
      "qui": 2986,
      "listening to ": 2987,
      "person ": 2988,
      "Cra": 2989,
      "bus": 2990,
      "ue": 2991,
      "kn": 2992,
      "on, ": 2993,
      "tist": 2994,
      "Min": 2995,
      "website ": 2996,
      "ing and ": 2997,
      "Air": 2998,
      "ya": 2999,
      "beat": 3000,
      "Still ": 3001,
      "ben": 3002,
      "less": 3003,
      "page ": 3004,
      "__": 3005,
      "ix": 3006,
      ": http://bit.ly/1": 3007,
      "ta": 3008,
      "youtube.com/": 3009,
      "Dem": 3010,
      "detail": 3011,
      "MI": 3012,
      "oh": 3013,
      "hop": 3014,
      "sleep ": 3015,
      "co ": 3016,
      "mak": 3017,
      "fiel": 3018,
      "Den": 3019,
      "cast ": 3020,
      "ping.fm/": 3021,
      "Out": 3022,
      "... More ": 3023,
      "Only ": 3024,
      "myself ": 3025,
      "same ": 3026,
      "wed": 3027,
      "dig": 3028,
      "anne": 3029,
      "ility ": 3030,
      "box": 3031,
      "feeling ": 3032,
      "ouch": 3033,
      "latest ": 3034,
      "El": 3035,
      "ept": 3036,
      "Join ": 3037,
      "cent": 3038,
      "dem": 3039,
      "incl": 3040,
      "hear ": 3041,
      "rat": 3042,
      "ily": 3043,
      "ing? ": 3044,
      "ts of ": 3045,
      "holiday ": 3046,
      "... More for ": 3047,
      "FL ": 3048,
      "told ": 3049,
      "rain ": 3050,
      "cap": 3051,
      "Miam": 3052,
      "pleas": 3053,
      "y of ": 3054,
      "lif": 3055,
      "TI": 3056,
      "connec": 3057,
      "IGH": 3058,
      "cks ": 3059,
      "Rock": 3060,
      "ne ": 3061,
      "por": 3062,
      "rac": 3063,
      "guy": 3064,
      "WH": 3065,
      "ering ": 3066,
      "Stu": 3067,
      "Mob": 3068,
      "anything ": 3069,
      "DJ ": 3070,
      "Jam": 3071,
      "KE": 3072,
      "hey ": 3073,
      "sav": 3074,
      "celebr": 3075,
      "to my ": 3076,
      "??? ": 3077,
      "came ": 3078,
      "e.  ": 3079,
      "ness": 3080,
      "better": 3081,
      "maybe ": 3082,
      "available ": 3083,
      " http://bit.ly/": 3084,
      "incre": 3085,
      "ism ": 3086,
      "lege ": 3087,
      "... http://bit.ly/3": 3088,
      "???": 3089,
      "aint ": 3090,
      "haven't ": 3091,
      "TT": 3092,
      "I had ": 3093,
      "everything ": 3094,
      "pag": 3095,
      "uk": 3096,
      "afe ": 3097,
      "ani": 3098,
      "pop": 3099,
      "squ": 3100,
      "comes ": 3101,
      "weet": 3102,
      "Find ": 3103,
      "BB": 3104,
      "ez": 3105,
      "s\" ": 3106,
      "Green ": 3107,
      "lex": 3108,
      "19 ": 3109,
      "AN ": 3110,
      "s.com": 3111,
      "took ": 3112,
      "add ": 3113,
      "NB": 3114,
      "RT @j": 3115,
      "vote ": 3116,
      "have been ": 3117,
      "(via ": 3118,
      "Mat": 3119,
      "da ": 3120,
      "...: ": 3121,
      "taking ": 3122,
      "to make ": 3123,
      "Cal": 3124,
      "Sur": 3125,
      "uni": 3126,
      "ref": 3127,
      "chat": 3128,
      "ALL": 3129,
      "Nov ": 3130,
      "late ": 3131,
      "http://su.pr/": 3132,
      "baby ": 3133,
      "releas": 3134,
      "fa": 3135,
      "lic": 3136,
      "to go ": 3137,
      "pris": 3138,
      "wish ": 3139,
      "used ": 3140,
      "http://tr.im/": 3141,
      "wood ": 3142,
      ". D": 3143,
      "season ": 3144,
      "link": 3145,
      "success": 3146,
      "umblr.com/": 3147,
      "nor": 3148,
      "each": 3149,
      "NOT ": 3150,
      "DAY": 3151,
      "article ": 3152,
      "Awes": 3153,
      "dy ": 3154,
      "money": 3155,
      "interview ": 3156,
      ". It's ": 3157,
      "ho": 3158,
      "... http://bit.ly/2": 3159,
      "es!": 3160,
      "le, ": 3161,
      "iss ": 3162,
      "- http://bit.ly/": 3163,
      "worth ": 3164,
      "up to ": 3165,
      "scri": 3166,
      "Ben": 3167,
      "ML": 3168,
      "fic": 3169,
      "aren": 3170,
      "gift ": 3171,
      "light": 3172,
      "on #": 3173,
      "we are ": 3174,
      "Fil": 3175,
      "PR": 3176,
      "e\" ": 3177,
      "Exc": 3178,
      "how": 3179,
      "hour ": 3180,
      "oke ": 3181,
      "apprec": 3182,
      "\t\t": 3183,
      "Soc": 3184,
      "kind": 3185,
      "excit": 3186,
      "SO": 3187,
      "Very ": 3188,
      "like the ": 3189,
      "between ": 3190,
      "76": 3191,
      "kin ": 3192,
      "ark ": 3193,
      "Tom": 3194,
      "Anyone ": 3195,
      "a little ": 3196,
      "yc": 3197,
      "yes ": 3198,
      "import": 3199,
      "a: ": 3200,
      "you know ": 3201,
      "Av": 3202,
      "winn": 3203,
      "........": 3204,
      "& @": 3205,
      "sou": 3206,
      "law": 3207,
      "sive ": 3208,
      "care": 3209,
      "ing?": 3210,
      "Mee": 3211,
      "far": 3212,
      "io ": 3213,
      "iev": 3214,
      "luck": 3215,
      "it out ": 3216,
      "White ": 3217,
      "aint": 3218,
      "ext": 3219,
      "@dj": 3220,
      "ross ": 3221,
      "dream": 3222,
      ". C": 3223,
      "ed that ": 3224,
      "Brand": 3225,
      "mind ": 3226,
      "\n #": 3227,
      "ett": 3228,
      "store ": 3229,
      "kids ": 3230,
      "Florid": 3231,
      "\t2009-09": 3232,
      "er to ": 3233,
      "high ": 3234,
      "OF ": 3235,
      "Head": 3236,
      "People ": 3237,
      "DM": 3238,
      "Last ": 3239,
      "Ow": 3240,
      "Today": 3241,
      "a's ": 3242,
      "cop": 3243,
      "the p": 3244,
      "shopp": 3245,
      ";-": 3246,
      "http://tumblr.com/": 3247,
      ". http://bit.ly/1": 3248,
      "#fb": 3249,
      "green": 3250,
      "ger": 3251,
      "She ": 3252,
      "curr": 3253,
      "though ": 3254,
      "following ": 3255,
      "face ": 3256,
      "years ": 3257,
      "Del": 3258,
      "oud ": 3259,
      ": A ": 3260,
      "guess ": 3261,
      "special ": 3262,
      "Cam": 3263,
      "fail": 3264,
      "Atl": 3265,
      "lob": 3266,
      "hur": 3267,
      "sounds ": 3268,
      "anta ": 3269,
      "press ": 3270,
      "Pat": 3271,
      "probably ": 3272,
      "Read ": 3273,
      "EN ": 3274,
      "#FF": 3275,
      "chance ": 3276,
      "Bel": 3277,
      "Mom": 3278,
      "rew": 3279,
      "love": 3280,
      "against ": 3281,
      "Bur": 3282,
      "num": 3283,
      "95": 3284,
      "! :)": 3285,
      "to/": 3286,
      "BU": 3287,
      "Let ": 3288,
      ". You ": 3289,
      "all of ": 3290,
      "ugg": 3291,
      "Some": 3292,
      "Like ": 3293,
      "86": 3294,
      "earch": 3295,
      "fron": 3296,
      "forget ": 3297,
      "News: ": 3298,
      "PS": 3299,
      "a t": 3300,
      "Learn ": 3301,
      "Off ": 3302,
      "sum": 3303,
      "thanks for the ": 3304,
      "@w": 3305,
      "light ": 3306,
      "Inv": 3307,
      "!\n": 3308,
      "Dam": 3309,
      "Sunday ": 3310,
      "Good": 3311,
      "NY ": 3312,
      "DAY ": 3313,
      ". Th": 3314,
      "boy ": 3315,
      "a.": 3316,
      "LOVE ": 3317,
      "Music": 3318,
      "ox ": 3319,
      "rece": 3320,
      "iz ": 3321,
      "AL ": 3322,
      "SS": 3323,
      "small ": 3324,
      "going to be ": 3325,
      "Man ": 3326,
      ". . ": 3327,
      "RT @m": 3328,
      "Angel": 3329,
      "nov": 3330,
      "o.": 3331,
      "one. ": 3332,
      "me.": 3333,
      "support": 3334,
      "Serv": 3335,
      "story ": 3336,
      "32": 3337,
      "Use ": 3338,
      "fig": 3339,
      "wanna ": 3340,
      ", you ": 3341,
      "learn ": 3342,
      "pap": 3343,
      "ality ": 3344,
      "Q ": 3345,
      ". N": 3346,
      "ator ": 3347,
      "called ": 3348,
      "doc": 3349,
      "I get ": 3350,
      "thats ": 3351,
      "es are ": 3352,
      "oft ": 3353,
      "join ": 3354,
      "http://tumblr.com/x": 3355,
      "ma ": 3356,
      "ears ": 3357,
      "State ": 3358,
      "Enjo": 3359,
      "on-": 3360,
      "Watching ": 3361,
      "????????": 3362,
      "$$": 3363,
      "FA": 3364,
      "dinner ": 3365,
      "q ": 3366,
      "Spec": 3367,
      "deal ": 3368,
      "ES ": 3369,
      "s-": 3370,
      "en, ": 3371,
      "Stor": 3372,
      "launch": 3373,
      "by the ": 3374,
      "remember ": 3375,
      "fast ": 3376,
      "pe ": 3377,
      "itely ": 3378,
      "chat ": 3379,
      "works ": 3380,
      "let me ": 3381,
      "Lol": 3382,
      "iT": 3383,
      "tak": 3384,
      "more than ": 3385,
      "Cha": 3386,
      "cks": 3387,
      ".html": 3388,
      "God": 3389,
      "Red": 3390,
      "ern ": 3391,
      "it to ": 3392,
      "ump ": 3393,
      "sorry ": 3394,
      "You're ": 3395,
      "mean": 3396,
      "soon ": 3397,
      "Does ": 3398,
      "@al": 3399,
      "hr": 3400,
      "I'm not ": 3401,
      "unk": 3402,
      "http://www.youtube.com/": 3403,
      "veg": 3404,
      "dy": 3405,
      "3r": 3406,
      "lost ": 3407,
      "sho": 3408,
      "day.": 3409,
      "_ ": 3410,
      "onom": 3411,
      "at www.": 3412,
      "ello ": 3413,
      "\t2009-11-2": 3414,
      "stem ": 3415,
      "yle": 3416,
      "movie": 3417,
      "energ": 3418,
      "After ": 3419,
      "cas": 3420,
      "ek": 3421,
      "http://ff.im/": 3422,
      "oft": 3423,
      "   ": 3424,
      "87": 3425,
      "fan": 3426,
      "gn": 3427,
      "tra ": 3428,
      "cc/": 3429,
      "@W": 3430,
      "a-": 3431,
      "gar": 3432,
      "once ": 3433,
      "Show": 3434,
      ". But ": 3435,
      "cause ": 3436,
      "digg": 3437,
      ". It ": 3438,
      "- The ": 3439,
      "power": 3440,
      "I will ": 3441,
      "RT: ": 3442,
      "Tex": 3443,
      "yo ": 3444,
      "estiv": 3445,
      "regi": 3446,
      "discus": 3447,
      "roll": 3448,
      "complet": 3449,
      "school": 3450,
      "http://twitpic.com/q": 3451,
      "ed at ": 3452,
      "ird ": 3453,
      "band ": 3454,
      "eat": 3455,
      "away": 3456,
      "Some ": 3457,
      "stand ": 3458,
      "inj": 3459,
      "Help ": 3460,
      "gener": 3461,
      "http://cli.gs/": 3462,
      "meeting ": 3463,
      "SA": 3464,
      "Octo": 3465,
      "http://yfrog.com/": 3466,
      ". P": 3467,
      "ream ": 3468,
      "esp": 3469,
      "OOOO": 3470,
      "damn ": 3471,
      "summ": 3472,
      "conf": 3473,
      "Prof": 3474,
      "local ": 3475,
      "Lu": 3476,
      "d, ": 3477,
      "ler ": 3478,
      "the h": 3479,
      "ams ": 3480,
      ". http://bit.ly/2": 3481,
      "wine ": 3482,
      "met": 3483,
      "Saturday ": 3484,
      "EC": 3485,
      "ing up ": 3486,
      "check": 3487,
      "GH": 3488,
      "Sen": 3489,
      "enjoy ": 3490,
      "ai ": 3491,
      "ards ": 3492,
      "WO": 3493,
      "e/": 3494,
      "SU": 3495,
      "» ": 3496,
      "ator": 3497,
      "sale ": 3498,
      "yet ": 3499,
      "imag": 3500,
      "?\" ": 3501,
      "yeah ": 3502,
      "organ": 3503,
      "BI": 3504,
      "Daily ": 3505,
      "icul": 3506,
      "RT @M": 3507,
      "one of the ": 3508,
      "idea ": 3509,
      "vertis": 3510,
      "sil": 3511,
      "test": 3512,
      "oust": 3513,
      "me to ": 3514,
      "Wedn": 3515,
      "Cap": 3516,
      "pay ": 3517,
      "ing on ": 3518,
      "rob": 3519,
      "shop": 3520,
      "Girl": 3521,
      "64": 3522,
      "Here ": 3523,
      "sist": 3524,
      "GI": 3525,
      "coup": 3526,
      "day!": 3527,
      "epis": 3528,
      "mind": 3529,
      "tun": 3530,
      "@th": 3531,
      "friday ": 3532,
      "Stud": 3533,
      "Tweet ": 3534,
      "04": 3535,
      "Succ": 3536,
      "cant ": 3537,
      "danc": 3538,
      "oy": 3539,
      "rid": 3540,
      "sign ": 3541,
      ": http://bit.ly/3": 3542,
      "ture": 3543,
      "feed": 3544,
      "io": 3545,
      "dog ": 3546,
      "Should ": 3547,
      "Green": 3548,
      "Offic": 3549,
      "har": 3550,
      ">>": 3551,
      "Port": 3552,
      "ling ": 3553,
      "inking ": 3554,
      "NOW": 3555,
      "social media ": 3556,
      "for $": 3557,
      "photo ": 3558,
      "websit": 3559,
      "stem": 3560,
      "tweets ": 3561,
      "present": 3562,
      "cover ": 3563,
      "food": 3564,
      ". http://bit.ly/3": 3565,
      ".cc/": 3566,
      "info": 3567,
      "Ber": 3568,
      "Det": 3569,
      "Run": 3570,
      "hy": 3571,
      "hav": 3572,
      "-b": 3573,
      "Ros": 3574,
      "Wind": 3575,
      "hind ": 3576,
      "day! ": 3577,
      "net/": 3578,
      "they're ": 3579,
      "GA": 3580,
      "ade": 3581,
      "pic.gd/": 3582,
      "black": 3583,
      "Je": 3584,
      "eeee": 3585,
      "this weekend": 3586,
      "MY ": 3587,
      "PM": 3588,
      "omb": 3589,
      "you.": 3590,
      "season": 3591,
      "Any ": 3592,
      "THE": 3593,
      "Hot": 3594,
      "SM": 3595,
      "Life": 3596,
      "they are ": 3597,
      "ournal": 3598,
      "#p": 3599,
      "PM ": 3600,
      "http://tinyurl.com/yz": 3601,
      "vs. ": 3602,
      "there's ": 3603,
      "pract": 3604,
      "green ": 3605,
      "just": 3606,
      "budurl.com/": 3607,
      "uge ": 3608,
      "74": 3609,
      "leav": 3610,
      "e, but ": 3611,
      "2010": 3612,
      "Lead": 3613,
      "'ll be ": 3614,
      "Chicago ": 3615,
      "stri": 3616,
      "estion": 3617,
      "join": 3618,
      "Micros": 3619,
      "tast": 3620,
      "BR": 3621,
      "acks ": 3622,
      "Indi": 3623,
      "ib": 3624,
      ": http://www.": 3625,
      "leave ": 3626,
      "Another ": 3627,
      "Book ": 3628,
      "FU": 3629,
      "fall": 3630,
      "agre": 3631,
      "contin": 3632,
      "visit ": 3633,
      "Ap": 3634,
      "announc": 3635,
      "hours ": 3636,
      "takes ": 3637,
      ", so ": 3638,
      "app ": 3639,
      "brand": 3640,
      "flu": 3641,
      "% off ": 3642,
      "you to ": 3643,
      "travel": 3644,
      "COM": 3645,
      "ce": 3646,
      "ital": 3647,
      "ateg": 3648,
      "ica ": 3649,
      "icks ": 3650,
      "! http://bit.ly/1": 3651,
      "Dat": 3652,
      "dou": 3653,
      ".to/": 3654,
      "Loc": 3655,
      "a. ": 3656,
      "unk ": 3657,
      "Party ": 3658,
      "98": 3659,
      "web ": 3660,
      "ace.com/": 3661,
      "Hear": 3662,
      "Wa": 3663,
      "omin": 3664,
      "ki": 3665,
      ": http://bit.ly/2": 3666,
      "crazy ": 3667,
      "nigg": 3668,
      "the f": 3669,
      "agg": 3670,
      "ount": 3671,
      "ology ": 3672,
      "ing...": 3673,
      "ells ": 3674,
      "custom": 3675,
      "cred": 3676,
      "waiting ": 3677,
      ": C": 3678,
      "become ": 3679,
      ") - ": 3680,
      "New blog ": 3681,
      "Bal": 3682,
      "aw ": 3683,
      "matt": 3684,
      "pan": 3685,
      "oll ": 3686,
      "opport": 3687,
      "ban": 3688,
      "ok ": 3689,
      "ed!": 3690,
      "record": 3691,
      "running ": 3692,
      "nothing ": 3693,
      ":00": 3694,
      "PL": 3695,
      "adio": 3696,
      "wind": 3697,
      "Adv": 3698,
      "stra": 3699,
      "Ver": 3700,
      "wear": 3701,
      "beat ": 3702,
      "Us": 3703,
      "else": 3704,
      "I would ": 3705,
      "move ": 3706,
      "Bra": 3707,
      "’t ": 3708,
      "? http://bit.ly/": 3709,
      "with your ": 3710,
      "recomm": 3711,
      ". http://bit.ly/4": 3712,
      "funny ": 3713,
      "ED": 3714,
      "Giv": 3715,
      "Look ": 3716,
      "WI": 3717,
      "eber": 3718,
      "?! ": 3719,
      ": F": 3720,
      "eak ": 3721,
      "Apple ": 3722,
      "ady": 3723,
      "Geor": 3724,
      "WS": 3725,
      "town": 3726,
      "ocol": 3727,
      "How": 3728,
      "la ": 3729,
      "goes ": 3730,
      "http://tinyurl.com/yj": 3731,
      "LOL ": 3732,
      "1-": 3733,
      "Here's ": 3734,
      "tor": 3735,
      "ed! ": 3736,
      "vern": 3737,
      "ac ": 3738,
      "Bri": 3739,
      "s at ": 3740,
      "Ca": 3741,
      "TA": 3742,
      "aster ": 3743,
      "Network ": 3744,
      "6\t": 3745,
      "band": 3746,
      ".com/?": 3747,
      "54": 3748,
      "Hun": 3749,
      "bed ": 3750,
      "far ": 3751,
      "Mu": 3752,
      "dea": 3753,
      "tip": 3754,
      "cook": 3755,
      "blogspot": 3756,
      "U.S. ": 3757,
      "Let's ": 3758,
      "cur": 3759,
      "nu": 3760,
      "ttle": 3761,
      "appro": 3762,
      "EST ": 3763,
      "elec": 3764,
      "Pet": 3765,
      "you!": 3766,
      "2009/": 3767,
      "Most ": 3768,
      "Start": 3769,
      "prov": 3770,
      "ession ": 3771,
      "meet": 3772,
      "Jon": 3773,
      "Radio ": 3774,
      "bli": 3775,
      "Going to ": 3776,
      "FOR ": 3777,
      "2nd ": 3778,
      "Franc": 3779,
      "84": 3780,
      "ers and ": 3781,
      "direct": 3782,
      "You can ": 3783,
      "sugg": 3784,
      "ference ": 3785,
      "fall ": 3786,
      "national ": 3787,
      "I like ": 3788,
      "Maybe ": 3789,
      "inform": 3790,
      "oop": 3791,
      "whats ": 3792,
      "clus": 3793,
      "office ": 3794,
      "company ": 3795,
      "photograph": 3796,
      "Ass": 3797,
      "Bay ": 3798,
      "Health": 3799,
      "Vegas ": 3800,
      "TS": 3801,
      "kin": 3802,
      "men ": 3803,
      "we can ": 3804,
      "World": 3805,
      ":30 ": 3806,
      "yourself ": 3807,
      "@Ch": 3808,
      "pay": 3809,
      "more": 3810,
      "point": 3811,
      ".mp/": 3812,
      "CA ": 3813,
      ", S": 3814,
      "Holiday ": 3815,
      "service ": 3816,
      "West ": 3817,
      "excited ": 3818,
      "Er": 3819,
      "foc": 3820,
      "mail": 3821,
      "ington ": 3822,
      "ing out ": 3823,
      "grow": 3824,
      "s' ": 3825,
      "er is ": 3826,
      "month ": 3827,
      "THIS ": 3828,
      "media": 3829,
      "Supp": 3830,
      "Bost": 3831,
      "Nice ": 3832,
      "du": 3833,
      "mic": 3834,
      "reading ": 3835,
      "illion": 3836,
      "24 ": 3837,
      "Keep ": 3838,
      "oods ": 3839,
      "this morn": 3840,
      "proc": 3841,
      "totally ": 3842,
      "design ": 3843,
      "I'll be ": 3844,
      "\t2009-10-": 3845,
      "TR": 3846,
      "fly": 3847,
      "followers": 3848,
      "easy ": 3849,
      "Si": 3850,
      "wood": 3851,
      "order ": 3852,
      "ustin ": 3853,
      "TS ": 3854,
      "hor": 3855,
      "arr": 3856,
      "ism": 3857,
      "cut": 3858,
      "even": 3859,
      "Dig": 3860,
      "DM ": 3861,
      "a and ": 3862,
      "lose ": 3863,
      "? #": 3864,
      "plan ": 3865,
      "mc": 3866,
      "am/": 3867,
      "olf ": 3868,
      "words ": 3869,
      "Week ": 3870,
      "simp": 3871,
      "aily": 3872,
      "invest": 3873,
      "Manag": 3874,
      "piec": 3875,
      "Dro": 3876,
      "National ": 3877,
      "black ": 3878,
      "that is ": 3879,
      "Interest": 3880,
      "s from ": 3881,
      "of your ": 3882,
      "def": 3883,
      ".org/": 3884,
      "s & ": 3885,
      "to your ": 3886,
      "laugh": 3887,
      "... http://bit.ly/6": 3888,
      "CL": 3889,
      "Way": 3890,
      ". :)": 3891,
      "you, ": 3892,
      "amber": 3893,
      "weet ": 3894,
      "http://tinyurl.com/l": 3895,
      "Black": 3896,
      "Design ": 3897,
      "sent ": 3898,
      "super ": 3899,
      "http://tinyurl.com/yk": 3900,
      "lunch ": 3901,
      "set": 3902,
      "share ": 3903,
      "Tick": 3904,
      "j.mp/": 3905,
      "asc": 3906,
      "- S": 3907,
      "contr": 3908,
      "pick ": 3909,
      "heart ": 3910,
      "Holly": 3911,
      "ertain": 3912,
      "deb": 3913,
      "Just got ": 3914,
      "started ": 3915,
      "a lot of ": 3916,
      "includ": 3917,
      "ory": 3918,
      "Or ": 3919,
      "star ": 3920,
      "in #": 3921,
      "others ": 3922,
      "myspace.com/": 3923,
      "7\t": 3924,
      "AM ": 3925,
      "three ": 3926,
      "is it ": 3927,
      "bring ": 3928,
      "class ": 3929,
      "Celebr": 3930,
      "ution": 3931,
      "I need ": 3932,
      "Watch": 3933,
      "Have you ": 3934,
      "Work": 3935,
      "ed: ": 3936,
      "eu/": 3937,
      "01": 3938,
      "Ma": 3939,
      "Willi": 3940,
      "er for ": 3941,
      "film": 3942,
      "3.": 3943,
      "iter": 3944,
      "I could ": 3945,
      "Rock ": 3946,
      "url4.": 3947,
      "childr": 3948,
      "url4.eu/": 3949,
      "ba": 3950,
      "eh": 3951,
      "one, ": 3952,
      "ing at ": 3953,
      "aaaa": 3954,
      "Now": 3955,
      "save ": 3956,
      "women ": 3957,
      "iTun": 3958,
      "osp": 3959,
      "\" - ": 3960,
      "Magaz": 3961,
      "Lou": 3962,
      "Night ": 3963,
      "Two ": 3964,
      "Aut": 3965,
      "Tig": 3966,
      "mob": 3967,
      "ed out ": 3968,
      "@V": 3969,
      "Gra": 3970,
      "Game ": 3971,
      "den": 3972,
      "pack": 3973,
      "sen": 3974,
      "preneur": 3975,
      "DV": 3976,
      "JO": 3977,
      "christ": 3978,
      "NYC ": 3979,
      "Hi": 3980,
      "card": 3981,
      "up on ": 3982,
      "write ": 3983,
      "alifor": 3984,
      "kind of ": 3985,
      ".me/": 3986,
      "develop": 3987,
      ". We ": 3988,
      "struc": 3989,
      "fan ": 3990,
      "mom ": 3991,
      "wow": 3992,
      "y_": 3993,
      "anim": 3994,
      "Int": 3995,
      "other": 3996,
      "@sh": 3997,
      "goog": 3998,
      "som": 3999,
      "into the ": 4000,
      "report": 4001,
      "asp": 4002,
      "econom": 4003,
      "kr": 4004,
      "ly.": 4005,
      "sure": 4006,
      "last night ": 4007,
      "ready to ": 4008,
      "<--": 4009,
      "cand": 4010,
      "itic": 4011,
      "a big ": 4012,
      "Design": 4013,
      "Youn": 4014,
      "je": 4015,
      ". F": 4016,
      "es - ": 4017,
      "ishing ": 4018,
      "the same ": 4019,
      "facebook": 4020,
      "?v": 4021,
      "Ur": 4022,
      "lie ": 4023,
      "ready for ": 4024,
      "AZ": 4025,
      "white ": 4026,
      "@I": 4027,
      "Bas": 4028,
      "pet": 4029,
      "Kid": 4030,
      "Won": 4031,
      "is now ": 4032,
      "enjoy": 4033,
      "October ": 4034,
      "definitely ": 4035,
      "Hey": 4036,
      "Well ": 4037,
      "review": 4038,
      "ds are ": 4039,
      "http://twitpic.com/n": 4040,
      "@DJ": 4041,
      "Jan": 4042,
      "ham": 4043,
      "mid": 4044,
      "annel ": 4045,
      "03": 4046,
      "itor": 4047,
      "to a ": 4048,
      "lobal ": 4049,
      "ouch ": 4050,
      "er - ": 4051,
      "I feel ": 4052,
      "expl": 4053,
      "... http://bit.ly/5": 4054,
      "starts ": 4055,
      "Street ": 4056,
      "Jer": 4057,
      "tho": 4058,
      "perfect ": 4059,
      "Jay": 4060,
      "Inf": 4061,
      "... http://bit.ly/8": 4062,
      "ED ": 4063,
      "GRE": 4064,
      "KE ": 4065,
      "Facebook": 4066,
      "Deal": 4067,
      "Link": 4068,
      "Red ": 4069,
      "Rich": 4070,
      "Ter": 4071,
      "idea": 4072,
      "get a ": 4073,
      "Ind": 4074,
      "know what ": 4075,
      "traff": 4076,
      "seeing ": 4077,
      "H1": 4078,
      "hu": 4079,
      "ro ": 4080,
      "uss": 4081,
      "David ": 4082,
      "?v=": 4083,
      "NFL ": 4084,
      "Vo": 4085,
      "to have ": 4086,
      "I hope ": 4087,
      "shot": 4088,
      "wonder ": 4089,
      "short.to/": 4090,
      "43": 4091,
      "dev": 4092,
      "ident": 4093,
      "can be ": 4094,
      "iliate ": 4095,
      "000": 4096,
      "blip.": 4097,
      "Spr": 4098,
      "Buy ": 4099,
      "fm/~": 4100,
      "1z": 4101,
      "Leg": 4102,
      "me, ": 4103,
      "surv": 4104,
      "San Die": 4105,
      "97": 4106,
      "Ru": 4107,
      "case ": 4108,
      "hist": 4109,
      "track ": 4110,
      "drive ": 4111,
      "ville ": 4112,
      "Da": 4113,
      "t-": 4114,
      "ution ": 4115,
      "ward": 4116,
      "es on ": 4117,
      "ado ": 4118,
      "bed": 4119,
      "iet": 4120,
      "about": 4121,
      "dio": 4122,
      "Chris ": 4123,
      "New York ": 4124,
      "T-": 4125,
      "p=": 4126,
      "vs ": 4127,
      "water ": 4128,
      "different ": 4129,
      "Publ": 4130,
      "@st": 4131,
      "asy ": 4132,
      "low ": 4133,
      "first": 4134,
      "ike": 4135,
      "<3": 4136,
      "Mem": 4137,
      "Sil": 4138,
      "cuz ": 4139,
      "Had ": 4140,
      "s... ": 4141,
      "search ": 4142,
      "ino ": 4143,
      ". (": 4144,
      "is that ": 4145,
      "email": 4146,
      "ppl ": 4147,
      "oss ": 4148,
      "plann": 4149,
      "Your": 4150,
      "oftw": 4151,
      "talk": 4152,
      "Wel": 4153,
      "flo": 4154,
      "kk": 4155,
      "hair ": 4156,
      "Working ": 4157,
      "posted ": 4158,
      "I've been ": 4159,
      "Bill ": 4160,
      "tte ": 4161,
      "Read": 4162,
      "tit": 4163,
      "Need ": 4164,
      "grats ": 4165,
      "did you ": 4166,
      "half ": 4167,
      "football ": 4168,
      "speak": 4169,
      ".es/": 4170,
      "2-": 4171,
      "Ra": 4172,
      "Sav": 4173,
      "in this ": 4174,
      "aul ": 4175,
      "to hear ": 4176,
      "21 ": 4177,
      "II": 4178,
      "ross": 4179,
      "::": 4180,
      "BA": 4181,
      "gan": 4182,
      "artist": 4183,
      ": P": 4184,
      "Eng": 4185,
      "shows ": 4186,
      "ing.  ": 4187,
      "shoot ": 4188,
      "is.gd/4": 4189,
      "problem": 4190,
      "blip.fm/~": 4191,
      "56": 4192,
      "Next ": 4193,
      "SO ": 4194,
      "will": 4195,
      "at least ": 4196,
      "birthday ": 4197,
      "Morning ": 4198,
      "s, and ": 4199,
      "perform": 4200,
      "Check it out": 4201,
      "mmm": 4202,
      "Hav": 4203,
      "ooo ": 4204,
      "le of ": 4205,
      "trip ": 4206,
      "2\t5": 4207,
      "OK": 4208,
      "nation": 4209,
      ", M": 4210,
      "chick": 4211,
      "I want ": 4212,
      "What": 4213,
      "close ": 4214,
      "at #": 4215,
      "Well": 4216,
      "bigg": 4217,
      "NOW ": 4218,
      "wis": 4219,
      "ott ": 4220,
      "Yes, ": 4221,
      "at http://": 4222,
      "Star ": 4223,
      "ency ": 4224,
      "\n8": 4225,
      "oud": 4226,
      "aly": 4227,
      "lyn": 4228,
      "up for ": 4229,
      "aliforn": 4230,
      "Sn": 4231,
      "en's ": 4232,
      ": http://bit.ly/4": 4233,
      "of our ": 4234,
      "Che": 4235,
      "Try ": 4236,
      "ashion ": 4237,
      "Dep": 4238,
      "met ": 4239,
      "to re": 4240,
      "ects ": 4241,
      "up and ": 4242,
      "avid": 4243,
      "http://tinyurl.com/n": 4244,
      "http://tinyurl.com/yh": 4245,
      "interesting ": 4246,
      "Microsoft ": 4247,
      "gave ": 4248,
      "me. ": 4249,
      "http://tinyurl.com/m": 4250,
      "Artic": 4251,
      "pot": 4252,
      "ony ": 4253,
      "compl": 4254,
      "watch?v=": 4255,
      "BL": 4256,
      "consid": 4257,
      "missed ": 4258,
      "Cy": 4259,
      "FE": 4260,
      "ilar": 4261,
      "azz": 4262,
      "social": 4263,
      "Nic": 4264,
      "lar": 4265,
      "inspir": 4266,
      "unic": 4267,
      "board ": 4268,
      "bout ": 4269,
      "was a ": 4270,
      "... http://bit.ly/7": 4271,
      "!!  ": 4272,
      "PE": 4273,
      "interview": 4274,
      "Hom": 4275,
      "org ": 4276,
      "times": 4277,
      "iously ": 4278,
      "31": 4279,
      "ed \"": 4280,
      "igin": 4281,
      "http://www.youtube.com/watch?v=": 4282,
      "@v": 4283,
      "Bob": 4284,
      "Making ": 4285,
      "Over": 4286,
      "today, ": 4287,
      "Too ": 4288,
      " @j": 4289,
      "Blu": 4290,
      "walk": 4291,
      "Business": 4292,
      "tour": 4293,
      "behind ": 4294,
      "important ": 4295,
      "@a": 4296,
      "Miss": 4297,
      "ual": 4298,
      "! S": 4299,
      "true ": 4300,
      "ized ": 4301,
      "news": 4302,
      "? http://blip.fm/~": 4303,
      "Wash": 4304,
      "cut ": 4305,
      ". And ": 4306,
      "ret ": 4307,
      "Art ": 4308,
      "wrong ": 4309,
      "pic ": 4310,
      "at a ": 4311,
      "ativ": 4312,
      "cer": 4313,
      "doll": 4314,
      "use": 4315,
      "manag": 4316,
      "Exp": 4317,
      "able to ": 4318,
      "walk ": 4319,
      "article": 4320,
      "radio ": 4321,
      "TH ": 4322,
      "comput": 4323,
      "woman ": 4324,
      "Dall": 4325,
      "over the ": 4326,
      "shot ": 4327,
      "ancial ": 4328,
      "books ": 4329,
      "WT": 4330,
      "ili": 4331,
      "rest ": 4332,
      "appreciate ": 4333,
      ";-)": 4334,
      "Summ": 4335,
      "edu": 4336,
      "group ": 4337,
      "drink ": 4338,
      ". So ": 4339,
      "respon": 4340,
      "aylor ": 4341,
      "ury ": 4342,
      "has a ": 4343,
      "personal ": 4344,
      "Ta": 4345,
      "rand": 4346,
      "— ": 4347,
      "short ": 4348,
      "thank": 4349,
      "may be ": 4350,
      "future ": 4351,
      "pat": 4352,
      "you have ": 4353,
      "dic": 4354,
      "Prom": 4355,
      "clos": 4356,
      "weather ": 4357,
      "thre": 4358,
      "the \"": 4359,
      "right now ": 4360,
      "thank you ": 4361,
      "Univers": 4362,
      "@_": 4363,
      "GO ": 4364,
      "Glad ": 4365,
      "Squ": 4366,
      "one.": 4367,
      "stup": 4368,
      "eel ": 4369,
      "grad": 4370,
      "News": 4371,
      "afterno": 4372,
      "=)": 4373,
      "ington": 4374,
      "emin": 4375,
      "learn": 4376,
      "Family ": 4377,
      "5\t": 4378,
      "TON": 4379,
      "ier ": 4380,
      "you. ": 4381,
      "asha": 4382,
      "rap": 4383,
      "travel ": 4384,
      "ene ": 4385,
      "ney": 4386,
      "!!!!!": 4387,
      "Energ": 4388,
      "@O": 4389,
      "DU": 4390,
      "WW": 4391,
      "and a ": 4392,
      "South ": 4393,
      ":00 ": 4394,
      "sourc": 4395,
      ", I'm ": 4396,
      "my new ": 4397,
      "ource ": 4398,
      "NYC": 4399,
      "date ": 4400,
      "looking for ": 4401,
      "23 ": 4402,
      "Cour": 4403,
      "MS": 4404,
      "en.": 4405,
      "Has ": 4406,
      "http://s": 4407,
      "in to ": 4408,
      "lots of ": 4409,
      "!!!  ": 4410,
      "about to ": 4411,
      "Club ": 4412,
      "let's ": 4413,
      "99 ": 4414,
      "Hot ": 4415,
      ", it's ": 4416,
      "you?": 4417,
      "a bit ": 4418,
      "Can't wait ": 4419,
      "EX": 4420,
      "Not": 4421,
      "fans ": 4422,
      "mer": 4423,
      "php": 4424,
      "http://tiny.cc/": 4425,
      "Entre": 4426,
      "Work ": 4427,
      "tickets ": 4428,
      "anti": 4429,
      "i love ": 4430,
      "means ": 4431,
      "rect ": 4432,
      "$5": 4433,
      "Vol": 4434,
      "power ": 4435,
      "ana": 4436,
      "order": 4437,
      "Thanksgiv": 4438,
      "VIDE": 4439,
      "Person": 4440,
      "dud": 4441,
      "1/": 4442,
      "@br": 4443,
      "fant": 4444,
      "fuck": 4445,
      "ing your ": 4446,
      "jobs #": 4447,
      "94": 4448,
      "lets ": 4449,
      "ers.": 4450,
      "pick": 4451,
      "fix": 4452,
      "FREE": 4453,
      "HI": 4454,
      "Mad": 4455,
      "sd": 4456,
      "These ": 4457,
      "Sar": 4458,
      "equ": 4459,
      "resul": 4460,
      "super": 4461,
      "auth": 4462,
      "57": 4463,
      "Camp": 4464,
      "hea": 4465,
      "review ": 4466,
      "ers: ": 4467,
      "......": 4468,
      "OUT ": 4469,
      "hahaha": 4470,
      "hhhh": 4471,
      "Every ": 4472,
      "tee": 4473,
      "solut": 4474,
      "Review": 4475,
      "lab": 4476,
      "tips ": 4477,
      "ers are ": 4478,
      "Tru": 4479,
      "ential ": 4480,
      "PR ": 4481,
      "mul": 4482,
      "million ": 4483,
      "eek": 4484,
      "ills ": 4485,
      "gett": 4486,
      "Ash": 4487,
      "Canc": 4488,
      "NO ": 4489,
      "Power ": 4490,
      "jam": 4491,
      "market ": 4492,
      "pric": 4493,
      "Tell ": 4494,
      "etc": 4495,
      "i was ": 4496,
      "better than ": 4497,
      ";) ": 4498,
      "Call ": 4499,
      "Mart": 4500,
      "ier": 4501,
      ". What ": 4502,
      "had a ": 4503,
      "Obama": 4504,
      "ore": 4505,
      "on this ": 4506,
      "activ": 4507,
      "\t2009-08": 4508,
      "wait": 4509,
      "tcot ": 4510,
      "public ": 4511,
      "CB": 4512,
      "fli": 4513,
      "rt ": 4514,
      "ucking ": 4515,
      "thanks for ": 4516,
      "number ": 4517,
      "53": 4518,
      "GR": 4519,
      "rock ": 4520,
      "RT @D": 4521,
      "up with ": 4522,
      "its": 4523,
      "like to ": 4524,
      "jobs": 4525,
      "break ": 4526,
      "ume ": 4527,
      "just got ": 4528,
      "e, and ": 4529,
      "Check out the ": 4530,
      "ij": 4531,
      "pur": 4532,
      "past ": 4533,
      "acy ": 4534,
      "ung": 4535,
      "make it ": 4536,
      "Laur": 4537,
      "EVER": 4538,
      "y? ": 4539,
      "HAHA": 4540,
      "Mike ": 4541,
      "Center ": 4542,
      "ellow ": 4543,
      "President ": 4544,
      "Search ": 4545,
      "YE": 4546,
      "bag": 4547,
      "lunch": 4548,
      "blu": 4549,
      "come to ": 4550,
      "lmao": 4551,
      "coffee ": 4552,
      "Dri": 4553,
      "ical": 4554,
      "RT @d": 4555,
      "but": 4556,
      "http://tinyurl.com/yg": 4557,
      "Div": 4558,
      "ically ": 4559,
      "is so ": 4560,
      "maj": 4561,
      "time.": 4562,
      "opefully ": 4563,
      "field ": 4564,
      "Lar": 4565,
      "you! ": 4566,
      "weeks ": 4567,
      "mploy": 4568,
      "wife ": 4569,
      "board": 4570,
      "scar": 4571,
      "cott": 4572,
      "official": 4573,
      "account ": 4574,
      "batt": 4575,
      "mit ": 4576,
      "ica": 4577,
      "ed it ": 4578,
      "that the ": 4579,
      "ead of ": 4580,
      "shar.es/": 4581,
      "Ry": 4582,
      "fire ": 4583,
      "#follow": 4584,
      "mad": 4585,
      "ually ": 4586,
      ", \"": 4587,
      "Listening to ": 4588,
      "ed me ": 4589,
      "haw": 4590,
      "spr": 4591,
      "ured ": 4592,
      "\t2009-10-2": 4593,
      "bc": 4594,
      "till ": 4595,
      "Enter": 4596,
      "thru ": 4597,
      "baby": 4598,
      "40 ": 4599,
      "City": 4600,
      "RS": 4601,
      "cod": 4602,
      "dance ": 4603,
      "ire": 4604,
      "@Sh": 4605,
      "http://tinyurl.com/yl": 4606,
      "we'll ": 4607,
      "Beat": 4608,
      "via @add": 4609,
      "is on ": 4610,
      "10/": 4611,
      "How To ": 4612,
      "energy ": 4613,
      "CR": 4614,
      "quite ": 4615,
      "indust": 4616,
      "when I ": 4617,
      "ees ": 4618,
      "uter": 4619,
      "thes": 4620,
      "era ": 4621,
      "that was ": 4622,
      "Nov. ": 4623,
      "Moon ": 4624,
      "benef": 4625,
      "Over ": 4626,
      "! http://bit.ly/3": 4627,
      "ele": 4628,
      "dead": 4629,
      "LIVE ": 4630,
      "RT @J": 4631,
      "Baby ": 4632,
      "together ": 4633,
      "KT": 4634,
      "Post ": 4635,
      "near ": 4636,
      "sport": 4637,
      "Really ": 4638,
      "F at ": 4639,
      "second ": 4640,
      "#c": 4641,
      ".am/": 4642,
      "Du": 4643,
      "fact": 4644,
      "kl": 4645,
      "acking ": 4646,
      "boys ": 4647,
      "create ": 4648,
      "Mark ": 4649,
      "techn": 4650,
      "big": 4651,
      "tool": 4652,
      "http://pic.gd/": 4653,
      "ers. ": 4654,
      "Finally ": 4655,
      "yall ": 4656,
      "ines ": 4657,
      "on.": 4658,
      "tired ": 4659,
      "saying ": 4660,
      "catch ": 4661,
      "County ": 4662,
      "CS": 4663,
      "Never ": 4664,
      "You are ": 4665,
      "look at ": 4666,
      "$ ": 4667,
      "FT": 4668,
      "Would ": 4669,
      "the first ": 4670,
      "sex ": 4671,
      "LLO": 4672,
      "fel": 4673,
      ", we ": 4674,
      "es? ": 4675,
      "ooking ": 4676,
      "lil ": 4677,
      "RT @K": 4678,
      "family": 4679,
      "e... ": 4680,
      "icks": 4681,
      "on \"": 4682,
      "club": 4683,
      "during ": 4684,
      "Gold": 4685,
      "Sam": 4686,
      "bit ": 4687,
      "ing with ": 4688,
      "action": 4689,
      "album": 4690,
      "AW": 4691,
      "sli": 4692,
      "Tonight ": 4693,
      "tape ": 4694,
      "finished ": 4695,
      "CD": 4696,
      "s) ": 4697,
      "tg": 4698,
      "t: ": 4699,
      "http://tinyurl.com/yf": 4700,
      "- @": 4701,
      "ered ": 4702,
      "john": 4703,
      "Girl ": 4704,
      "Food ": 4705,
      "Hal": 4706,
      "on S": 4707,
      "Winds are ": 4708,
      "is in ": 4709,
      "that you ": 4710,
      "trad": 4711,
      "Visit ": 4712,
      "), ": 4713,
      "Cat": 4714,
      "WOR": 4715,
      "code ": 4716,
      "wear ": 4717,
      ", not ": 4718,
      "lot ": 4719,
      "#FF @": 4720,
      "AK": 4721,
      "Gener": 4722,
      ". K": 4723,
      "rol ": 4724,
      "erson ": 4725,
      "record ": 4726,
      "gonna be ": 4727,
      "clean": 4728,
      "masha": 4729,
      "63": 4730,
      "Cu": 4731,
      "gin": 4732,
      "RT @k": 4733,
      "today! ": 4734,
      "funny": 4735,
      "Blogg": 4736,
      "% of ": 4737,
      "yeah": 4738,
      "East ": 4739,
      "bow": 4740,
      "tour ": 4741,
      "tten ": 4742,
      "used to ": 4743,
      "ages ": 4744,
      "educ": 4745,
      "version ": 4746,
      "girls ": 4747,
      "North ": 4748,
      "May ": 4749,
      "mal": 4750,
      "sand": 4751,
      "ago": 4752,
      "THAN": 4753,
      "tech ": 4754,
      "Miami ": 4755,
      "02": 4756,
      "Fav": 4757,
      "Full ": 4758,
      "Wil": 4759,
      "city ": 4760,
      "a - ": 4761,
      "charg": 4762,
      "trans": 4763,
      "get the ": 4764,
      "http://twitpic.com/o": 4765,
      "Job ": 4766,
      "course ": 4767,
      "New blog post: ": 4768,
      "Way ": 4769,
      "bought ": 4770,
      "luck ": 4771,
      "it?": 4772,
      "It was ": 4773,
      "writing ": 4774,
      "film ": 4775,
      "campa": 4776,
      "OP": 4777,
      "hat": 4778,
      "ug ": 4779,
      "on our ": 4780,
      "unity": 4781,
      "out the ": 4782,
      "Class": 4783,
      "&#39; ": 4784,
      "cancer ": 4785,
      "digg.com/": 4786,
      "to help ": 4787,
      "esday": 4788,
      "Stay ": 4789,
      "follow @": 4790,
      "GET ": 4791,
      "Elec": 4792,
      "Hi ": 4793,
      "QU": 4794,
      "Sto": 4795,
      "ican ": 4796,
      "outside ": 4797,
      "http://ow.ly/B": 4798,
      "someth": 4799,
      "bod": 4800,
      "ject ": 4801,
      "oose ": 4802,
      "ned": 4803,
      "RT: @": 4804,
      "Exper": 4805,
      "cla": 4806,
      "na": 4807,
      "win a ": 4808,
      "ability ": 4809,
      "http://ow.ly/15": 4810,
      "marri": 4811,
      "Californ": 4812,
      "Met": 4813,
      "VO": 4814,
      "bri": 4815,
      "fight": 4816,
      "low": 4817,
      "butt": 4818,
      "this year": 4819,
      "ONE ": 4820,
      "ahoo": 4821,
      "off the ": 4822,
      "Cur": 4823,
      "Foot": 4824,
      "Pri": 4825,
      "cul": 4826,
      "me a ": 4827,
      "today.": 4828,
      "CH ": 4829,
      "project": 4830,
      "Sing": 4831,
      "Was ": 4832,
      "na ": 4833,
      "Photo ": 4834,
      "Sw": 4835,
      "WN": 4836,
      "ga": 4837,
      "ler": 4838,
      "s_": 4839,
      "sick ": 4840,
      "ted ": 4841,
      "http://ping.fm/": 4842,
      "http://url4.eu/": 4843,
      "she's ": 4844,
      "Did you ": 4845,
      "\n4": 4846,
      "3-": 4847,
      "Hon": 4848,
      "esh": 4849,
      "eeps ": 4850,
      "rais": 4851,
      "rather ": 4852,
      "360": 4853,
      "UG": 4854,
      "sus": 4855,
      "there is ": 4856,
      "Cost": 4857,
      "Dog": 4858,
      "Pan": 4859,
      "n.": 4860,
      "ugh ": 4861,
      "compet": 4862,
      "experienc": 4863,
      "program ": 4864,
      "young ": 4865,
      "itive ": 4866,
      "fire": 4867,
      "biz": 4868,
      "pon": 4869,
      ": B": 4870,
      "in L": 4871,
      "you should ": 4872,
      "Brown ": 4873,
      "( ": 4874,
      "Develop": 4875,
      "Econ": 4876,
      "Market ": 4877,
      "Sub": 4878,
      "ker ": 4879,
      "Thr": 4880,
      "? I ": 4881,
      "Shar": 4882,
      "Fut": 4883,
      "knew ": 4884,
      "tain": 4885,
      "@Mr": 4886,
      "Color": 4887,
      "Park ": 4888,
      "special": 4889,
      "Thursday ": 4890,
      "Jackson ": 4891,
      "Cas": 4892,
      "bers ": 4893,
      "cold ": 4894,
      "ja": 4895,
      "vy ": 4896,
      "ford ": 4897,
      "ground ": 4898,
      "ILL ": 4899,
      "Windows ": 4900,
      "ME ": 4901,
      "bt": 4902,
      "iam": 4903,
      "premi": 4904,
      "AY": 4905,
      "due ": 4906,
      "stream": 4907,
      "er of ": 4908,
      "you've ": 4909,
      "Thom": 4910,
      "eez": 4911,
      "commerc": 4912,
      "take a ": 4913,
      "minutes ": 4914,
      "High ": 4915,
      "@y": 4916,
      "cy": 4917,
      "cup": 4918,
      "gres": 4919,
      "west ": 4920,
      "iti": 4921,
      "ale": 4922,
      "chall": 4923,
      "to-": 4924,
      ".. http://": 4925,
      "UST ": 4926,
      "96": 4927,
      "@ad": 4928,
      "entre": 4929,
      "that I ": 4930,
      "click ": 4931,
      "ught ": 4932,
      "'S ": 4933,
      "alread": 4934,
      "build ": 4935,
      "ance": 4936,
      "Right ": 4937,
      "ly. ": 4938,
      "next week": 4939,
      "report ": 4940,
      "sweet ": 4941,
      "@z": 4942,
      "reason": 4943,
      "or of ": 4944,
      "for our ": 4945,
      "point ": 4946,
      "collec": 4947,
      "wards ": 4948,
      "22 ": 4949,
      "ky": 4950,
      "for you ": 4951,
      "ossi": 4952,
      "tern": 4953,
      "studio ": 4954,
      "’ ": 4955,
      ". T": 4956,
      "er than ": 4957,
      "rapp": 4958,
      "ustr": 4959,
      "tweeting ": 4960,
      ". He ": 4961,
      "- http://shar.es/": 4962,
      "Latest ": 4963,
      "Social": 4964,
      "8\t": 4965,
      "Vie": 4966,
      "VER": 4967,
      "action ": 4968,
      "PH": 4969,
      "Yes ": 4970,
      "ol ": 4971,
      "purch": 4972,
      "phil": 4973,
      "gie ": 4974,
      "aster": 4975,
      "Photograph": 4976,
      "wonderful ": 4977,
      "bs ": 4978,
      "twit": 4979,
      "uz": 4980,
      "elly": 4981,
      "we have ": 4982,
      "download": 4983,
      "Atlant": 4984,
      "auc": 4985,
      "agree ": 4986,
      "apol": 4987,
      "sych": 4988,
      "Nu": 4989,
      "SI": 4990,
      "yr ": 4991,
      "ities": 4992,
      "lock": 4993,
      "me and ": 4994,
      "lap": 4995,
      "ation of ": 4996,
      "Check this ": 4997,
      "Progr": 4998,
      ":( ": 4999
    },
    "merges": [
      [
        "e",
        " "
      ],
      [
        "s",
        " "
      ],
      [
        "t",
        " "
      ],
      [
        "i",
        "n"
      ],
      [
        "t",
        "h"
      ],
      [
        "e",
        "r"
      ],
      [
        "a",
        "n"
      ],
      [
        "o",
        "n"
      ],
      [
        "d",
        " "
      ],
      [
        "y",
        " "
      ],
      [
        "o",
        "u"
      ],
      [
        "o",
        "r"
      ],
      [
        "o",
        " "
      ],
      [
        "t",
        "t"
      ],
      [
        "in",
        "g"
      ],
      [
        ".",
        " "
      ],
      [
        "i",
        "t"
      ],
      [
        "a",
        "r"
      ],
      [
        "e",
        "n"
      ],
      [
        "p",
        ":"
      ],
      [
        "/",
        "/"
      ],
      [
        "o",
        "m"
      ],
      [
        "h",
        "tt"
      ],
      [
        "a",
        "l"
      ],
      [
        "p:",
        "//"
      ],
      [
        "htt",
        "p://"
      ],
      [
        "ing",
        " "
      ],
      [
        "r",
        "e"
      ],
      [
        "a",
        " "
      ],
      [
        "th",
        "e "
      ],
      [
        "s",
        "t"
      ],
      [
        ",",
        " "
      ],
      [
        "a",
        "t"
      ],
      [
        "t",
        "o "
      ],
      [
        ".",
        "."
      ],
      [
        "l",
        "y"
      ],
      [
        "o",
        "w"
      ],
      [
        "i",
        "c"
      ],
      [
        "l",
        " "
      ],
      [
        "er",
        " "
      ],
      [
        "e",
        "s"
      ],
      [
        "ly",
        "/"
      ],
      [
        "on",
        " "
      ],
      [
        ".",
        "ly/"
      ],
      [
        ":",
        " "
      ],
      [
        "f",
        " "
      ],
      [
        "a",
        "t "
      ],
      [
        "b",
        "it"
      ],
      [
        "bit",
        ".ly/"
      ],
      [
        "http://",
        "bit.ly/"
      ],
      [
        "o",
        "o"
      ],
      [
        "i",
        "s "
      ],
      [
        "c",
        "h"
      ],
      [
        "or",
        " "
      ],
      [
        "y",
        "ou"
      ],
      [
        "in",
        " "
      ],
      [
        "k",
        " "
      ],
      [
        "i",
        "l"
      ],
      [
        "!",
        " "
      ],
      [
        "e",
        "l"
      ],
      [
        "c",
        "om"
      ],
      [
        "e",
        "d "
      ],
      [
        "a",
        "m"
      ],
      [
        "I",
        " "
      ],
      [
        "an",
        "d "
      ],
      [
        "a",
        "s"
      ],
      [
        "u",
        "s"
      ],
      [
        "i",
        "s"
      ],
      [
        "e",
        "s "
      ],
      [
        "o",
        "l"
      ],
      [
        "i",
        "g"
      ],
      [
        "u",
        "r"
      ],
      [
        "a",
        "c"
      ],
      [
        " ",
        "@"
      ],
      [
        "f",
        "or "
      ],
      [
        "o",
        "f "
      ],
      [
        "T",
        "h"
      ],
      [
        "h",
        "a"
      ],
      [
        "v",
        "e "
      ],
      [
        "l",
        "e"
      ],
      [
        "a",
        "y"
      ],
      [
        "e",
        "e"
      ],
      [
        ".",
        "com"
      ],
      [
        "an",
        " "
      ],
      [
        "l",
        "i"
      ],
      [
        "r",
        " "
      ],
      [
        "a",
        "d"
      ],
      [
        "i",
        "d"
      ],
      [
        "-",
        " "
      ],
      [
        "p",
        " "
      ],
      [
        "t",
        "i"
      ],
      [
        "n",
        "e"
      ],
      [
        "l",
        "o"
      ],
      [
        "you",
        " "
      ],
      [
        "w",
        "i"
      ],
      [
        "a",
        "y "
      ],
      [
        "'",
        "s "
      ],
      [
        "u",
        "n"
      ],
      [
        "R",
        "T"
      ],
      [
        "r",
        "o"
      ],
      [
        "ow",
        " "
      ],
      [
        "en",
        " "
      ],
      [
        "m",
        " "
      ],
      [
        "e",
        "c"
      ],
      [
        "s",
        "h"
      ],
      [
        "th",
        " "
      ],
      [
        "w",
        "h"
      ],
      [
        ".com",
        "/"
      ],
      [
        "i",
        "t "
      ],
      [
        "!",
        "!"
      ],
      [
        "ig",
        "h"
      ],
      [
        "a",
        "b"
      ],
      [
        "RT",
        " @"
      ],
      [
        "ou",
        "t "
      ],
      [
        "e",
        "t"
      ],
      [
        "a",
        "g"
      ],
      [
        "al",
        " "
      ],
      [
        "a",
        "k"
      ],
      [
        "r",
        "i"
      ],
      [
        "?",
        " "
      ],
      [
        "n",
        " "
      ],
      [
        "e",
        "d"
      ],
      [
        "m",
        "y "
      ],
      [
        "w",
        "w"
      ],
      [
        "a",
        "s "
      ],
      [
        "i",
        "r"
      ],
      [
        "l",
        "y "
      ],
      [
        "w",
        " "
      ],
      [
        "o",
        "p"
      ],
      [
        "l",
        "e "
      ],
      [
        "0",
        "0"
      ],
      [
        "t",
        "o"
      ],
      [
        "b",
        "e"
      ],
      [
        "v",
        "er"
      ],
      [
        "e",
        "t "
      ],
      [
        "o",
        "t "
      ],
      [
        "e",
        "m"
      ],
      [
        "..",
        "."
      ],
      [
        "b",
        "u"
      ],
      [
        "r",
        "a"
      ],
      [
        "..",
        ". "
      ],
      [
        "p",
        "p"
      ],
      [
        "en",
        "t"
      ],
      [
        "m",
        "e "
      ],
      [
        "http://",
        "t"
      ],
      [
        "i",
        " "
      ],
      [
        "e",
        "ar"
      ],
      [
        "h",
        " "
      ],
      [
        "wi",
        "th "
      ],
      [
        "o",
        "s"
      ],
      [
        "b",
        "e "
      ],
      [
        "ar",
        "e "
      ],
      [
        "us",
        "t "
      ],
      [
        "Th",
        "e "
      ],
      [
        "th",
        "at "
      ],
      [
        "w",
        "or"
      ],
      [
        "f",
        "f"
      ],
      [
        "C",
        "h"
      ],
      [
        "at",
        "i"
      ],
      [
        "'",
        "t "
      ],
      [
        "you",
        "r "
      ],
      [
        "s",
        "e"
      ],
      [
        "om",
        " "
      ],
      [
        "al",
        "l "
      ],
      [
        "f",
        "r"
      ],
      [
        "il",
        "l "
      ],
      [
        "w",
        "ee"
      ],
      [
        "ch",
        " "
      ],
      [
        "on",
        "e "
      ],
      [
        "th",
        "is "
      ],
      [
        "th",
        "e"
      ],
      [
        "S",
        "t"
      ],
      [
        "o",
        "t"
      ],
      [
        "e",
        "a"
      ],
      [
        "i",
        "m"
      ],
      [
        "\"",
        " "
      ],
      [
        "s",
        "u"
      ],
      [
        "d",
        "ay"
      ],
      [
        "e",
        "v"
      ],
      [
        "I",
        "'"
      ],
      [
        "g",
        " "
      ],
      [
        "s",
        "p"
      ],
      [
        "ou",
        "n"
      ],
      [
        "k",
        "s "
      ],
      [
        "o",
        "c"
      ],
      [
        "an",
        "d"
      ],
      [
        "ha",
        "ve "
      ],
      [
        "W",
        "h"
      ],
      [
        "e",
        "b"
      ],
      [
        "o",
        "v"
      ],
      [
        ". ",
        " "
      ],
      [
        "er",
        "s "
      ],
      [
        "p",
        "l"
      ],
      [
        "e",
        "x"
      ],
      [
        "t",
        "r"
      ],
      [
        "t",
        "s "
      ],
      [
        "d",
        "i"
      ],
      [
        "e",
        "st"
      ],
      [
        "igh",
        "t "
      ],
      [
        "u",
        "l"
      ],
      [
        "k",
        "e "
      ],
      [
        "en",
        "t "
      ],
      [
        "l",
        "d "
      ],
      [
        "er",
        "e "
      ],
      [
        "d",
        "ay "
      ],
      [
        "om",
        "e "
      ],
      [
        "E",
        " "
      ],
      [
        "A",
        " "
      ],
      [
        "&",
        " "
      ],
      [
        "0",
        " "
      ],
      [
        "Y",
        "ou"
      ],
      [
        "ur",
        "l"
      ],
      [
        "f",
        "or"
      ],
      [
        "m",
        "e"
      ],
      [
        "2",
        "00"
      ],
      [
        "t",
        "er"
      ],
      [
        "oo",
        "d "
      ],
      [
        "u",
        "c"
      ],
      [
        "w",
        "."
      ],
      [
        ")",
        " "
      ],
      [
        "fr",
        "om "
      ],
      [
        "m",
        "or"
      ],
      [
        "N",
        "e"
      ],
      [
        "at",
        "e "
      ],
      [
        "al",
        "l"
      ],
      [
        "g",
        "et "
      ],
      [
        "i",
        "e"
      ],
      [
        "j",
        "ust "
      ],
      [
        "u",
        "p "
      ],
      [
        "en",
        "d"
      ],
      [
        "ww",
        "w."
      ],
      [
        "q",
        "u"
      ],
      [
        "ar",
        "t"
      ],
      [
        "ol",
        "l"
      ],
      [
        "es",
        "t "
      ],
      [
        ". ",
        "http://bit.ly/"
      ],
      [
        "2",
        " "
      ],
      [
        "u",
        "m"
      ],
      [
        "p",
        "h"
      ],
      [
        "n",
        "ow "
      ],
      [
        "in",
        "y"
      ],
      [
        "a",
        "v"
      ],
      [
        "g",
        "o"
      ],
      [
        "200",
        "9"
      ],
      [
        "c",
        "on"
      ],
      [
        "s",
        "o "
      ],
      [
        "ic",
        " "
      ],
      [
        "o",
        "b"
      ],
      [
        "k",
        "ing "
      ],
      [
        "igh",
        "t"
      ],
      [
        "1",
        "1"
      ],
      [
        "url",
        ".com/"
      ],
      [
        "S",
        " "
      ],
      [
        "A",
        "n"
      ],
      [
        "http://t",
        "iny"
      ],
      [
        "ak",
        "e "
      ],
      [
        "re",
        "s"
      ],
      [
        "ou",
        "ld "
      ],
      [
        "p",
        "ro"
      ],
      [
        "u",
        "t"
      ],
      [
        "w",
        "as "
      ],
      [
        "I",
        "n"
      ],
      [
        "er",
        "s"
      ],
      [
        "bu",
        "t "
      ],
      [
        "es",
        "s"
      ],
      [
        "d",
        "o"
      ],
      [
        "u",
        " "
      ],
      [
        "I'",
        "m "
      ],
      [
        "n",
        "ot "
      ],
      [
        "am",
        " "
      ],
      [
        "c",
        "e "
      ],
      [
        "o",
        "d"
      ],
      [
        "http://tiny",
        "url.com/"
      ],
      [
        "u",
        "p"
      ],
      [
        "li",
        "ke "
      ],
      [
        "ab",
        "out "
      ],
      [
        "g",
        "r"
      ],
      [
        "l",
        "a"
      ],
      [
        "b",
        "y "
      ],
      [
        "e",
        ", "
      ],
      [
        "T",
        " "
      ],
      [
        "l",
        "in"
      ],
      [
        "wi",
        "tt"
      ],
      [
        "ing ",
        "to "
      ],
      [
        "e",
        "p"
      ],
      [
        "g",
        "i"
      ],
      [
        "e",
        ". "
      ],
      [
        "ne",
        "w "
      ],
      [
        "in ",
        "the "
      ],
      [
        "p",
        "r"
      ],
      [
        "i",
        "a "
      ],
      [
        "al",
        "ly "
      ],
      [
        "?",
        "?"
      ],
      [
        "ou",
        "r "
      ],
      [
        "p",
        "ic"
      ],
      [
        "k",
        "s"
      ],
      [
        "S",
        "h"
      ],
      [
        "id",
        "e"
      ],
      [
        "es",
        "s "
      ],
      [
        "g",
        "re"
      ],
      [
        " ",
        "#"
      ],
      [
        "w",
        "ill "
      ],
      [
        "ac",
        "k "
      ],
      [
        "http://bit.ly/",
        "1"
      ],
      [
        "el",
        "l"
      ],
      [
        "ou",
        "g"
      ],
      [
        "a",
        "p"
      ],
      [
        "ar",
        " "
      ],
      [
        "an",
        "t "
      ],
      [
        "e",
        "y "
      ],
      [
        "as",
        "t "
      ],
      [
        "ou",
        "r"
      ],
      [
        "c",
        "an "
      ],
      [
        "s",
        "i"
      ],
      [
        "a",
        "in"
      ],
      [
        "r",
        "e "
      ],
      [
        "1",
        "0"
      ],
      [
        "a",
        "i"
      ],
      [
        "d",
        "o "
      ],
      [
        "Th",
        "an"
      ],
      [
        "d",
        "on"
      ],
      [
        "o",
        "st"
      ],
      [
        "a",
        "w"
      ],
      [
        "s",
        ", "
      ],
      [
        "for ",
        "the "
      ],
      [
        "om",
        "e"
      ],
      [
        "w",
        "e "
      ],
      [
        "L",
        "i"
      ],
      [
        "ati",
        "on"
      ],
      [
        "s",
        "e "
      ],
      [
        "oo",
        "k "
      ],
      [
        "2009",
        "-"
      ],
      [
        "x",
        " "
      ],
      [
        "of ",
        "the "
      ],
      [
        "a",
        "d "
      ],
      [
        "b",
        "l"
      ],
      [
        "f",
        "e"
      ],
      [
        "wh",
        "at "
      ],
      [
        "o",
        "th"
      ],
      [
        "d",
        "s "
      ],
      [
        "5",
        " "
      ],
      [
        "e",
        "al"
      ],
      [
        "o",
        "f"
      ],
      [
        "\t",
        "2009-"
      ],
      [
        "ec",
        "k "
      ],
      [
        " ",
        " "
      ],
      [
        "n",
        "ow"
      ],
      [
        "a",
        "st"
      ],
      [
        "it",
        "e "
      ],
      [
        "f",
        "in"
      ],
      [
        "il",
        "l"
      ],
      [
        "ic",
        "k"
      ],
      [
        "u",
        "s "
      ],
      [
        "http://bit.ly/",
        "3"
      ],
      [
        "s",
        ". "
      ],
      [
        "e",
        "y"
      ],
      [
        "1",
        " "
      ],
      [
        "or",
        "t"
      ],
      [
        "e",
        "."
      ],
      [
        "g",
        "u"
      ],
      [
        "ic",
        "e "
      ],
      [
        "http://bit.ly/",
        "2"
      ],
      [
        "I",
        "N"
      ],
      [
        "4",
        " "
      ],
      [
        "ac",
        "k"
      ],
      [
        "3",
        " "
      ],
      [
        "b",
        "o"
      ],
      [
        "p",
        "e"
      ],
      [
        "ar",
        "k"
      ],
      [
        "re",
        "c"
      ],
      [
        "e",
        ": "
      ],
      [
        "http://",
        "www."
      ],
      [
        "u",
        "d"
      ],
      [
        "ed ",
        "to "
      ],
      [
        "b",
        "r"
      ],
      [
        "s",
        "t "
      ],
      [
        "t",
        "on"
      ],
      [
        "e",
        "ver"
      ],
      [
        "w",
        "it"
      ],
      [
        "Ne",
        "w "
      ],
      [
        ".",
        ". http://bit.ly/"
      ],
      [
        "a",
        "pp"
      ],
      [
        "el",
        "l "
      ],
      [
        "an",
        "n"
      ],
      [
        "i",
        "f "
      ],
      [
        "an",
        "t"
      ],
      [
        "D",
        " "
      ],
      [
        "! ",
        " "
      ],
      [
        "an",
        "g"
      ],
      [
        "mor",
        "e "
      ],
      [
        "it",
        "y "
      ],
      [
        "l",
        "l "
      ],
      [
        "s",
        "ome "
      ],
      [
        "th",
        "in"
      ],
      [
        "ati",
        "on "
      ],
      [
        "http://bit.ly/",
        "4"
      ],
      [
        "You",
        " "
      ],
      [
        "ou",
        "t"
      ],
      [
        "ur",
        "e "
      ],
      [
        "j",
        "o"
      ],
      [
        "R",
        "E"
      ],
      [
        "s",
        "c"
      ],
      [
        "an",
        "c"
      ],
      [
        "g",
        "ood "
      ],
      [
        "i",
        "z"
      ],
      [
        "u",
        "st"
      ],
      [
        "p",
        "er"
      ],
      [
        "..",
        ".."
      ],
      [
        "F",
        "r"
      ],
      [
        "on ",
        "the "
      ],
      [
        "f",
        "oll"
      ],
      [
        "http://tinyurl.com/",
        "y"
      ],
      [
        "a",
        "il"
      ],
      [
        "s",
        ": "
      ],
      [
        "am",
        "e "
      ],
      [
        "re",
        "e "
      ],
      [
        "u",
        "g"
      ],
      [
        "c",
        "l"
      ],
      [
        "g",
        "o "
      ],
      [
        "i",
        "al "
      ],
      [
        "os",
        "t "
      ],
      [
        "i",
        "on"
      ],
      [
        "m",
        "on"
      ],
      [
        "en",
        "d "
      ],
      [
        "g",
        "e"
      ],
      [
        "2",
        "0"
      ],
      [
        "o",
        "ff"
      ],
      [
        "m",
        "an"
      ],
      [
        "ar",
        "d "
      ],
      [
        "g",
        "ot "
      ],
      [
        "ar",
        "d"
      ],
      [
        "a",
        "f"
      ],
      [
        "T",
        "witt"
      ],
      [
        "ha",
        "s "
      ],
      [
        "lo",
        "ve "
      ],
      [
        "k",
        "now "
      ],
      [
        "oo",
        "d"
      ],
      [
        "T",
        "H"
      ],
      [
        "http://",
        "ow"
      ],
      [
        "Y",
        " "
      ],
      [
        "ow",
        "n "
      ],
      [
        "http://ow",
        ".ly/"
      ],
      [
        "in",
        "d"
      ],
      [
        "h",
        "ow "
      ],
      [
        "a",
        "z"
      ],
      [
        "!",
        "! "
      ],
      [
        "O",
        " "
      ],
      [
        "R",
        " "
      ],
      [
        "se",
        "e "
      ],
      [
        "C",
        "on"
      ],
      [
        "P",
        "h"
      ],
      [
        "b",
        "lo"
      ],
      [
        "http://t",
        "wit"
      ],
      [
        "er",
        "e"
      ],
      [
        "ti",
        "me "
      ],
      [
        "L",
        " "
      ],
      [
        "e",
        "l "
      ],
      [
        "s",
        "."
      ],
      [
        "w",
        "at"
      ],
      [
        "or",
        "r"
      ],
      [
        "1",
        "2"
      ],
      [
        "ow",
        "n"
      ],
      [
        "th",
        "an"
      ],
      [
        "R",
        "e"
      ],
      [
        "O",
        "N"
      ],
      [
        "ag",
        "e "
      ],
      [
        ":",
        ")"
      ],
      [
        "@",
        "m"
      ],
      [
        "ay",
        "s "
      ],
      [
        "!!",
        "!!"
      ],
      [
        "ti",
        "on"
      ],
      [
        "pic",
        ".com/"
      ],
      [
        "1",
        "9"
      ],
      [
        "u",
        "t "
      ],
      [
        "http://twit",
        "pic.com/"
      ],
      [
        "re",
        "ad"
      ],
      [
        "the",
        "y "
      ],
      [
        "t",
        "e"
      ],
      [
        "n",
        "'t "
      ],
      [
        "tt",
        "ing "
      ],
      [
        "A",
        "l"
      ],
      [
        "a",
        "h"
      ],
      [
        "wh",
        "en "
      ],
      [
        "I",
        "t"
      ],
      [
        "A",
        "N"
      ],
      [
        "u",
        "b"
      ],
      [
        "B",
        "r"
      ],
      [
        "gre",
        "at "
      ],
      [
        "ti",
        "on "
      ],
      [
        "'",
        "re "
      ],
      [
        "oo",
        "k"
      ],
      [
        "T",
        "r"
      ],
      [
        "n",
        "o "
      ],
      [
        "as",
        "e "
      ],
      [
        "L",
        "O"
      ],
      [
        "t",
        "wee"
      ],
      [
        "J",
        "ust "
      ],
      [
        "1",
        "6"
      ],
      [
        "t",
        "er "
      ],
      [
        "i",
        "st"
      ],
      [
        "0",
        "9"
      ],
      [
        "oug",
        "h"
      ],
      [
        "C",
        " "
      ],
      [
        "7",
        " "
      ],
      [
        "to",
        "day"
      ],
      [
        "a",
        "tt"
      ],
      [
        "i",
        "v"
      ],
      [
        "'",
        " "
      ],
      [
        "z",
        " "
      ],
      [
        "t",
        "u"
      ],
      [
        "us",
        "e "
      ],
      [
        "w",
        "e"
      ],
      [
        "S",
        "p"
      ],
      [
        "s",
        "m"
      ],
      [
        "a",
        "ve "
      ],
      [
        "E",
        "n"
      ],
      [
        "m",
        "in"
      ],
      [
        "h",
        "el"
      ],
      [
        "pe",
        "op"
      ],
      [
        "don",
        "'t "
      ],
      [
        "th",
        "ing "
      ],
      [
        "th",
        "at"
      ],
      [
        "M",
        " "
      ],
      [
        "as",
        "s"
      ],
      [
        "i",
        "es "
      ],
      [
        "ar",
        "t "
      ],
      [
        "it",
        "s "
      ],
      [
        "3",
        "9"
      ],
      [
        "b",
        "er"
      ],
      [
        "foll",
        "ow"
      ],
      [
        "f",
        "un"
      ],
      [
        "@",
        "M"
      ],
      [
        "v",
        "ing "
      ],
      [
        "i",
        "p"
      ],
      [
        "ear",
        " "
      ],
      [
        "d",
        "e"
      ],
      [
        "c",
        "o"
      ],
      [
        "it",
        "'s "
      ],
      [
        "on",
        "g "
      ],
      [
        "W",
        "e "
      ],
      [
        "i",
        "d "
      ],
      [
        "G",
        "re"
      ],
      [
        "wee",
        "k"
      ],
      [
        "e",
        "g"
      ],
      [
        "to ",
        "the "
      ],
      [
        "i",
        "m "
      ],
      [
        "p",
        "re"
      ],
      [
        ". ",
        "I "
      ],
      [
        "d",
        "r"
      ],
      [
        "an",
        "y"
      ],
      [
        "thin",
        "k "
      ],
      [
        "W",
        "or"
      ],
      [
        "wh",
        "o "
      ],
      [
        "as",
        "h"
      ],
      [
        "s",
        "ome"
      ],
      [
        "o",
        "p "
      ],
      [
        "ing",
        "s "
      ],
      [
        "m",
        "u"
      ],
      [
        "J",
        "o"
      ],
      [
        "h",
        "e"
      ],
      [
        "i",
        "on "
      ],
      [
        "i",
        "r "
      ],
      [
        "b",
        "ack "
      ],
      [
        "in",
        "e "
      ],
      [
        "d",
        "er"
      ],
      [
        ".com",
        " "
      ],
      [
        "oun",
        "d "
      ],
      [
        "v",
        "ide"
      ],
      [
        "O",
        "n"
      ],
      [
        "Wh",
        "at "
      ],
      [
        "in",
        "ter"
      ],
      [
        "m",
        "ake "
      ],
      [
        "i",
        "e "
      ],
      [
        "H",
        "ow "
      ],
      [
        "A",
        "r"
      ],
      [
        "oth",
        "er "
      ],
      [
        "8",
        " "
      ],
      [
        "ing ",
        "the "
      ],
      [
        "c",
        "re"
      ],
      [
        "or",
        "e "
      ],
      [
        "is",
        "h"
      ],
      [
        "m",
        "y"
      ],
      [
        "11",
        "-"
      ],
      [
        "Ch",
        "eck "
      ],
      [
        "ol",
        "d "
      ],
      [
        "at ",
        "the "
      ],
      [
        "v",
        "er "
      ],
      [
        "I",
        "f "
      ],
      [
        "f",
        "ri"
      ],
      [
        "P",
        "ro"
      ],
      [
        "l",
        "ol"
      ],
      [
        "ov",
        "er "
      ],
      [
        "1",
        "5"
      ],
      [
        "M",
        "y "
      ],
      [
        "f",
        "l"
      ],
      [
        "l",
        "d"
      ],
      [
        "w",
        "ay "
      ],
      [
        "in",
        "n"
      ],
      [
        "ic",
        "k "
      ],
      [
        "Twitt",
        "er "
      ],
      [
        "m",
        "m"
      ],
      [
        "com",
        "e "
      ],
      [
        "wor",
        "k "
      ],
      [
        "M",
        "on"
      ],
      [
        "f",
        "ir"
      ],
      [
        "ever",
        "y"
      ],
      [
        "b",
        "er "
      ],
      [
        "ac",
        "e "
      ],
      [
        "f",
        "u"
      ],
      [
        "be",
        "en "
      ],
      [
        "w",
        "ant "
      ],
      [
        "-",
        "-"
      ],
      [
        "of",
        "f "
      ],
      [
        "\t2009-",
        "11-"
      ],
      [
        "ark",
        "et"
      ],
      [
        "@",
        "j"
      ],
      [
        "B",
        "e"
      ],
      [
        "a",
        "u"
      ],
      [
        "t",
        "w"
      ],
      [
        "s",
        "el"
      ],
      [
        "A",
        "m"
      ],
      [
        "s ",
        "to "
      ],
      [
        ".",
        "g"
      ],
      [
        "1",
        "0 "
      ],
      [
        "wor",
        "k"
      ],
      [
        "ne",
        "w"
      ],
      [
        "o",
        "g"
      ],
      [
        "B",
        "l"
      ],
      [
        "a ",
        "b"
      ],
      [
        "h",
        "e "
      ],
      [
        "m",
        "us"
      ],
      [
        "es",
        ", "
      ],
      [
        "ha",
        "d "
      ],
      [
        "C",
        "om"
      ],
      [
        "\t",
        "5"
      ],
      [
        "Th",
        "is "
      ],
      [
        "Than",
        "ks "
      ],
      [
        "is",
        "s"
      ],
      [
        "E",
        "x"
      ],
      [
        "or",
        "t "
      ],
      [
        "O",
        "U"
      ],
      [
        "us",
        "in"
      ],
      [
        "|",
        " "
      ],
      [
        "v",
        "ia "
      ],
      [
        "o",
        "to"
      ],
      [
        "c",
        "an"
      ],
      [
        "w",
        "ould "
      ],
      [
        "peop",
        "le "
      ],
      [
        "s",
        "er"
      ],
      [
        "s",
        "/"
      ],
      [
        "S",
        "T"
      ],
      [
        "s",
        "o"
      ],
      [
        ":",
        "3"
      ],
      [
        "on",
        "g"
      ],
      [
        "@",
        "D"
      ],
      [
        "It",
        "'s "
      ],
      [
        "c",
        "r"
      ],
      [
        "ig",
        "n"
      ],
      [
        "com",
        "p"
      ],
      [
        "G",
        " "
      ],
      [
        "en",
        "c"
      ],
      [
        "v",
        "ie"
      ],
      [
        "id",
        "e "
      ],
      [
        "@",
        "d"
      ],
      [
        "ha",
        "pp"
      ],
      [
        "e",
        "! "
      ],
      [
        "h",
        "is "
      ],
      [
        "!!",
        "!"
      ],
      [
        ", ",
        "but "
      ],
      [
        "E",
        "R"
      ],
      [
        "c",
        "ar"
      ],
      [
        ".",
        ". "
      ],
      [
        "P",
        " "
      ],
      [
        "g",
        "e "
      ],
      [
        "1",
        "4"
      ],
      [
        "ak",
        "ing "
      ],
      [
        "I",
        "t "
      ],
      [
        "i",
        "k"
      ],
      [
        "lin",
        "e "
      ],
      [
        "!!",
        "! "
      ],
      [
        "oug",
        "h "
      ],
      [
        "th",
        "er"
      ],
      [
        "ad",
        "e "
      ],
      [
        "id",
        "ay "
      ],
      [
        "s ",
        "and "
      ],
      [
        "Ne",
        "w"
      ],
      [
        "6",
        " "
      ],
      [
        "f",
        "i"
      ],
      [
        "A",
        "L"
      ],
      [
        "ur",
        " "
      ],
      [
        "A",
        "T"
      ],
      [
        "l",
        "ast "
      ],
      [
        "oo",
        "l "
      ],
      [
        "f",
        "e "
      ],
      [
        "A",
        "d"
      ],
      [
        "a",
        "ch"
      ],
      [
        "l",
        "oo"
      ],
      [
        "for ",
        "a "
      ],
      [
        "I",
        "n "
      ],
      [
        "t",
        "om"
      ],
      [
        "am",
        "p"
      ],
      [
        "it",
        "y"
      ],
      [
        "ab",
        "le "
      ],
      [
        "th",
        "an "
      ],
      [
        "sh",
        "ould "
      ],
      [
        "oo",
        "l"
      ],
      [
        "is",
        "t "
      ],
      [
        "fu",
        "l "
      ],
      [
        "p",
        "res"
      ],
      [
        "i",
        "ou"
      ],
      [
        "t",
        "al"
      ],
      [
        "T",
        "o "
      ],
      [
        "F",
        " "
      ],
      [
        "an",
        "y "
      ],
      [
        "p",
        "ost"
      ],
      [
        "re",
        "ally "
      ],
      [
        "st",
        "r"
      ],
      [
        "G",
        "o"
      ],
      [
        "is",
        "h "
      ],
      [
        "s ",
        "of "
      ],
      [
        "u",
        "re"
      ],
      [
        "O",
        "O"
      ],
      [
        "f",
        "ul"
      ],
      [
        "ig",
        " "
      ],
      [
        "d",
        "uc"
      ],
      [
        "w",
        "a"
      ],
      [
        "an",
        "ce "
      ],
      [
        "P",
        "l"
      ],
      [
        "s",
        "k"
      ],
      [
        "e",
        "e "
      ],
      [
        "r",
        "ight "
      ],
      [
        "1",
        "7"
      ],
      [
        "li",
        "st"
      ],
      [
        "tt",
        "er "
      ],
      [
        "n",
        "ing "
      ],
      [
        "L",
        "o"
      ],
      [
        "ti",
        "m"
      ],
      [
        "1",
        "8"
      ],
      [
        "... ",
        "http://bit.ly/"
      ],
      [
        "st",
        "ill "
      ],
      [
        "t",
        "witt"
      ],
      [
        "on",
        "ly "
      ],
      [
        "m",
        "i"
      ],
      [
        "You",
        "r "
      ],
      [
        "c",
        "c"
      ],
      [
        "op",
        "e "
      ],
      [
        "@",
        "S"
      ],
      [
        "il",
        "e "
      ],
      [
        "ac",
        "t"
      ],
      [
        "1",
        "3"
      ],
      [
        ";",
        " "
      ],
      [
        "/",
        " "
      ],
      [
        "in ",
        "a "
      ],
      [
        ", ",
        "and "
      ],
      [
        "M",
        "ar"
      ],
      [
        "il",
        "li"
      ],
      [
        "t",
        "ra"
      ],
      [
        "U",
        "n"
      ],
      [
        "d",
        "er "
      ],
      [
        "00",
        " "
      ],
      [
        "pl",
        "ay"
      ],
      [
        "u",
        "e "
      ],
      [
        "T",
        "o"
      ],
      [
        "i",
        "a"
      ],
      [
        "m",
        "an "
      ],
      [
        "G",
        "r"
      ],
      [
        "ne",
        "x"
      ],
      [
        "ha",
        "ha"
      ],
      [
        "m",
        "ov"
      ],
      [
        "r",
        "y "
      ],
      [
        "an",
        "s "
      ],
      [
        "com",
        "m"
      ],
      [
        "v",
        "e"
      ],
      [
        "F",
        "or "
      ],
      [
        "d",
        "is"
      ],
      [
        "os",
        "e "
      ],
      [
        "j",
        "ob"
      ],
      [
        "m",
        "a"
      ],
      [
        "ver",
        "y "
      ],
      [
        "oc",
        "ial "
      ],
      [
        "W",
        " "
      ],
      [
        "ing ",
        "a "
      ],
      [
        "D",
        "on"
      ],
      [
        "ea",
        "d "
      ],
      [
        "th",
        "ere "
      ],
      [
        "an",
        "s"
      ],
      [
        "et",
        "s "
      ],
      [
        "h",
        "ere "
      ],
      [
        "el",
        "y "
      ],
      [
        "9",
        " "
      ],
      [
        "Th",
        "e"
      ],
      [
        "th",
        "er "
      ],
      [
        "w",
        "r"
      ],
      [
        "w",
        "eb"
      ],
      [
        "con",
        "t"
      ],
      [
        "h",
        "er "
      ],
      [
        "the",
        "ir "
      ],
      [
        ". ",
        "H"
      ],
      [
        "@",
        " "
      ],
      [
        "t",
        "ing "
      ],
      [
        "d",
        "/"
      ],
      [
        "-",
        "- "
      ],
      [
        "mu",
        "ch "
      ],
      [
        "th",
        "r"
      ],
      [
        "An",
        "d "
      ],
      [
        "is ",
        "a "
      ],
      [
        "wi",
        "th"
      ],
      [
        ", ",
        "I "
      ],
      [
        "ri",
        "st"
      ],
      [
        "c",
        "k"
      ],
      [
        "at",
        "'s "
      ],
      [
        "C",
        "ar"
      ],
      [
        "blo",
        "g"
      ],
      [
        "f",
        "ee"
      ],
      [
        "le",
        "ase "
      ],
      [
        "on",
        "e"
      ],
      [
        "f",
        "t "
      ],
      [
        "In",
        "ter"
      ],
      [
        "i",
        "al"
      ],
      [
        "b",
        "le"
      ],
      [
        "5",
        "0"
      ],
      [
        "ch",
        "eck "
      ],
      [
        "sh",
        "ow"
      ],
      [
        "ent",
        "s "
      ],
      [
        "s",
        "! "
      ],
      [
        "tom",
        "orr"
      ],
      [
        "go",
        "ing to "
      ],
      [
        "ac",
        "eb"
      ],
      [
        "wat",
        "ch"
      ],
      [
        ". ",
        "S"
      ],
      [
        "@",
        "J"
      ],
      [
        "h",
        "er"
      ],
      [
        "ad",
        "d"
      ],
      [
        "at",
        "s "
      ],
      [
        "es",
        "e "
      ],
      [
        "C",
        "l"
      ],
      [
        "K",
        " "
      ],
      [
        "ti",
        "me"
      ],
      [
        "p",
        "ar"
      ],
      [
        "@",
        "s"
      ],
      [
        "vide",
        "o "
      ],
      [
        "@",
        "k"
      ],
      [
        "fri",
        "end"
      ],
      [
        "E",
        "S"
      ],
      [
        "a",
        "in "
      ],
      [
        "I",
        "s "
      ],
      [
        "en",
        "ce "
      ],
      [
        "g",
        "ir"
      ],
      [
        "tt",
        "le "
      ],
      [
        "d",
        "es"
      ],
      [
        "E",
        "N"
      ],
      [
        "ev",
        "er "
      ],
      [
        "in",
        "t"
      ],
      [
        "n",
        "ight"
      ],
      [
        "ton",
        "ight"
      ],
      [
        "ing",
        "."
      ],
      [
        "p",
        "o"
      ],
      [
        "A",
        "R"
      ],
      [
        "to",
        "day "
      ],
      [
        "ed",
        "ia "
      ],
      [
        "is ",
        "the "
      ],
      [
        ".g",
        "d/"
      ],
      [
        "to ",
        "be "
      ],
      [
        "nex",
        "t "
      ],
      [
        "2",
        "3"
      ],
      [
        "f",
        "re"
      ],
      [
        "to",
        "o "
      ],
      [
        "oo",
        "g"
      ],
      [
        ":",
        "4"
      ],
      [
        "t",
        "ur"
      ],
      [
        "B",
        "lo"
      ],
      [
        "th",
        "ough"
      ],
      [
        "at",
        "ed "
      ],
      [
        "read",
        "y "
      ],
      [
        "G",
        "ood "
      ],
      [
        "p",
        "s "
      ],
      [
        "2",
        "4"
      ],
      [
        "m",
        "ost "
      ],
      [
        "p",
        "ort"
      ],
      [
        "m",
        "ent "
      ],
      [
        "in",
        "d "
      ],
      [
        "st",
        "or"
      ],
      [
        "ac",
        "c"
      ],
      [
        "ak",
        "es "
      ],
      [
        "U",
        " "
      ],
      [
        "? ",
        " "
      ],
      [
        "a ",
        "c"
      ],
      [
        "p",
        "art"
      ],
      [
        "r",
        "y"
      ],
      [
        "ai",
        "l "
      ],
      [
        "2",
        "5"
      ],
      [
        "fir",
        "st "
      ],
      [
        "at",
        "e"
      ],
      [
        "n",
        "o"
      ],
      [
        "y",
        "ear"
      ],
      [
        "W",
        "i"
      ],
      [
        "L",
        "e"
      ],
      [
        "ing",
        ". "
      ],
      [
        "r",
        "un"
      ],
      [
        "P",
        "r"
      ],
      [
        "ig",
        "g"
      ],
      [
        "m",
        "o"
      ],
      [
        "ec",
        "t"
      ],
      [
        "sh",
        "ow "
      ],
      [
        "n",
        "ight "
      ],
      [
        "di",
        "d "
      ],
      [
        "N",
        "O"
      ],
      [
        "the",
        "m "
      ],
      [
        "f",
        "ree "
      ],
      [
        "ne",
        "t"
      ],
      [
        "0",
        "8"
      ],
      [
        "b",
        "ab"
      ],
      [
        "b",
        "est "
      ],
      [
        "h",
        "ear"
      ],
      [
        "k",
        "now"
      ],
      [
        "can",
        "'t "
      ],
      [
        "t",
        "ake "
      ],
      [
        "t",
        "oo"
      ],
      [
        "z",
        "z"
      ],
      [
        "f",
        "f "
      ],
      [
        "&",
        "#"
      ],
      [
        "b",
        "re"
      ],
      [
        "er",
        "ic"
      ],
      [
        "ne",
        "ed "
      ],
      [
        "ec",
        "t "
      ],
      [
        "s",
        "ch"
      ],
      [
        "w",
        "on"
      ],
      [
        "oo",
        "t"
      ],
      [
        "ee",
        "p "
      ],
      [
        "w",
        "ays "
      ],
      [
        "will ",
        "be "
      ],
      [
        "U",
        "S"
      ],
      [
        "G",
        "et "
      ],
      [
        "%",
        " "
      ],
      [
        "s",
        "ure "
      ],
      [
        "th",
        "en "
      ],
      [
        "or",
        "d"
      ],
      [
        "ig",
        "n "
      ],
      [
        "Q",
        "u"
      ],
      [
        "a",
        "use "
      ],
      [
        "b",
        " "
      ],
      [
        "B",
        " "
      ],
      [
        "oun",
        "d"
      ],
      [
        "ad",
        "i"
      ],
      [
        "b",
        "le "
      ],
      [
        "s",
        "s"
      ],
      [
        "y",
        ", "
      ],
      [
        "as",
        "s "
      ],
      [
        "on",
        "n"
      ],
      [
        "Check ",
        "out "
      ],
      [
        "usin",
        "ess "
      ],
      [
        "'",
        "ll "
      ],
      [
        "m",
        "ar"
      ],
      [
        "A",
        "M"
      ],
      [
        "I",
        "T"
      ],
      [
        "h",
        "ol"
      ],
      [
        "c",
        "ol"
      ],
      [
        "o",
        "k"
      ],
      [
        "uc",
        "k"
      ],
      [
        "T",
        "e"
      ],
      [
        ":",
        "5"
      ],
      [
        "at",
        "ing "
      ],
      [
        "B",
        "o"
      ],
      [
        "to ",
        "get "
      ],
      [
        "W",
        "at"
      ],
      [
        "B",
        "u"
      ],
      [
        "ing",
        ", "
      ],
      [
        "ge",
        "tting "
      ],
      [
        "a ",
        "s"
      ],
      [
        "em",
        "ber "
      ],
      [
        "d",
        "own "
      ],
      [
        "O",
        "M"
      ],
      [
        ". ",
        "#"
      ],
      [
        "g",
        "ood"
      ],
      [
        "&#",
        "39"
      ],
      [
        "I ",
        "am "
      ],
      [
        "W",
        "e"
      ],
      [
        "li",
        "ve "
      ],
      [
        "Than",
        "ks"
      ],
      [
        "O",
        "n "
      ],
      [
        "A",
        "S"
      ],
      [
        "@",
        "c"
      ],
      [
        "h",
        "h"
      ],
      [
        "for",
        "m"
      ],
      [
        "N",
        "E"
      ],
      [
        "2",
        "7"
      ],
      [
        "t",
        "ri"
      ],
      [
        ": ",
        "http://bit.ly/"
      ],
      [
        "F",
        "l"
      ],
      [
        "wh",
        "ere "
      ],
      [
        "??",
        "??"
      ],
      [
        "af",
        "ter "
      ],
      [
        "v",
        "is"
      ],
      [
        "a",
        "a"
      ],
      [
        "s",
        "ay "
      ],
      [
        "s",
        "le"
      ],
      [
        "2",
        "8"
      ],
      [
        "w",
        "ay"
      ],
      [
        "st",
        "u"
      ],
      [
        "Gre",
        "at "
      ],
      [
        "2",
        "9"
      ],
      [
        "2",
        "6"
      ],
      [
        "i",
        "ve "
      ],
      [
        "V",
        " "
      ],
      [
        "p",
        "os"
      ],
      [
        "s",
        "!"
      ],
      [
        "arket",
        "ing "
      ],
      [
        "ou",
        "se "
      ],
      [
        "s",
        "ee"
      ],
      [
        "or",
        "g"
      ],
      [
        "y",
        "s "
      ],
      [
        "twee",
        "t"
      ],
      [
        "ar",
        "y "
      ],
      [
        "st",
        "e"
      ],
      [
        "w",
        "ere "
      ],
      [
        "C",
        "ol"
      ],
      [
        "@",
        "b"
      ],
      [
        "ph",
        "oto"
      ],
      [
        "l",
        "ook "
      ],
      [
        "c",
        "ould "
      ],
      [
        "v",
        "en"
      ],
      [
        "ic",
        "h "
      ],
      [
        "F",
        "or"
      ],
      [
        "I ",
        "have "
      ],
      [
        "C",
        "H"
      ],
      [
        "su",
        "pp"
      ],
      [
        "N",
        "ov"
      ],
      [
        "G",
        "u"
      ],
      [
        "O",
        "R"
      ],
      [
        "m",
        "is"
      ],
      [
        "in",
        "to "
      ],
      [
        "f",
        "am"
      ],
      [
        "s",
        "al"
      ],
      [
        "i",
        "es"
      ],
      [
        "t",
        "y"
      ],
      [
        "oc",
        "k"
      ],
      [
        ".",
        "m"
      ],
      [
        "d",
        "own"
      ],
      [
        "s",
        "y"
      ],
      [
        "i",
        "p "
      ],
      [
        "via ",
        "@"
      ],
      [
        "3",
        "0"
      ],
      [
        "RT",
        " "
      ],
      [
        "with ",
        "the "
      ],
      [
        "e",
        "as"
      ],
      [
        "T",
        "wee"
      ],
      [
        "en",
        "n"
      ],
      [
        "hel",
        "p "
      ],
      [
        "than",
        "ks "
      ],
      [
        "ch",
        "ang"
      ],
      [
        "ex",
        "c"
      ],
      [
        "3",
        "6"
      ],
      [
        "h",
        "ome "
      ],
      [
        "l",
        "at"
      ],
      [
        "M",
        "us"
      ],
      [
        "d",
        "id"
      ],
      [
        "F",
        "oll"
      ],
      [
        "M",
        "ic"
      ],
      [
        "s",
        "a"
      ],
      [
        "s",
        "on "
      ],
      [
        "c",
        " "
      ],
      [
        "an",
        "k"
      ],
      [
        "H",
        "app"
      ],
      [
        "is",
        "e "
      ],
      [
        "N",
        " "
      ],
      [
        "v",
        "es "
      ],
      [
        "@",
        "B"
      ],
      [
        "i",
        "f"
      ],
      [
        "I'",
        "ll "
      ],
      [
        "g",
        "am"
      ],
      [
        "st",
        "art"
      ],
      [
        "@",
        "R"
      ],
      [
        "http://bit.ly/",
        "6"
      ],
      [
        "ne",
        "ver "
      ],
      [
        "re",
        "al"
      ],
      [
        "L",
        "E"
      ],
      [
        "M",
        "ore "
      ],
      [
        "er",
        ", "
      ],
      [
        "be",
        "tter "
      ],
      [
        "a",
        "ir"
      ],
      [
        "ev",
        "en "
      ],
      [
        "th",
        "is"
      ],
      [
        "’",
        "s "
      ],
      [
        "at",
        "es "
      ],
      [
        "g",
        "g"
      ],
      [
        "m",
        "ee"
      ],
      [
        "G",
        "oog"
      ],
      [
        "e",
        "!"
      ],
      [
        "o",
        "ver"
      ],
      [
        "you",
        "'re "
      ],
      [
        "http://bit.ly/",
        "7"
      ],
      [
        "ag",
        "ain"
      ],
      [
        "a ",
        "h"
      ],
      [
        "N",
        "o "
      ],
      [
        "e",
        "f"
      ],
      [
        "at",
        "ur"
      ],
      [
        "m",
        "ent"
      ],
      [
        "s",
        "ur"
      ],
      [
        "http://bit.ly/",
        "8"
      ],
      [
        ":",
        "0"
      ],
      [
        "R",
        "I"
      ],
      [
        "blo",
        "g "
      ],
      [
        "s",
        "ec"
      ],
      [
        "p",
        "u"
      ],
      [
        "if ",
        "you "
      ],
      [
        "sh",
        "e "
      ],
      [
        "http://bit.ly/",
        "5"
      ],
      [
        "wh",
        "y "
      ],
      [
        "g",
        "l"
      ],
      [
        "@",
        "K"
      ],
      [
        "S",
        "o "
      ],
      [
        "th",
        "em"
      ],
      [
        "F",
        "ree "
      ],
      [
        "u",
        "m "
      ],
      [
        "aw",
        "es"
      ],
      [
        "D",
        "o "
      ],
      [
        "F",
        "aceb"
      ],
      [
        "ot",
        "e "
      ],
      [
        "c",
        "ra"
      ],
      [
        "is",
        ".gd/"
      ],
      [
        "tt",
        "y "
      ],
      [
        "le",
        "t "
      ],
      [
        "t",
        "y "
      ],
      [
        " ",
        "http://"
      ],
      [
        "ai",
        "d "
      ],
      [
        "w",
        "in"
      ],
      [
        "s",
        "ite "
      ],
      [
        "&#39",
        ";"
      ],
      [
        "T",
        "u"
      ],
      [
        "to ",
        "see "
      ],
      [
        "ere",
        "'s "
      ],
      [
        "b",
        "el"
      ],
      [
        "re",
        "d "
      ],
      [
        "le",
        "t"
      ],
      [
        "li",
        "fe "
      ],
      [
        "A",
        "pp"
      ],
      [
        "S",
        "un"
      ],
      [
        "com",
        "ing "
      ],
      [
        "h",
        "n"
      ],
      [
        "L",
        "a"
      ],
      [
        "V",
        "ide"
      ],
      [
        ": ",
        "The "
      ],
      [
        ":",
        ") "
      ],
      [
        "t",
        "re"
      ],
      [
        "ed ",
        "by "
      ],
      [
        "O",
        "b"
      ],
      [
        "N",
        "ow "
      ],
      [
        "c",
        "lo"
      ],
      [
        "s ",
        "for "
      ],
      [
        "P",
        "re"
      ],
      [
        "in",
        "v"
      ],
      [
        "p",
        "ers"
      ],
      [
        "L",
        "I"
      ],
      [
        "b",
        "ack"
      ],
      [
        "@",
        "C"
      ],
      [
        "for",
        "e "
      ],
      [
        "r",
        "is"
      ],
      [
        "m",
        "ade "
      ],
      [
        "t",
        "m"
      ],
      [
        "f",
        "av"
      ],
      [
        "fee",
        "l "
      ],
      [
        "fin",
        "d "
      ],
      [
        "s",
        "it"
      ],
      [
        "F",
        "RE"
      ],
      [
        "c",
        "li"
      ],
      [
        "P",
        "ar"
      ],
      [
        "e",
        "w"
      ],
      [
        "@",
        "T"
      ],
      [
        ": ",
        "http://"
      ],
      [
        "Am",
        "eric"
      ],
      [
        "I'",
        "ve "
      ],
      [
        "b",
        "ec"
      ],
      [
        "f",
        "b"
      ],
      [
        "D",
        "i"
      ],
      [
        "from ",
        "the "
      ],
      [
        "R",
        "O"
      ],
      [
        "4",
        "0"
      ],
      [
        "A",
        "C"
      ],
      [
        "G",
        "e"
      ],
      [
        "it",
        "ing "
      ],
      [
        "re",
        "am"
      ],
      [
        "ug",
        "h"
      ],
      [
        "vie",
        "w "
      ],
      [
        "in",
        "c"
      ],
      [
        ". ",
        "B"
      ],
      [
        "b",
        "ro"
      ],
      [
        "h",
        "eal"
      ],
      [
        "lo",
        "l "
      ],
      [
        "k",
        "id"
      ],
      [
        "il",
        "d"
      ],
      [
        "s",
        "l"
      ],
      [
        "y",
        "."
      ],
      [
        "I ",
        "just "
      ],
      [
        "f",
        "il"
      ],
      [
        "ou",
        "ld"
      ],
      [
        "D",
        "A"
      ],
      [
        "N",
        "Y"
      ],
      [
        "o",
        "s "
      ],
      [
        "w",
        "ar"
      ],
      [
        "TH",
        "E "
      ],
      [
        "n",
        "ee"
      ],
      [
        "ed ",
        "the "
      ],
      [
        "go",
        "ing "
      ],
      [
        ": ",
        "S"
      ],
      [
        "in",
        "k"
      ],
      [
        "2009",
        " "
      ],
      [
        "op",
        "p"
      ],
      [
        "loo",
        "king "
      ],
      [
        "T",
        "i"
      ],
      [
        "C",
        "o"
      ],
      [
        "in",
        "e"
      ],
      [
        "es",
        ". "
      ],
      [
        "all",
        "ow"
      ],
      [
        "D",
        "o"
      ],
      [
        "H",
        "ol"
      ],
      [
        "ed ",
        "a "
      ],
      [
        "s ",
        "in "
      ],
      [
        "Wh",
        "y "
      ],
      [
        "tr",
        "y"
      ],
      [
        "O",
        "r"
      ],
      [
        "have ",
        "a "
      ],
      [
        "- ",
        "http://"
      ],
      [
        "Than",
        "k "
      ],
      [
        "tt",
        "er"
      ],
      [
        "h",
        "i"
      ],
      [
        "ne",
        "t "
      ],
      [
        "a",
        "th"
      ],
      [
        "E",
        "E"
      ],
      [
        "li",
        "ttle "
      ],
      [
        "Happ",
        "y "
      ],
      [
        "s ",
        "on "
      ],
      [
        "un",
        "ch"
      ],
      [
        "wor",
        "king "
      ],
      [
        "M",
        "o"
      ],
      [
        ": ",
        "\""
      ],
      [
        "al",
        "ways "
      ],
      [
        "th",
        "ose "
      ],
      [
        "uc",
        "k "
      ],
      [
        "H",
        "A"
      ],
      [
        "4",
        "5"
      ],
      [
        "sel",
        "f "
      ],
      [
        "twitt",
        "er "
      ],
      [
        "Fr",
        "iday "
      ],
      [
        "man",
        "y "
      ],
      [
        "M",
        "i"
      ],
      [
        "3",
        "3"
      ],
      [
        "od",
        "y "
      ],
      [
        "ton",
        "ight "
      ],
      [
        "S",
        "c"
      ],
      [
        "Don",
        "'t "
      ],
      [
        "e",
        "'s "
      ],
      [
        "Th",
        "at "
      ],
      [
        "ne",
        "ed to "
      ],
      [
        "S",
        "E"
      ],
      [
        "y",
        ". "
      ],
      [
        "t",
        "on "
      ],
      [
        "A",
        "b"
      ],
      [
        "s",
        "ol"
      ],
      [
        "es",
        "."
      ],
      [
        "want ",
        "to "
      ],
      [
        "W",
        "eb"
      ],
      [
        "h",
        "ope "
      ],
      [
        "en",
        "er"
      ],
      [
        "tr",
        "y "
      ],
      [
        "D",
        "e"
      ],
      [
        "l",
        "es "
      ],
      [
        "in",
        "f"
      ],
      [
        "ou",
        "p"
      ],
      [
        "-",
        "0"
      ],
      [
        "N",
        "ot "
      ],
      [
        "that",
        "'s "
      ],
      [
        "4",
        "9"
      ],
      [
        "I",
        "C"
      ],
      [
        "re",
        "d"
      ],
      [
        "2",
        "1"
      ],
      [
        "g",
        "ra"
      ],
      [
        "g",
        "ame "
      ],
      [
        "If ",
        "you "
      ],
      [
        "S",
        "ocial "
      ],
      [
        "D",
        "r"
      ],
      [
        "T",
        "ra"
      ],
      [
        "Lo",
        "ve "
      ],
      [
        "ac",
        "e"
      ],
      [
        "J",
        " "
      ],
      [
        "he",
        "ad"
      ],
      [
        "le",
        "as"
      ],
      [
        "er",
        "t"
      ],
      [
        "to",
        "p "
      ],
      [
        "be",
        "ing "
      ],
      [
        "all ",
        "the "
      ],
      [
        "le",
        "ar"
      ],
      [
        "onn",
        "a "
      ],
      [
        "b",
        "ur"
      ],
      [
        "l",
        "l"
      ],
      [
        "H",
        "O"
      ],
      [
        "2",
        "2"
      ],
      [
        "a ",
        "m"
      ],
      [
        "vie",
        "w"
      ],
      [
        "ro",
        "s"
      ],
      [
        "H",
        "ave "
      ],
      [
        "I ",
        "love "
      ],
      [
        "7",
        "9"
      ],
      [
        ":",
        "-"
      ],
      [
        "A",
        "re "
      ],
      [
        "b",
        "oo"
      ],
      [
        "A",
        "c"
      ],
      [
        "pro",
        "duc"
      ],
      [
        "mus",
        "ic "
      ],
      [
        "7",
        "8"
      ],
      [
        "ic",
        "h"
      ],
      [
        "gi",
        "ve "
      ],
      [
        "t ",
        "of "
      ],
      [
        "er",
        "y "
      ],
      [
        "C",
        "an"
      ],
      [
        "id",
        "ay"
      ],
      [
        "6",
        "6"
      ],
      [
        "st",
        "ar"
      ],
      [
        "d",
        "e "
      ],
      [
        "d",
        "ec"
      ],
      [
        "H",
        " "
      ],
      [
        "v",
        "el"
      ],
      [
        "and ",
        "the "
      ],
      [
        "be",
        "fore "
      ],
      [
        "IN",
        "G "
      ],
      [
        "@",
        "L"
      ],
      [
        "ar",
        "g"
      ],
      [
        "Ch",
        "rist"
      ],
      [
        "ver",
        "s"
      ],
      [
        "D",
        "E"
      ],
      [
        "sp",
        "ec"
      ],
      [
        "c",
        "all"
      ],
      [
        "ic",
        "al "
      ],
      [
        "Goog",
        "le "
      ],
      [
        "am",
        "az"
      ],
      [
        "or",
        "s "
      ],
      [
        "w",
        "ell "
      ],
      [
        "an",
        "ts "
      ],
      [
        "on ",
        "my "
      ],
      [
        "e",
        "ff"
      ],
      [
        "f",
        "m"
      ],
      [
        "th",
        "ings "
      ],
      [
        "w",
        "al"
      ],
      [
        "F",
        "F"
      ],
      [
        "wee",
        "k "
      ],
      [
        "ti",
        "l "
      ],
      [
        "gir",
        "l"
      ],
      [
        "il",
        "y "
      ],
      [
        "a ",
        "p"
      ],
      [
        "M",
        "A"
      ],
      [
        "A",
        "t "
      ],
      [
        "n",
        "ot"
      ],
      [
        "b",
        "i"
      ],
      [
        "c",
        "oun"
      ],
      [
        "th",
        "ese "
      ],
      [
        "n",
        "k"
      ],
      [
        "lo",
        "c"
      ],
      [
        "w",
        "ard "
      ],
      [
        "L",
        "A"
      ],
      [
        "V",
        "E "
      ],
      [
        "n",
        "y"
      ],
      [
        "re",
        "ad "
      ],
      [
        "l",
        "ess "
      ],
      [
        "O",
        "p"
      ],
      [
        "k",
        "eep "
      ],
      [
        "or",
        "y "
      ],
      [
        "ser",
        "v"
      ],
      [
        "gi",
        "ving "
      ],
      [
        "ed ",
        "in "
      ],
      [
        "tomorr",
        "ow"
      ],
      [
        "3",
        "5"
      ],
      [
        "P",
        "e"
      ],
      [
        "si",
        "on "
      ],
      [
        "a ",
        "great "
      ],
      [
        "m",
        "p"
      ],
      [
        "Y",
        "OU"
      ],
      [
        "h",
        "om"
      ],
      [
        "h",
        "our"
      ],
      [
        "w",
        "ell"
      ],
      [
        ": ",
        "@"
      ],
      [
        ".",
        "im"
      ],
      [
        "s",
        "on"
      ],
      [
        "am",
        "a "
      ],
      [
        "you",
        "r"
      ],
      [
        "7",
        "5"
      ],
      [
        "D",
        "is"
      ],
      [
        "l",
        "and"
      ],
      [
        "im",
        "p"
      ],
      [
        "as",
        "on"
      ],
      [
        "st",
        "art "
      ],
      [
        "X",
        " "
      ],
      [
        "b",
        "y"
      ],
      [
        "i",
        "l "
      ],
      [
        "sh",
        "ar"
      ],
      [
        "it",
        "."
      ],
      [
        "s ",
        "- "
      ],
      [
        ". ",
        "L"
      ],
      [
        "m",
        "ay "
      ],
      [
        "in",
        "k "
      ],
      [
        "I ",
        "think "
      ],
      [
        "oo",
        "oo"
      ],
      [
        "un",
        "ch "
      ],
      [
        "or",
        "n"
      ],
      [
        "a",
        ", "
      ],
      [
        "l",
        "ong "
      ],
      [
        " @",
        " "
      ],
      [
        "@",
        "p"
      ],
      [
        "v",
        " "
      ],
      [
        "I ",
        "was "
      ],
      [
        "t",
        "s"
      ],
      [
        "A",
        "ll "
      ],
      [
        "as",
        "h "
      ],
      [
        "off",
        "ic"
      ],
      [
        "eb",
        "r"
      ],
      [
        "p",
        "m "
      ],
      [
        "E",
        "R "
      ],
      [
        "qu",
        "est"
      ],
      [
        "I",
        "L"
      ],
      [
        "mus",
        "ic"
      ],
      [
        "y",
        "n"
      ],
      [
        "lo",
        "v"
      ],
      [
        "R",
        "ec"
      ],
      [
        "s",
        "n"
      ],
      [
        "re",
        "m"
      ],
      [
        "Faceb",
        "ook "
      ],
      [
        "w",
        "/ "
      ],
      [
        ".im",
        "/"
      ],
      [
        "4",
        "8"
      ],
      [
        "th",
        "ing"
      ],
      [
        "s ",
        "are "
      ],
      [
        "ou",
        "s "
      ],
      [
        "s",
        "ay"
      ],
      [
        "an",
        "other "
      ],
      [
        "bec",
        "ause "
      ],
      [
        "S",
        "er"
      ],
      [
        "fe",
        "el"
      ],
      [
        "e",
        "-"
      ],
      [
        "do",
        "ing "
      ],
      [
        "Twitt",
        "er"
      ],
      [
        "P",
        "res"
      ],
      [
        "h",
        "igh"
      ],
      [
        "d",
        "ri"
      ],
      [
        "F",
        "in"
      ],
      [
        "R",
        "ep"
      ],
      [
        "do",
        "es "
      ],
      [
        "M",
        "arketing "
      ],
      [
        "re",
        "al "
      ],
      [
        "p",
        "m"
      ],
      [
        "S",
        "al"
      ],
      [
        "r",
        "ight"
      ],
      [
        "foll",
        "ow "
      ],
      [
        "mor",
        "n"
      ],
      [
        "en",
        "g"
      ],
      [
        ">",
        " "
      ],
      [
        "D",
        "es"
      ],
      [
        "R",
        "o"
      ],
      [
        "Wi",
        "th "
      ],
      [
        "w",
        "om"
      ],
      [
        "+",
        " "
      ],
      [
        "en",
        "ti"
      ],
      [
        "pl",
        "ay "
      ],
      [
        "p",
        "er "
      ],
      [
        "-",
        "2"
      ],
      [
        "wat",
        "ch "
      ],
      [
        "c",
        "u"
      ],
      [
        ": ",
        " "
      ],
      [
        "i",
        "Ph"
      ],
      [
        "H",
        "e"
      ],
      [
        "P",
        "lease "
      ],
      [
        "R",
        "es"
      ],
      [
        "on",
        "d"
      ],
      [
        "ol",
        "e "
      ],
      [
        "... ",
        "http://"
      ],
      [
        "M",
        "edia "
      ],
      [
        "–",
        " "
      ],
      [
        "fe",
        "w "
      ],
      [
        "every",
        "one "
      ],
      [
        "ol",
        "d"
      ],
      [
        "er",
        "c"
      ],
      [
        "al",
        "i"
      ],
      [
        "wa",
        "it "
      ],
      [
        "ou",
        "s"
      ],
      [
        ".",
        "\" "
      ],
      [
        "e",
        "en "
      ],
      [
        "M",
        "an"
      ],
      [
        "ed",
        ". "
      ],
      [
        "G",
        "O"
      ],
      [
        "le",
        "c"
      ],
      [
        "this ",
        "week"
      ],
      [
        "of ",
        "my "
      ],
      [
        "ever",
        "y "
      ],
      [
        "in",
        "s "
      ],
      [
        "h",
        "tm"
      ],
      [
        "art",
        "ic"
      ],
      [
        "fav",
        "or"
      ],
      [
        "fun",
        " "
      ],
      [
        "\n",
        " "
      ],
      [
        "in",
        "s"
      ],
      [
        "g",
        "onna "
      ],
      [
        "3",
        "8"
      ],
      [
        "7",
        "7"
      ],
      [
        "y",
        "s"
      ],
      [
        "ai",
        "r "
      ],
      [
        "G",
        "o "
      ],
      [
        "O",
        "f "
      ],
      [
        "f",
        "er"
      ],
      [
        "t",
        ". "
      ],
      [
        "LO",
        "L"
      ],
      [
        "ON",
        " "
      ],
      [
        "U",
        "p"
      ],
      [
        "o",
        "x"
      ],
      [
        "ac",
        "t "
      ],
      [
        "ow",
        "er "
      ],
      [
        "t",
        "ell "
      ],
      [
        "h",
        "im "
      ],
      [
        "D",
        "ay "
      ],
      [
        "tt",
        "a "
      ],
      [
        "in ",
        "S"
      ],
      [
        "some",
        "thing "
      ],
      [
        "p",
        "ost "
      ],
      [
        "F",
        "O"
      ],
      [
        "9",
        "9"
      ],
      [
        "w",
        "/"
      ],
      [
        "m",
        "ed"
      ],
      [
        "it",
        "ed "
      ],
      [
        "B",
        "est "
      ],
      [
        "en",
        "ing "
      ],
      [
        "in ",
        "my "
      ],
      [
        "O",
        "ff"
      ],
      [
        "es ",
        "to "
      ],
      [
        "iou",
        "s "
      ],
      [
        "it",
        ". "
      ],
      [
        "on",
        "line "
      ],
      [
        "a ",
        "f"
      ],
      [
        "y",
        "ea"
      ],
      [
        "! ",
        "#"
      ],
      [
        "W",
        "ee"
      ],
      [
        "m",
        "as "
      ],
      [
        "C",
        "r"
      ],
      [
        "R",
        "ev"
      ],
      [
        "00",
        "0 "
      ],
      [
        "em",
        "p"
      ],
      [
        "I ",
        "w"
      ],
      [
        "ne",
        "c"
      ],
      [
        "un",
        " "
      ],
      [
        "d",
        "el"
      ],
      [
        "N",
        "et"
      ],
      [
        "s",
        "w"
      ],
      [
        "o",
        ", "
      ],
      [
        "ex",
        "p"
      ],
      [
        "6",
        "0"
      ],
      [
        "did",
        "n't "
      ],
      [
        "D",
        "ec"
      ],
      [
        "ur",
        "r"
      ],
      [
        "Thanks ",
        "for the "
      ],
      [
        "'",
        "ve "
      ],
      [
        "e",
        "? "
      ],
      [
        "http://",
        "is.gd/"
      ],
      [
        "as",
        "k"
      ],
      [
        "un",
        "der"
      ],
      [
        "H",
        "ey "
      ],
      [
        "you ",
        "can "
      ],
      [
        "E",
        "v"
      ],
      [
        "c",
        "le"
      ],
      [
        "I ",
        "don't "
      ],
      [
        "er",
        ": "
      ],
      [
        "b",
        "all "
      ],
      [
        "li",
        "k"
      ],
      [
        "FRE",
        "E "
      ],
      [
        "Wh",
        "en "
      ],
      [
        "p",
        "ut "
      ],
      [
        "ti",
        "ve "
      ],
      [
        "mon",
        "ey "
      ],
      [
        "H",
        "eal"
      ],
      [
        "y",
        ": "
      ],
      [
        "4",
        "4"
      ],
      [
        "a",
        "k "
      ],
      [
        "A",
        "P"
      ],
      [
        "I ",
        "can "
      ],
      [
        "wor",
        "ld"
      ],
      [
        "thr",
        "ough "
      ],
      [
        "b",
        "ir"
      ],
      [
        "ti",
        "v"
      ],
      [
        "1",
        "2 "
      ],
      [
        "in",
        "ce "
      ],
      [
        "7",
        "0"
      ],
      [
        "M",
        "ake "
      ],
      [
        "F",
        "ir"
      ],
      [
        "si",
        "on"
      ],
      [
        "C",
        "an "
      ],
      [
        "s ",
        "#"
      ],
      [
        "a ",
        "good "
      ],
      [
        "Th",
        "ey "
      ],
      [
        "have ",
        "to "
      ],
      [
        "do",
        "es"
      ],
      [
        "J",
        "ob"
      ],
      [
        "...",
        ". "
      ],
      [
        "ann",
        "a "
      ],
      [
        "wh",
        "ile "
      ],
      [
        "L",
        "oo"
      ],
      [
        "d",
        "at"
      ],
      [
        "s",
        "? "
      ],
      [
        "gre",
        "at"
      ],
      [
        "On",
        "e "
      ],
      [
        "F",
        "re"
      ],
      [
        "Wh",
        "o "
      ],
      [
        "tw",
        "o "
      ],
      [
        "@",
        "g"
      ],
      [
        "as",
        "on "
      ],
      [
        "it ",
        "was "
      ],
      [
        "a",
        "ch "
      ],
      [
        "Ph",
        "oto"
      ],
      [
        "New",
        "s "
      ],
      [
        "I",
        "G"
      ],
      [
        "twee",
        "t "
      ],
      [
        "T",
        "w"
      ],
      [
        "en",
        "jo"
      ],
      [
        "y",
        "f"
      ],
      [
        "3",
        "0 "
      ],
      [
        "the ",
        "s"
      ],
      [
        "es",
        ": "
      ],
      [
        "O",
        "c"
      ],
      [
        "ar",
        "ound "
      ],
      [
        "F",
        "i"
      ],
      [
        "m",
        "s "
      ],
      [
        "il",
        "d "
      ],
      [
        "gi",
        "v"
      ],
      [
        "s",
        "aid "
      ],
      [
        "m",
        "ag"
      ],
      [
        "c",
        "our"
      ],
      [
        "b",
        "ar"
      ],
      [
        "! ",
        "RT @"
      ],
      [
        "ro",
        "g"
      ],
      [
        "check ",
        "out "
      ],
      [
        "ch",
        "ing "
      ],
      [
        "a",
        "ff"
      ],
      [
        "do ",
        "you "
      ],
      [
        "ing",
        ": "
      ],
      [
        "B",
        "ea"
      ],
      [
        "a",
        "j"
      ],
      [
        "t",
        "."
      ],
      [
        "2",
        "0 "
      ],
      [
        "M",
        "c"
      ],
      [
        "m",
        "en"
      ],
      [
        "6",
        "9"
      ],
      [
        "al",
        "bu"
      ],
      [
        "hel",
        "p"
      ],
      [
        "usin",
        "ess"
      ],
      [
        "(",
        "via @"
      ],
      [
        "it",
        "ion "
      ],
      [
        "U",
        "S "
      ],
      [
        "6",
        "8"
      ],
      [
        "M",
        "y"
      ],
      [
        "P",
        "o"
      ],
      [
        "e",
        "p "
      ],
      [
        "a",
        "h "
      ],
      [
        "ear",
        "ch "
      ],
      [
        "z",
        "y "
      ],
      [
        "ation",
        "al "
      ],
      [
        "d",
        "ing "
      ],
      [
        "Li",
        "st"
      ],
      [
        "Wor",
        "ld "
      ],
      [
        "est",
        "er"
      ],
      [
        "\n",
        "\n"
      ],
      [
        "pre",
        "tty "
      ],
      [
        "H",
        "el"
      ],
      [
        "n",
        "ice "
      ],
      [
        "sh",
        "ip "
      ],
      [
        "le",
        "y "
      ],
      [
        "@",
        "n"
      ],
      [
        "C",
        "re"
      ],
      [
        "An",
        "d"
      ],
      [
        "S",
        "k"
      ],
      [
        "a ",
        "d"
      ],
      [
        "fe",
        "at"
      ],
      [
        "W",
        "ill "
      ],
      [
        "ic",
        "e"
      ],
      [
        "so",
        "on"
      ],
      [
        "to ",
        "h"
      ],
      [
        "c",
        "k "
      ],
      [
        "m",
        "akes "
      ],
      [
        "on",
        "d "
      ],
      [
        "inter",
        "est"
      ],
      [
        "tr",
        "u"
      ],
      [
        "some",
        "one "
      ],
      [
        "p",
        "i"
      ],
      [
        "ha",
        "ving "
      ],
      [
        "ec",
        "k"
      ],
      [
        "wor",
        "d"
      ],
      [
        ":",
        "("
      ],
      [
        "el",
        "ebr"
      ],
      [
        "us",
        "ing "
      ],
      [
        "IN",
        " "
      ],
      [
        "ic",
        "ag"
      ],
      [
        "o",
        "o "
      ],
      [
        "it",
        "e"
      ],
      [
        "C",
        "ome "
      ],
      [
        "n",
        "y "
      ],
      [
        "b",
        "ig "
      ],
      [
        "m",
        "iss"
      ],
      [
        "re",
        "p"
      ],
      [
        "tomorr",
        "ow "
      ],
      [
        "ou",
        "se"
      ],
      [
        "A",
        "u"
      ],
      [
        "! ",
        "http://"
      ],
      [
        "B",
        "re"
      ],
      [
        "h",
        ", "
      ],
      [
        "in",
        "t "
      ],
      [
        "ati",
        "ve "
      ],
      [
        "B",
        "usiness "
      ],
      [
        "ar",
        "e"
      ],
      [
        "Foll",
        "ow"
      ],
      [
        "happ",
        "y "
      ],
      [
        "m",
        "om"
      ],
      [
        "fm",
        "/"
      ],
      [
        "M",
        "ag"
      ],
      [
        "I",
        "S "
      ],
      [
        "m",
        "aking "
      ],
      [
        "Blo",
        "g "
      ],
      [
        "T",
        "V "
      ],
      [
        "E",
        "d"
      ],
      [
        "y",
        "ear "
      ],
      [
        "I",
        "S"
      ],
      [
        "m",
        "ay"
      ],
      [
        "Th",
        "at's "
      ],
      [
        "ic",
        "s "
      ],
      [
        "di",
        "ff"
      ],
      [
        "mis",
        "s "
      ],
      [
        ";",
        ")"
      ],
      [
        "er",
        ". "
      ],
      [
        "wor",
        "ld "
      ],
      [
        "1",
        "5 "
      ],
      [
        "iou",
        "s"
      ],
      [
        " ",
        "- "
      ],
      [
        "c",
        "all "
      ],
      [
        "on ",
        "a "
      ],
      [
        "?",
        "!"
      ],
      [
        "min",
        "ut"
      ],
      [
        "sel",
        "f"
      ],
      [
        "a",
        "x"
      ],
      [
        "@",
        "P"
      ],
      [
        "w",
        "in "
      ],
      [
        "E",
        "ver"
      ],
      [
        "l",
        "nk"
      ],
      [
        ".",
        "htm"
      ],
      [
        "b",
        "ook "
      ],
      [
        "ch",
        "ar"
      ],
      [
        "mor",
        "ning "
      ],
      [
        "H",
        "allow"
      ],
      [
        "T",
        "im"
      ],
      [
        "A",
        "f"
      ],
      [
        "la",
        "d "
      ],
      [
        "@",
        "t"
      ],
      [
        "R",
        "A"
      ],
      [
        "Fr",
        "om "
      ],
      [
        "than",
        "k "
      ],
      [
        "p",
        "ri"
      ],
      [
        "y",
        "ing "
      ],
      [
        "ch",
        "e"
      ],
      [
        "en",
        "s "
      ],
      [
        "6",
        "5"
      ],
      [
        "s",
        "ocial "
      ],
      [
        "oc",
        "k "
      ],
      [
        "pr",
        "om"
      ],
      [
        "b",
        "or"
      ],
      [
        "h",
        "a "
      ],
      [
        "ac",
        "tu"
      ],
      [
        "s",
        "ays "
      ],
      [
        "le",
        "g"
      ],
      [
        "od",
        "e "
      ],
      [
        "s",
        "et "
      ],
      [
        "em",
        "ent "
      ],
      [
        "c",
        "at"
      ],
      [
        "er",
        "n"
      ],
      [
        "um",
        "p"
      ],
      [
        "p",
        "ol"
      ],
      [
        "su",
        "cc"
      ],
      [
        "inn",
        "er "
      ],
      [
        "ac",
        "ks"
      ],
      [
        "op",
        "e"
      ],
      [
        "m",
        "em"
      ],
      [
        "about ",
        "the "
      ],
      [
        "Li",
        "ve "
      ],
      [
        "it",
        "ion"
      ],
      [
        "@",
        "l"
      ],
      [
        "v",
        "i"
      ],
      [
        "fr",
        "om"
      ],
      [
        "it ",
        "is "
      ],
      [
        "ab",
        "le"
      ],
      [
        "follow",
        "ers "
      ],
      [
        "n",
        "i"
      ],
      [
        "B",
        "e "
      ],
      [
        "8",
        "8"
      ],
      [
        "s",
        "ing "
      ],
      [
        "es ",
        "and "
      ],
      [
        "ow",
        "er"
      ],
      [
        "T",
        "on"
      ],
      [
        "f",
        "t"
      ],
      [
        "day",
        "s "
      ],
      [
        "ie",
        "ve "
      ],
      [
        "11",
        " "
      ],
      [
        ".m",
        "s/"
      ],
      [
        "@",
        "A"
      ],
      [
        "st",
        "ud"
      ],
      [
        "out ",
        "of "
      ],
      [
        "gra",
        "ph"
      ],
      [
        "any",
        "one "
      ],
      [
        "1",
        "00"
      ],
      [
        "m",
        "ight "
      ],
      [
        "y",
        "r"
      ],
      [
        "pro",
        "f"
      ],
      [
        "with",
        " @"
      ],
      [
        "C",
        "ent"
      ],
      [
        "i",
        "an "
      ],
      [
        "?",
        "? "
      ],
      [
        "S",
        "m"
      ],
      [
        "c",
        "a"
      ],
      [
        "h",
        "and"
      ],
      [
        "bu",
        "d"
      ],
      [
        "R",
        "ob"
      ],
      [
        "\t",
        "6"
      ],
      [
        "lnk",
        ".ms/"
      ],
      [
        "0",
        "7"
      ],
      [
        "U",
        "N"
      ],
      [
        "S",
        "u"
      ],
      [
        "al",
        "so "
      ],
      [
        "v",
        "o"
      ],
      [
        "ph",
        "one "
      ],
      [
        "F",
        "e"
      ],
      [
        "S",
        "ch"
      ],
      [
        "r",
        "r"
      ],
      [
        "ly",
        ", "
      ],
      [
        "Com",
        "p"
      ],
      [
        "you ",
        "are "
      ],
      [
        "M",
        "e"
      ],
      [
        "..",
        "..."
      ],
      [
        "su",
        "b"
      ],
      [
        "H",
        "ar"
      ],
      [
        "un",
        "til "
      ],
      [
        "V",
        "I"
      ],
      [
        "ed",
        "."
      ],
      [
        "en",
        "ing to "
      ],
      [
        "li",
        "fe"
      ],
      [
        "i",
        "'"
      ],
      [
        "d",
        "am"
      ],
      [
        "en",
        "e"
      ],
      [
        "way ",
        "to "
      ],
      [
        "s",
        "ide "
      ],
      [
        "St",
        "e"
      ],
      [
        "th",
        "ere"
      ],
      [
        ". ",
        "http://"
      ],
      [
        "s",
        "id"
      ],
      [
        "c",
        "are "
      ],
      [
        "wh",
        "ich "
      ],
      [
        "b",
        "usiness "
      ],
      [
        "oun",
        "ds "
      ],
      [
        "m",
        "edia "
      ],
      [
        "11",
        "/"
      ],
      [
        "An",
        "y"
      ],
      [
        "ag",
        "e"
      ],
      [
        "N",
        "o"
      ],
      [
        "ex",
        "per"
      ],
      [
        "\t2009-",
        "10"
      ],
      [
        "n",
        "am"
      ],
      [
        "ev",
        "el"
      ],
      [
        "or",
        "ts "
      ],
      [
        "st",
        "op "
      ],
      [
        "ub",
        " "
      ],
      [
        "H",
        "ome "
      ],
      [
        "al",
        "e "
      ],
      [
        "loo",
        "ks "
      ],
      [
        "s",
        "ong"
      ],
      [
        "m",
        "ust "
      ],
      [
        "a ",
        "lo"
      ],
      [
        "out ",
        "to "
      ],
      [
        "v",
        "il"
      ],
      [
        "3",
        "4"
      ],
      [
        "s",
        "ign"
      ],
      [
        "day",
        ", "
      ],
      [
        "y",
        "l"
      ],
      [
        ". ",
        "The "
      ],
      [
        "T",
        "O"
      ],
      [
        "b",
        "ad "
      ],
      [
        "@",
        "h"
      ],
      [
        "T",
        "op "
      ],
      [
        "d",
        "et"
      ],
      [
        "right ",
        "now"
      ],
      [
        "T",
        "W"
      ],
      [
        "twitt",
        "er"
      ],
      [
        "B",
        "E"
      ],
      [
        "le",
        "ad"
      ],
      [
        "h",
        "ome"
      ],
      [
        "us",
        "h"
      ],
      [
        "ak",
        "e"
      ],
      [
        "part",
        "y "
      ],
      [
        "5",
        "5"
      ],
      [
        "b",
        "et"
      ],
      [
        "ic",
        "t"
      ],
      [
        "i",
        "ate "
      ],
      [
        "I",
        "M"
      ],
      [
        "O",
        "h "
      ],
      [
        "S",
        "ou"
      ],
      [
        "r",
        "u"
      ],
      [
        "aw",
        "ay "
      ],
      [
        ". ",
        "W"
      ],
      [
        "ed",
        ", "
      ],
      [
        "in",
        "st"
      ],
      [
        "tal",
        "k "
      ],
      [
        "H",
        "E"
      ],
      [
        "! ",
        "I "
      ],
      [
        "for",
        "ward "
      ],
      [
        "09",
        " "
      ],
      [
        "with ",
        "a "
      ],
      [
        "S",
        "ec"
      ],
      [
        "d",
        "eal"
      ],
      [
        "Ti",
        "me "
      ],
      [
        "! ",
        "http://bit.ly/"
      ],
      [
        "am",
        "a"
      ],
      [
        "8",
        "0"
      ],
      [
        "u",
        "al "
      ],
      [
        "en",
        "i"
      ],
      [
        "C",
        "O"
      ],
      [
        "M",
        "ay"
      ],
      [
        "st",
        "er"
      ],
      [
        "watch",
        "ing "
      ],
      [
        "d",
        "one "
      ],
      [
        "D",
        "ay"
      ],
      [
        "o",
        ": "
      ],
      [
        "S",
        "atur"
      ],
      [
        "P",
        "er"
      ],
      [
        "On",
        "line "
      ],
      [
        "ad",
        "y "
      ],
      [
        "ation",
        "s "
      ],
      [
        "A",
        "w"
      ],
      [
        "B",
        "ar"
      ],
      [
        "P",
        "art"
      ],
      [
        "are ",
        "you "
      ],
      [
        "ud",
        "e "
      ],
      [
        "*",
        "*"
      ],
      [
        "y",
        "et"
      ],
      [
        "pers",
        "on"
      ],
      [
        "on",
        "es "
      ],
      [
        "end",
        "ing "
      ],
      [
        "o",
        "h "
      ],
      [
        "ed ",
        "for "
      ],
      [
        "ee",
        "p"
      ],
      [
        "v",
        "id"
      ],
      [
        "ent",
        "ly "
      ],
      [
        "i",
        "i"
      ],
      [
        "er",
        "g"
      ],
      [
        "Vide",
        "o "
      ],
      [
        "3",
        "7"
      ],
      [
        "iPh",
        "one "
      ],
      [
        "=",
        " "
      ],
      [
        "@",
        "N"
      ],
      [
        "in",
        "a "
      ],
      [
        "S",
        "e"
      ],
      [
        "sa",
        "w "
      ],
      [
        "C",
        "oun"
      ],
      [
        "g",
        "h"
      ],
      [
        "h",
        "ere"
      ],
      [
        "gir",
        "l "
      ],
      [
        "gr",
        "at"
      ],
      [
        "&#39;",
        "s "
      ],
      [
        "qu",
        "e "
      ],
      [
        "does",
        "n't "
      ],
      [
        "@",
        "r"
      ],
      [
        "ne",
        "y "
      ],
      [
        "fri",
        "end "
      ],
      [
        ", ",
        "the "
      ],
      [
        "Z",
        " "
      ],
      [
        "b",
        "as"
      ],
      [
        "I",
        "ts "
      ],
      [
        "E",
        "m"
      ],
      [
        "Ever",
        "y"
      ],
      [
        "us",
        "/"
      ],
      [
        "y",
        "y"
      ],
      [
        "orr",
        "y "
      ],
      [
        "9",
        "0"
      ],
      [
        "W",
        "ar"
      ],
      [
        "h",
        "ouse "
      ],
      [
        "than",
        "ks"
      ],
      [
        "though",
        "t "
      ],
      [
        "co",
        "ver"
      ],
      [
        "g",
        "ets "
      ],
      [
        "h",
        "ate "
      ],
      [
        "y",
        "p"
      ],
      [
        "Ch",
        "ar"
      ],
      [
        "V",
        "eg"
      ],
      [
        "n",
        "oth"
      ],
      [
        "s",
        "ing"
      ],
      [
        "2",
        "n"
      ],
      [
        "al",
        "s "
      ],
      [
        "a",
        "ul"
      ],
      [
        "f",
        "ound "
      ],
      [
        "H",
        "H"
      ],
      [
        "rec",
        "t"
      ],
      [
        "don",
        "t "
      ],
      [
        "ar",
        "i"
      ],
      [
        "D",
        "id "
      ],
      [
        "o",
        "to "
      ],
      [
        "lo",
        "y"
      ],
      [
        "lo",
        "ad"
      ],
      [
        "gu",
        "ys "
      ],
      [
        "su",
        "."
      ],
      [
        "favor",
        "ite "
      ],
      [
        "c",
        "ool "
      ],
      [
        "st",
        "re"
      ],
      [
        "st",
        "er "
      ],
      [
        "IN",
        "G"
      ],
      [
        "be",
        "au"
      ],
      [
        "illi",
        "on "
      ],
      [
        "t",
        "c"
      ],
      [
        "A",
        "T "
      ],
      [
        "? ",
        "http://"
      ],
      [
        "re",
        "l"
      ],
      [
        ": ",
        "RT @"
      ],
      [
        "1",
        "00 "
      ],
      [
        "G",
        "ir"
      ],
      [
        "t",
        "ick"
      ],
      [
        "sp",
        "ir"
      ],
      [
        "D",
        "I"
      ],
      [
        "L",
        "A "
      ],
      [
        "p",
        "lease "
      ],
      [
        "se",
        "en "
      ],
      [
        "h",
        "un"
      ],
      [
        "adi",
        "o "
      ],
      [
        "ing",
        "! "
      ],
      [
        "pl",
        "an"
      ],
      [
        "pr",
        "/"
      ],
      [
        "yf",
        "rog"
      ],
      [
        "er",
        "t "
      ],
      [
        "it",
        "ch"
      ],
      [
        "Con",
        "t"
      ],
      [
        "N",
        "or"
      ],
      [
        "su.",
        "pr/"
      ],
      [
        "@",
        "ch"
      ],
      [
        "l",
        "es"
      ],
      [
        "i'",
        "m "
      ],
      [
        "s",
        "wee"
      ],
      [
        "Bl",
        "ack "
      ],
      [
        "S",
        "an "
      ],
      [
        "li",
        "m"
      ],
      [
        "c",
        "ool"
      ],
      [
        "tim",
        "es "
      ],
      [
        "sle",
        "ep"
      ],
      [
        "pl",
        "ace "
      ],
      [
        "Mus",
        "ic "
      ],
      [
        "b",
        "ody "
      ],
      [
        "y",
        "m"
      ],
      [
        "am",
        "m"
      ],
      [
        "an",
        "k "
      ],
      [
        "n",
        "l"
      ],
      [
        "s",
        "ha"
      ],
      [
        "of ",
        "a "
      ],
      [
        "G",
        "E"
      ],
      [
        "F",
        "un"
      ],
      [
        "O",
        "ur "
      ],
      [
        "er",
        "."
      ],
      [
        "mon",
        "th"
      ],
      [
        "]",
        " "
      ],
      [
        "ol",
        "og"
      ],
      [
        "d",
        "j"
      ],
      [
        "ur",
        "s"
      ],
      [
        "yfrog",
        ".com/"
      ],
      [
        "h",
        "al"
      ],
      [
        "happ",
        "en"
      ],
      [
        "A",
        "A"
      ],
      [
        "p:",
        " "
      ],
      [
        "a ",
        "#"
      ],
      [
        "ag",
        " "
      ],
      [
        "R",
        "eal"
      ],
      [
        "ra",
        "in"
      ],
      [
        "re",
        "sp"
      ],
      [
        "or",
        "d "
      ],
      [
        "C",
        "E"
      ],
      [
        "W",
        "al"
      ],
      [
        ":3",
        "0"
      ],
      [
        "1",
        "3 "
      ],
      [
        "go ",
        "to "
      ],
      [
        "ad",
        "v"
      ],
      [
        "up",
        "d"
      ],
      [
        "B",
        "ro"
      ],
      [
        "n",
        "t "
      ],
      [
        "!!!!",
        "!!!!"
      ],
      [
        "H",
        "a"
      ],
      [
        "v",
        "el "
      ],
      [
        "re",
        "st"
      ],
      [
        "Com",
        "m"
      ],
      [
        "@",
        "The"
      ],
      [
        "C",
        "or"
      ],
      [
        "igh",
        "ts "
      ],
      [
        "20",
        "10 "
      ],
      [
        "M",
        "ed"
      ],
      [
        "D",
        "av"
      ],
      [
        "ti",
        "ful "
      ],
      [
        "chang",
        "e "
      ],
      [
        "@",
        "G"
      ],
      [
        "St",
        "ar"
      ],
      [
        "F",
        "ri"
      ],
      [
        "n",
        "ess "
      ],
      [
        "Fr",
        "iday"
      ],
      [
        "h",
        "n "
      ],
      [
        "awes",
        "ome "
      ],
      [
        ".g",
        "s/"
      ],
      [
        "P",
        "ost"
      ],
      [
        "wh",
        "at"
      ],
      [
        "T",
        "O "
      ],
      [
        "s",
        "end "
      ],
      [
        "it",
        "!"
      ],
      [
        "Inter",
        "net "
      ],
      [
        "u",
        "/"
      ],
      [
        "!!",
        "!! "
      ],
      [
        "P",
        "O"
      ],
      [
        "sh",
        "ort"
      ],
      [
        ".",
        "S"
      ],
      [
        "con",
        "c"
      ],
      [
        "How ",
        "to "
      ],
      [
        "m",
        "as"
      ],
      [
        "g",
        "et"
      ],
      [
        "in",
        "' "
      ],
      [
        "to ",
        "do "
      ],
      [
        "ould",
        "n't "
      ],
      [
        "t",
        "l"
      ],
      [
        "it",
        ", "
      ],
      [
        "bu",
        "y "
      ],
      [
        "Social ",
        "Media "
      ],
      [
        "pro",
        "ble"
      ],
      [
        "L",
        "ov"
      ],
      [
        "actu",
        "ally "
      ],
      [
        "em",
        "ail "
      ],
      [
        "Y",
        "ea"
      ],
      [
        "s",
        "oc"
      ],
      [
        "d",
        "ro"
      ],
      [
        "oo",
        "t "
      ],
      [
        "Th",
        "ere "
      ],
      [
        "pu",
        "bl"
      ],
      [
        "ow",
        "s "
      ],
      [
        "peop",
        "le"
      ],
      [
        "Can",
        "'t "
      ],
      [
        "diff",
        "er"
      ],
      [
        "ex",
        "t "
      ],
      [
        "v",
        "al"
      ],
      [
        "B",
        "ig "
      ],
      [
        "T",
        "al"
      ],
      [
        "U",
        "R"
      ],
      [
        "al",
        "ready "
      ],
      [
        "1",
        "st "
      ],
      [
        "av",
        "ail"
      ],
      [
        ",",
        "000 "
      ],
      [
        "um",
        "m"
      ],
      [
        "5",
        "9"
      ],
      [
        "http://t",
        "w"
      ],
      [
        "Ch",
        "icag"
      ],
      [
        "with",
        "out "
      ],
      [
        "Ob",
        "ama "
      ],
      [
        "C",
        "A"
      ],
      [
        "it",
        "al "
      ],
      [
        "try",
        "ing to "
      ],
      [
        "url",
        "."
      ],
      [
        "T",
        "ip"
      ],
      [
        "bel",
        "ieve "
      ],
      [
        "quest",
        "ion"
      ],
      [
        "R",
        "em"
      ],
      [
        "B",
        "ut "
      ],
      [
        "t",
        "op"
      ],
      [
        "ough",
        "t "
      ],
      [
        "Te",
        "ch"
      ],
      [
        "T",
        "E"
      ],
      [
        "s",
        "..."
      ],
      [
        "it ",
        "out"
      ],
      [
        "with ",
        "my "
      ],
      [
        "l",
        "ist "
      ],
      [
        "ea",
        "ch "
      ],
      [
        "You",
        "Tu"
      ],
      [
        "i",
        "tt"
      ],
      [
        "ess",
        "ion"
      ],
      [
        "\t2009-11-",
        "0"
      ],
      [
        "x",
        "x"
      ],
      [
        "Pl",
        "ay"
      ],
      [
        "h",
        "it "
      ],
      [
        "ro",
        "ck"
      ],
      [
        "k",
        "ey"
      ],
      [
        "an",
        "g "
      ],
      [
        "h",
        "ard "
      ],
      [
        "z",
        "e "
      ],
      [
        "ing",
        "!"
      ],
      [
        "thin",
        "k"
      ],
      [
        "oun",
        "c"
      ],
      [
        "z",
        "y"
      ],
      [
        "tur",
        "n"
      ],
      [
        "6",
        "7"
      ],
      [
        "p",
        "/"
      ],
      [
        "h",
        "im"
      ],
      [
        "T",
        "ri"
      ],
      [
        "Ar",
        "t"
      ],
      [
        "ear",
        "n "
      ],
      [
        "s",
        "ince "
      ],
      [
        "St",
        "r"
      ],
      [
        "ar",
        "y"
      ],
      [
        "a ",
        "new "
      ],
      [
        "A",
        "g"
      ],
      [
        ":-",
        ")"
      ],
      [
        "*",
        " "
      ],
      [
        "re",
        "t"
      ],
      [
        "Twee",
        "t"
      ],
      [
        "f",
        "oot"
      ],
      [
        "Pe",
        "op"
      ],
      [
        "you",
        "tu"
      ],
      [
        "I",
        "m"
      ],
      [
        "v",
        "ot"
      ],
      [
        "en",
        "s"
      ],
      [
        "y",
        "a "
      ],
      [
        "ed ",
        "on "
      ],
      [
        "for ",
        "your "
      ],
      [
        "E",
        "ar"
      ],
      [
        "”",
        " "
      ],
      [
        "sh",
        " "
      ],
      [
        "Loo",
        "king "
      ],
      [
        "el",
        "s "
      ],
      [
        "ear",
        "ly "
      ],
      [
        "job",
        " "
      ],
      [
        "R",
        "i"
      ],
      [
        "what ",
        "you "
      ],
      [
        "the",
        "y"
      ],
      [
        "play",
        "ing "
      ],
      [
        "e",
        "i"
      ],
      [
        "s",
        "?"
      ],
      [
        "ir",
        "e "
      ],
      [
        "te",
        "ch"
      ],
      [
        "Foll",
        "ow "
      ],
      [
        "m",
        "ess"
      ],
      [
        "n",
        "ame "
      ],
      [
        "Mic",
        "ha"
      ],
      [
        "our",
        "c"
      ],
      [
        "G",
        "ot "
      ],
      [
        "b",
        "b"
      ],
      [
        "me",
        "/"
      ],
      [
        ".. http://bit.ly/",
        "3"
      ],
      [
        "This ",
        "is "
      ],
      [
        "W",
        "A"
      ],
      [
        "b",
        "ook"
      ],
      [
        "c",
        "or"
      ],
      [
        "Ch",
        "r"
      ],
      [
        "Fir",
        "st "
      ],
      [
        "uc",
        "c"
      ],
      [
        "J",
        "u"
      ],
      [
        "n",
        "n"
      ],
      [
        "Thank ",
        "you "
      ],
      [
        "c",
        "am"
      ],
      [
        "m",
        "od"
      ],
      [
        "pro",
        "j"
      ],
[...]
