{
  "version": "1.0",
  "truncation": null,
  "padding": null,
  "added_tokens": [
    {
      "id": 0,
      "content": "<SOS>",
      "single_word": false,
      "lstrip": false,
      "rstrip": false,
      "normalized": false,
      "special": true
    },
    {
      "id": 1,
      "content": "<PAD>",
      "single_word": false,
      "lstrip": false,
      "rstrip": false,
      "normalized": false,
      "special": true
    },
    {
      "id": 2,
      "content": "<EOS>",
      "single_word": false,
      "lstrip": false,
      "rstrip": false,
      "normalized": false,
      "special": true
    }
  ],
  "normalizer": null,
  "pre_tokenizer": null,
  "post_processor": null,
  "decoder": null,
  "model": {
    "type": "BPE",
    "dropout": null,
    "unk_token": null,
    "continuing_subword_prefix": null,
    "end_of_word_suffix": null,
    "fuse_unk": false,
    "byte_fallback": false,
    "ignore_merges": false,
    "vocab": {
      "<SOS>": 0,
      "<PAD>": 1,
      "<EOS>": 2,
      "\t": 3,
      "\n": 4,
      " ": 5,
      "!": 6,
      "\"": 7,
      "#": 8,
      "$": 9,
      "%": 10,
      "&": 11,
      "'": 12,
      "(": 13,
      ")": 14,
      "*": 15,
      "+": 16,
      ",": 17,
      "-": 18,
      ".": 19,
      "/": 20,
      "0": 21,
      "1": 22,
      "2": 23,
      "3": 24,
      "4": 25,
      "5": 26,
      "6": 27,
      "7": 28,
      "8": 29,
      "9": 30,
      ":": 31,
      ";": 32,
      "<": 33,
      "=": 34,
      ">": 35,
      "?": 36,
      "@": 37,
      "A": 38,
      "B": 39,
      "C": 40,
      "D": 41,
      "E": 42,
      "F": 43,
      "G": 44,
      "H": 45,
      "I": 46,
      "J": 47,
      "K": 48,
      "L": 49,
      "M": 50,
      "N": 51,
      "O": 52,
      "P": 53,
      "Q": 54,
      "R": 55,
      "S": 56,
      "T": 57,
      "U": 58,
      "V": 59,
      "W": 60,
      "X": 61,
      "Y": 62,
      "Z": 63,
      "[": 64,
      "\\": 65,
      "]": 66,
      "^": 67,
      "_": 68,
      "`": 69,
      "a": 70,
      "b": 71,
      "c": 72,
      "d": 73,
      "e": 74,
      "f": 75,
      "g": 76,
      "h": 77,
      "i": 78,
      "j": 79,
      "k": 80,
      "l": 81,
      "m": 82,
      "n": 83,
      "o": 84,
      "p": 85,
      "q": 86,
      "r": 87,
      "s": 88,
      "t": 89,
      "u": 90,
      "v": 91,
      "w": 92,
      "x": 93,
      "y": 94,
      "z": 95,
      "{": 96,
      "|": 97,
      "}": 98,
      "~": 99,
      "": 100,
      "": 101,
      " ": 102,
      "¡": 103,
      "¢": 104,
      "£": 105,
      "¤": 106,
      "¥": 107,
      "¦": 108,
      "§": 109,
      "¨": 110,
      "©": 111,
      "ª": 112,
      "«": 113,
      "¬": 114,
      "­": 115,
      "®": 116,
      "¯": 117,
      "°": 118,
      "±": 119,
      "²": 120,
      "³": 121,
      "´": 122,
      "µ": 123,
      "¶": 124,
      "·": 125,
      "¸": 126,
      "¹": 127,
      "º": 128,
      "»": 129,
      "¼": 130,
      "½": 131,
      "¾": 132,
      "¿": 133,
      "À": 134,
      "Á": 135,
      "Â": 136,
      "Ã": 137,
      "Ä": 138,
      "Å": 139,
      "Æ": 140,
      "Ç": 141,
      "È": 142,
      "É": 143,
      "Ê": 144,
      "Ë": 145,
      "Ì": 146,
      "Í": 147,
      "Î": 148,
      "Ð": 149,
      "Ñ": 150,
      "Ò": 151,
      "Ó": 152,
      "Ô": 153,
      "Õ": 154,
      "Ö": 155,
      "×": 156,
      "Ø": 157,
      "Ú": 158,
      "Ü": 159,
      "Ý": 160,
      "Þ": 161,
      "ß": 162,
      "à": 163,
      "á": 164,
      "â": 165,
      "ã": 166,
      "ä": 167,
      "å": 168,
      "æ": 169,
      "ç": 170,
      "è": 171,
      "é": 172,
      "ê": 173,
      "ë": 174,
      "ì": 175,
      "í": 176,
      "î": 177,
      "ï": 178,
      "ð": 179,
      "ñ": 180,
      "ò": 181,
      "ó": 182,
      "ô": 183,
      "õ": 184,
      "ö": 185,
      "÷": 186,
      "ø": 187,
      "ù": 188,
      "ú": 189,
      "û": 190,
      "ü": 191,
      "ý": 192,
      "þ": 193,
      "ÿ": 194,
      "œ": 195,
      "Š": 196,
      "š": 197,
      "Ÿ": 198,
      "Ž": 199,
      "ž": 200,
      "ƒ": 201,
      "ˆ": 202,
      "˜": 203,
      "–": 204,
      "—": 205,
      "‘": 206,
      "’": 207,
      "‚": 208,
      "“": 209,
      "”": 210,
      "„": 211,
      "†": 212,
      "‡": 213,
      "•": 214,
      "…": 215,
      "‰": 216,
      "‹": 217,
      "›": 218,
      "€": 219,
      "™": 220,
      "e ": 221,
      "s ": 222,
      "t ": 223,
      "in": 224,
      "th": 225,
      "er": 226,
      "an": 227,
      "on": 228,
      "d ": 229,
      "y ": 230,
      "ou": 231,
      "or": 232,
      "o ": 233,
      "tt": 234,
      "ing": 235,
      ". ": 236,
      "it": 237,
      "ar": 238,
      "en": 239,
      "p:": 240,
      "//": 241,
      "htt": 242,
      "p://": 243,
      "http://": 244,
      "al": 245,
      "om": 246,
      "ing ": 247,
      "re": 248,
      "a ": 249,
      "the ": 250,
      "st": 251,
      ", ": 252,
      "at": 253,
      "to ": 254,
      "ly": 255,
      "..": 256,
      "ow": 257,
      "ic": 258,
      "l ": 259,
      "er ": 260,
      "ly/": 261,
      ".ly/": 262,
      ": ": 263,
      "es": 264,
      "on ": 265,
      "http://b": 266,
      "f ": 267,
      "it.ly/": 268,
      "http://bit.ly/": 269,
      "at ": 270,
      "oo": 271,
      "ch": 272,
      "is ": 273,
      "or ": 274,
      "you": 275,
      "in ": 276,
      "k ": 277,
      "il": 278,
      "el": 279,
      "! ": 280,
      "com": 281,
      "ed ": 282,
      "am": 283,
      "I ": 284,
      "and ": 285,
      "as": 286,
      "is": 287,
      "us": 288,
      "es ": 289,
      "ol": 290,
      "ur": 291,
      "ac": 292,
      "ig": 293,
      "for ": 294,
      "of ": 295,
      "Th": 296,
      " @": 297,
      "ve ": 298,
      "ha": 299,
      "ee": 300,
      "ay": 301,
      "le": 302,
      ".com": 303,
      "an ": 304,
      "li": 305,
      "r ": 306,
      "ad": 307,
      "id": 308,
      "- ": 309,
      "p ": 310,
      "ti": 311,
      "ne": 312,
      "you ": 313,
      "lo": 314,
      "ay ": 315,
      "wi": 316,
      "un": 317,
      "'s ": 318,
      "ow ": 319,
      "ro": 320,
      "RT": 321,
      "en ": 322,
      "ec": 323,
      "m ": 324,
      "th ": 325,
      "sh": 326,
      "wh": 327,
      ".com/": 328,
      "!!": 329,
      "it ": 330,
      "igh": 331,
      "ab": 332,
      "et": 333,
      "ag": 334,
      "al ": 335,
      "out ": 336,
      "RT @": 337,
      "ak": 338,
      "ri": 339,
      "n ": 340,
      "? ": 341,
      "ed": 342,
      "w ": 343,
      "my ": 344,
      "as ": 345,
      "ly ": 346,
      "00": 347,
      "ww": 348,
      "ir": 349,
      "op": 350,
      "le ": 351,
      "be": 352,
      "ver": 353,
      "to": 354,
      "em": 355,
      "et ": 356,
      "ot ": 357,
      "...": 358,
      "... ": 359,
      "ap": 360,
      "ent": 361,
      "bu": 362,
      "me ": 363,
      "http://t": 364,
      "ear": 365,
      "i ": 366,
      "h ": 367,
      "with ": 368,
      "os": 369,
      "are ": 370,
      "be ": 371,
      "The ": 372,
      "ust ": 373,
      "that ": 374,
      "tr": 375,
      "wor": 376,
      "ati": 377,
      "ff": 378,
      "Ch": 379,
      "your ": 380,
      "all ": 381,
      "se": 382,
      "fr": 383,
      "om ": 384,
      "'t ": 385,
      "ill ": 386,
      "ch ": 387,
      "wee": 388,
      "one ": 389,
      "this ": 390,
      "the": 391,
      "im": 392,
      "ot": 393,
      "su": 394,
      "g ": 395,
      "\" ": 396,
      "day": 397,
      "ev": 398,
      "sp": 399,
      "ea": 400,
      "oun": 401,
      "I'": 402,
      "eb": 403,
      "and": 404,
      "ks ": 405,
      "St": 406,
      "oc": 407,
      "Wh": 408,
      "have ": 409,
      "ers ": 410,
      "pl": 411,
      "ov": 412,
      ".  ": 413,
      "ts ": 414,
      "ight ": 415,
      "est": 416,
      "ex": 417,
      "ent ": 418,
      "E ": 419,
      "di": 420,
      "ul": 421,
      "A ": 422,
      "ld ": 423,
      "ra": 424,
      "day ": 425,
      "ome ": 426,
      "0 ": 427,
      "ere ": 428,
      "ke ": 429,
      "& ": 430,
      "200": 431,
      "url": 432,
      "Ne": 433,
      ".. ": 434,
      "You": 435,
      "for": 436,
      "me": 437,
      "uc": 438,
      "pp": 439,
      "all": 440,
      ") ": 441,
      "ood ": 442,
      "ter": 443,
      "ate ": 444,
      "av": 445,
      "w.": 446,
      "qu": 447,
      "ie": 448,
      "mor": 449,
      "oll": 450,
      "end": 451,
      "11": 452,
      "from ": 453,
      "art": 454,
      "up ": 455,
      "get ": 456,
      "est ": 457,
      "www.": 458,
      "2 ": 459,
      "just ": 460,
      "2009": 461,
      "iny": 462,
      "um": 463,
      "now ": 464,
      "url.com/": 465,
      "gr": 466,
      "pro": 467,
      "go": 468,
      "con": 469,
      "ic ": 470,
      "king ": 471,
      "S ": 472,
      "http://bit.ly/1": 473,
      "so ": 474,
      "ob": 475,
      "ake ": 476,
      "ight": 477,
      "http://tiny": 478,
      "res": 479,
      "An": 480,
      "In": 481,
      "ess": 482,
      "ut": 483,
      "ould ": 484,
      "was ": 485,
      "??": 486,
      "ers": 487,
      "ce ": 488,
      "http://tinyurl.com/": 489,
      "do": 490,
      "but ": 491,
      "up": 492,
      "u ": 493,
      "am ": 494,
      "I'm ": 495,
      "od": 496,
      "not ": 497,
      "T ": 498,
      "by ": 499,
      "about ": 500,
      "e. ": 501,
      "like ": 502,
      "lin": 503,
      "ph": 504,
      "tter ": 505,
      "e, ": 506,
      "ia ": 507,
      "new ": 508,
      "ing to ": 509,
      "iv": 510,
      "in the ": 511,
      "http://bit.ly/2": 512,
      "http://bit.ly/3": 513,
      "pic": 514,
      "ess ": 515,
      "ide": 516,
      "pr": 517,
      "ell": 518,
      "Sh": 519,
      "our ": 520,
      "ai": 521,
      "ally ": 522,
      "ad ": 523,
      "ain": 524,
      "ks": 525,
      "ack ": 526,
      "will ": 527,
      "aw": 528,
      "  ": 529,
      "gre": 530,
      "ar ": 531,
      "ey ": 532,
      "ast ": 533,
      "oug": 534,
      "http://bit.ly/4": 535,
      "Re": 536,
      "10": 537,
      "can ": 538,
      "ant ": 539,
      "re ": 540,
      "ast": 541,
      "our": 542,
      " #": 543,
      "ost": 544,
      "si": 545,
      "do ": 546,
      "don": 547,
      "Than": 548,
      "bl": 549,
      "ome": 550,
      "we ": 551,
      "ation": 552,
      "s, ": 553,
      "2009-": 554,
      "for the ": 555,
      "ook ": 556,
      "of the ": 557,
      "se ": 558,
      "ds ": 559,
      "ill": 560,
      "5 ": 561,
      "\t2009-": 562,
      "ud": 563,
      "ite ": 564,
      "s. ": 565,
      "of": 566,
      "oth": 567,
      "pe": 568,
      "what ": 569,
      "x ": 570,
      "fe": 571,
      "now": 572,
      "us ": 573,
      "eck ": 574,
      "1 ": 575,
      "ort": 576,
      "IN": 577,
      "fin": 578,
      "4 ": 579,
      "New ": 580,
      "3 ": 581,
      "ick": 582,
      "ere": 583,
      "ack": 584,
      "ark": 585,
      "ey": 586,
      "gu": 587,
      "rec": 588,
      "ice ": 589,
      "http://www.": 590,
      "Li": 591,
      "wit": 592,
      "de": 593,
      "ant": 594,
      "bo": 595,
      "ed to ": 596,
      "st ": 597,
      "D ": 598,
      "br": 599,
      "cl": 600,
      "Al": 601,
      "ell ": 602,
      "ity ": 603,
      "ge": 604,
      "ever": 605,
      "ation ": 606,
      "he": 607,
      "ton": 608,
      "more ": 609,
      "man": 610,
      "You ": 611,
      "if ": 612,
      "ail": 613,
      "iz": 614,
      "Fr": 615,
      "ure ": 616,
      "!! ": 617,
      "http://tinyurl.com/y": 618,
      "some ": 619,
      "s: ": 620,
      "out": 621,
      "au": 622,
      "thin": 623,
      "az": 624,
      "RE": 625,
      "good ": 626,
      "ann": 627,
      "app": 628,
      "foll": 629,
      "on the ": 630,
      "sc": 631,
      "jo": 632,
      "per": 633,
      "ion": 634,
      "ang": 635,
      "ame ": 636,
      "ost ": 637,
      "ust": 638,
      "ial ": 639,
      "anc": 640,
      "ree ": 641,
      "mon": 642,
      "go ": 643,
      "20": 644,
      "Twi": 645,
      "has ": 646,
      "ard ": 647,
      "end ": 648,
      "Y ": 649,
      "off": 650,
      "know ": 651,
      "....": 652,
      "ood": 653,
      "http://ow": 654,
      "http://ow.ly/": 655,
      "!  ": 656,
      "own ": 657,
      "ard": 658,
      "got ": 659,
      "how ": 660,
      "e: ": 661,
      "af": 662,
      "ist": 663,
      "O ": 664,
      "TH": 665,
      "love ": 666,
      "Con": 667,
      "R ": 668,
      "see ": 669,
      "min": 670,
      "http://twit": 671,
      "e.": 672,
      "L ": 673,
      "ON": 674,
      "tion": 675,
      "wat": 676,
      "tter": 677,
      "blo": 678,
      "ays ": 679,
      "own": 680,
      "Ph": 681,
      "time ": 682,
      "!!!!": 683,
      "age ": 684,
      "orr": 685,
      "12": 686,
      "s.": 687,
      "ah": 688,
      "than": 689,
      "el ": 690,
      "ies ": 691,
      "pic.com/": 692,
      "ut ": 693,
      ":)": 694,
      "16": 695,
      "read": 696,
      "AN": 697,
      "19": 698,
      "http://twitpic.com/": 699,
      "eg": 700,
      "@m": 701,
      "tion ": 702,
      "Sp": 703,
      "ll ": 704,
      "twee": 705,
      "ub": 706,
      "ook": 707,
      "Br": 708,
      "C ": 709,
      "tting ": 710,
      "It": 711,
      "we": 712,
      "they ": 713,
      "39": 714,
      "' ": 715,
      "09": 716,
      "'re ": 717,
      "when ": 718,
      "Just ": 719,
      "ase ": 720,
      "great ": 721,
      "LO": 722,
      "te": 723,
      "ter ": 724,
      "7 ": 725,
      "n't ": 726,
      "ep": 727,
      "peop": 728,
      "Tr": 729,
      "ough": 730,
      "today": 731,
      "no ": 732,
      "ave ": 733,
      "co": 734,
      "ip": 735,
      "ie ": 736,
      "art ": 737,
      "M ": 738,
      "its ": 739,
      "z ": 740,
      "hel": 741,
      "follow": 742,
      "tu": 743,
      "use ": 744,
      "ass": 745,
      "thing ": 746,
      "don't ": 747,
      "ind": 748,
      "ber": 749,
      "ear ": 750,
      "that": 751,
      "fun": 752,
      "sm": 753,
      "Wor": 754,
      "ion ": 755,
      "ash": 756,
      "@M": 757,
      "On": 758,
      "ong ": 759,
      "11-": 760,
      "to the ": 761,
      "week": 762,
      "En": 763,
      "it's ": 764,
      "Jo": 765,
      "vide": 766,
      "We ": 767,
      "Gre": 768,
      "who ": 769,
      ".com ": 770,
      "some": 771,
      "ing the ": 772,
      "To": 773,
      "der": 774,
      "make ": 775,
      "any": 776,
      "id ": 777,
      "ound ": 778,
      "pre": 779,
      "dr": 780,
      "What ": 781,
      "8 ": 782,
      "ings ": 783,
      "\t2009-11-": 784,
      "ir ": 785,
      "How ": 786,
      "mu": 787,
      "cre": 788,
      "Ar": 789,
      "think ": 790,
      ".g": 791,
      "im ": 792,
      "Bl": 793,
      "back ": 794,
      "att": 795,
      "ive ": 796,
      "ish": 797,
      "old ": 798,
      "ber ": 799,
      "if": 800,
      "ine ": 801,
      "at the ": 802,
      "15": 803,
      "other ": 804,
      "inter": 805,
      "Pro": 806,
      "\t5": 807,
      "ore ": 808,
      "my": 809,
      "Mon": 810,
      "work ": 811,
      "ick ": 812,
      ". I ": 813,
      "ing a ": 814,
      "ge ": 815,
      "If ": 816,
      "sl": 817,
      "inn": 818,
      "fl": 819,
      "ace ": 820,
      "fu": 821,
      "arket": 822,
      "New": 823,
      "fri": 824,
      "ver ": 825,
      "s/": 826,
      "usin": 827,
      "come ": 828,
      "My ": 829,
      "Am": 830,
      "og": 831,
      "Com": 832,
      "over ": 833,
      "fir": 834,
      "This ": 835,
      "new": 836,
      "Check ": 837,
      "been ": 838,
      "10 ": 839,
      "Twitter ": 840,
      "ld": 841,
      "off ": 842,
      "way ": 843,
      "want ": 844,
      "sel": 845,
      "ort ": 846,
      "Ex": 847,
      "s to ": 848,
      "mm": 849,
      "every": 850,
      "--": 851,
      "@j": 852,
      "es, ": 853,
      "tw": 854,
      "he ": 855,
      "lol": 856,
      "cr": 857,
      "people ": 858,
      ":3": 859,
      "ST": 860,
      "work": 861,
      "G ": 862,
      "Be": 863,
      "had ": 864,
      "ach": 865,
      "ign": 866,
      "ser": 867,
      "line ": 868,
      "Pl": 869,
      "can": 870,
      "Thanks ": 871,
      "OU": 872,
      "14": 873,
      "so": 874,
      "enc": 875,
      "P ": 876,
      "ide ": 877,
      "via ": 878,
      "ong": 879,
      "| ": 880,
      "... http://bit.ly/": 881,
      "pres": 882,
      "@d": 883,
      "would ": 884,
      "It's ": 885,
      "gg": 886,
      "vie": 887,
      "mus": 888,
      "mis": 889,
      "comp": 890,
      "twi": 891,
      "It ": 892,
      "s and ": 893,
      "iday ": 894,
      "his ": 895,
      "post": 896,
      "car": 897,
      "a b": 898,
      "In ": 899,
      "6 ": 900,
      "ool ": 901,
      "e! ": 902,
      "iou": 903,
      "ER": 904,
      "ist ": 905,
      "AT": 906,
      "!!! ": 907,
      "mi": 908,
      "AL": 909,
      ", but ": 910,
      "Ad": 911,
      ".. http://bit.ly/": 912,
      "ool": 913,
      "happ": 914,
      "!!!": 915,
      "ade ": 916,
      "able ": 917,
      "ain ": 918,
      "last ": 919,
      "@D": 920,
      "eep ": 921,
      "ough ": 922,
      "loo": 923,
      "He": 924,
      "To ": 925,
      "ur ": 926,
      "tal": 927,
      "ful ": 928,
      "mak": 929,
      "Go": 930,
      "giv": 931,
      "ity": 932,
      "ee ": 933,
      "duc": 934,
      "than ": 935,
      "tom": 936,
      "cc": 937,
      "sk": 938,
      "for a ": 939,
      "ia": 940,
      "ish ": 941,
      "ance ": 942,
      "ig ": 943,
      "18": 944,
      "17": 945,
      "ile ": 946,
      "Lo": 947,
      "any ": 948,
      "Your ": 949,
      "F ": 950,
      "13": 951,
      "really ": 952,
      "s of ": 953,
      "Un": 954,
      "list": 955,
      "illi": 956,
      "Gr": 957,
      "fe ": 958,
      "00 ": 959,
      "should ": 960,
      "amp": 961,
      "/ ": 962,
      "Cl": 963,
      "only ": 964,
      "ef": 965,
      "dis": 966,
      "ry ": 967,
      "der ": 968,
      "ue ": 969,
      "oto": 970,
      "wa": 971,
      "ma": 972,
      "man ": 973,
      "web": 974,
      "wr": 975,
      "@S": 976,
      "ning ": 977,
      "ure": 978,
      "tim": 979,
      "ik": 980,
      "OO": 981,
      "Mar": 982,
      "op ": 983,
      "ope ": 984,
      "For ": 985,
      "act": 986,
      ", and ": 987,
      "; ": 988,
      "still ": 989,
      "right ": 990,
      "W ": 991,
      "ans ": 992,
      "mov": 993,
      "gh": 994,
      "comm": 995,
      "9 ": 996,
      "-- ": 997,
      "The": 998,
      "nex": 999,
      "d/": 1000,
      "is a ": 1001,
      "in a ": 1002,
      "ose ": 1003,
      "ets ": 1004,
      "there ": 1005,
      "ocial ": 1006,
      "her ": 1007,
      "ther": 1008,
      "str": 1009,
      "cont": 1010,
      "ead ": 1011,
      "very ": 1012,
      "job": 1013,
      "s! ": 1014,
      "play": 1015,
      "25": 1016,
      "hav": 1017,
      "ting ": 1018,
      "ther ": 1019,
      "fi": 1020,
      "their ": 1021,
      "ely ": 1022,
      "K ": 1023,
      "video ": 1024,
      "Blo": 1025,
      ".gd/": 1026,
      "here ": 1027,
      "thr": 1028,
      "Don": 1029,
      "show": 1030,
      "check ": 1031,
      "oog": 1032,
      "port": 1033,
      "@ ": 1034,
      "aceb": 1035,
      "&#": 1036,
      "ck": 1037,
      "haha": 1038,
      "Car": 1039,
      "much ": 1040,
      ". S": 1041,
      "????": 1042,
      "with": 1043,
      "ttle ": 1044,
      "Is ": 1045,
      "rist": 1046,
      "ES": 1047,
      ":4": 1048,
      "lease ": 1049,
      "la": 1050,
      ", I ": 1051,
      "at's ": 1052,
      "ence ": 1053,
      "int": 1054,
      "ble": 1055,
      "watch": 1056,
      "EN": 1057,
      "des": 1058,
      "ans": 1059,
      "24": 1060,
      "Inter": 1061,
      "going to ": 1062,
      "tomorr": 1063,
      "today ": 1064,
      "23": 1065,
      "ents ": 1066,
      "fee": 1067,
      "Pr": 1068,
      "eep": 1069,
      "ial": 1070,
      "ever ": 1071,
      "po": 1072,
      "add": 1073,
      "friend": 1074,
      "lov": 1075,
      "ing. ": 1076,
      "stor": 1077,
      "AR": 1078,
      "And ": 1079,
      "sch": 1080,
      "ated ": 1081,
      "one": 1082,
      "par": 1083,
      "ail ": 1084,
      "is the ": 1085,
      "gl": 1086,
      "ats ": 1087,
      "fre": 1088,
      "gir": 1089,
      "edia ": 1090,
      "ese ": 1091,
      "ing.": 1092,
      "most ": 1093,
      "ready ": 1094,
      "Wi": 1095,
      "tonight": 1096,
      "tur": 1097,
      "@J": 1098,
      "ment ": 1099,
      "time": 1100,
      "to be ": 1101,
      ":5": 1102,
      "show ": 1103,
      "night": 1104,
      "next ": 1105,
      "ry": 1106,
      "night ": 1107,
      "usiness ": 1108,
      "ind ": 1109,
      "too ": 1110,
      "Good ": 1111,
      "though": 1112,
      "@k": 1113,
      "part": 1114,
      "year": 1115,
      "oot": 1116,
      "?  ": 1117,
      "net": 1118,
      "US": 1119,
      "&#39": 1120,
      "08": 1121,
      "first ": 1122,
      "U ": 1123,
      "need ": 1124,
      "We": 1125,
      "ss": 1126,
      "best ": 1127,
      "Get ": 1128,
      "Te": 1129,
      ". H": 1130,
      "a c": 1131,
      "bre": 1132,
      "Bu": 1133,
      "know": 1134,
      "hear": 1135,
      "ies": 1136,
      "did ": 1137,
      "NO": 1138,
      "free ": 1139,
      "take ": 1140,
      "acc": 1141,
      "ound": 1142,
      "b ": 1143,
      "uck": 1144,
      "ect ": 1145,
      "can't ": 1146,
      "mo": 1147,
      "ord": 1148,
      "ways ": 1149,
      "run": 1150,
      "them ": 1151,
      "will be ": 1152,
      "ember ": 1153,
      "bab": 1154,
      "won": 1155,
      "ect": 1156,
      ": http://bit.ly/": 1157,
      "no": 1158,
      "sure ": 1159,
      "% ": 1160,
      "IT": 1161,
      "too": 1162,
      "eric": 1163,
      "y, ": 1164,
      "NE": 1165,
      "@s": 1166,
      "then ": 1167,
      "col": 1168,
      "ate": 1169,
      "Qu": 1170,
      "ful": 1171,
      "onn": 1172,
      "ble ": 1173,
      "'ll ": 1174,
      "ass ": 1175,
      "ause ": 1176,
      "B ": 1177,
      "Wat": 1178,
      "ary ": 1179,
      "22": 1180,
      "adi": 1181,
      "AM": 1182,
      "Le": 1183,
      "ating ": 1184,
      "OM": 1185,
      "igg": 1186,
      "Bo": 1187,
      "For": 1188,
      "hol": 1189,
      "ing, ": 1190,
      "AS": 1191,
      "ste": 1192,
      "zz": 1193,
      "arketing ": 1194,
      "I am ": 1195,
      "ign ": 1196,
      "sal": 1197,
      "down ": 1198,
      "pos": 1199,
      "getting ": 1200,
      "pu": 1201,
      "blog": 1202,
      "Fl": 1203,
      "CH": 1204,
      "ok": 1205,
      "stu": 1206,
      "sa": 1207,
      "live ": 1208,
      "say ": 1209,
      "sy": 1210,
      "tm": 1211,
      "ank": 1212,
      "after ": 1213,
      "to get ": 1214,
      "V ": 1215,
      "Thanks": 1216,
      "way": 1217,
      ". #": 1218,
      "Check out ": 1219,
      "aid ": 1220,
      "mar": 1221,
      "see": 1222,
      "ys ": 1223,
      "hh": 1224,
      "De": 1225,
      "where ": 1226,
      "good": 1227,
      "aa": 1228,
      "Col": 1229,
      "is.gd/": 1230,
      "via @": 1231,
      "Nov": 1232,
      "Gu": 1233,
      "Great ": 1234,
      "http://bit.ly/6": 1235,
      "have a ": 1236,
      "07": 1237,
      "org": 1238,
      "On ": 1239,
      "ich ": 1240,
      "tri": 1241,
      "ps ": 1242,
      "cli": 1243,
      "could ": 1244,
      "http://bit.ly/5": 1245,
      "29": 1246,
      "http://is.gd/": 1247,
      "fam": 1248,
      "look ": 1249,
      ".m": 1250,
      "sec": 1251,
      "&#39;": 1252,
      "27": 1253,
      "e!": 1254,
      "26": 1255,
      "ock": 1256,
      "ff ": 1257,
      "here": 1258,
      "OR": 1259,
      "RT ": 1260,
      "Foll": 1261,
      "http://bit.ly/7": 1262,
      "form": 1263,
      "supp": 1264,
      "home ": 1265,
      "were ": 1266,
      "vis": 1267,
      "son ": 1268,
      "Twee": 1269,
      "s!": 1270,
      "air": 1271,
      "ny": 1272,
      "hou": 1273,
      "@b": 1274,
      "thanks ": 1275,
      "into ": 1276,
      "help ": 1277,
      "28": 1278,
      "36": 1279,
      "ip ": 1280,
      "Goog": 1281,
      "eas": 1282,
      "site ": 1283,
      "ris": 1284,
      "http://bit.ly/8": 1285,
      "with the ": 1286,
      "ates ": 1287,
      "exc": 1288,
      "did": 1289,
      "sur": 1290,
      "Mic": 1291,
      "’s ": 1292,
      "gam": 1293,
      "down": 1294,
      ": S": 1295,
      "aking ": 1296,
      "Mus": 1297,
      "there": 1298,
      "N ": 1299,
      "30": 1300,
      "I'll ": 1301,
      "LE": 1302,
      "never ": 1303,
      "Happ": 1304,
      "Do ": 1305,
      "atur": 1306,
      ": The ": 1307,
      "ty": 1308,
      "ment": 1309,
      "better ": 1310,
      "ve": 1311,
      "No ": 1312,
      "c ": 1313,
      "mee": 1314,
      "even ": 1315,
      "LI": 1316,
      "@B": 1317,
      "you're ": 1318,
      "ote ": 1319,
      "real": 1320,
      "Vide": 1321,
      "she ": 1322,
      "this": 1323,
      "Tu": 1324,
      "blog ": 1325,
      "sit": 1326,
      "More ": 1327,
      "50": 1328,
      "lat": 1329,
      "Faceb": 1330,
      "again": 1331,
      "if you ": 1332,
      "ed by ": 1333,
      "2009 ": 1334,
      "over": 1335,
      "them": 1336,
      "win": 1337,
      "Free ": 1338,
      "ed a ": 1339,
      "start": 1340,
      "red ": 1341,
      "Ti": 1342,
      "tweet": 1343,
      "Sun": 1344,
      "ug": 1345,
      "why ": 1346,
      "@c": 1347,
      "let ": 1348,
      "heal": 1349,
      "photo": 1350,
      "awes": 1351,
      "ding ": 1352,
      "coming ": 1353,
      "AC": 1354,
      "Di": 1355,
      "back": 1356,
      "fore ": 1357,
      "opp": 1358,
      "NY": 1359,
      "inv": 1360,
      "es. ": 1361,
      "fav": 1362,
      "s for ": 1363,
      "tty ": 1364,
      "bel": 1365,
      "Or": 1366,
      "Do": 1367,
      "um ": 1368,
      "red": 1369,
      "war": 1370,
      "yn": 1371,
      "clo": 1372,
      "@R": 1373,
      "@L": 1374,
      ":) ": 1375,
      "Ob": 1376,
      "ise ": 1377,
      "hn": 1378,
      "made ": 1379,
      "Web": 1380,
      "to see ": 1381,
      "iting ": 1382,
      "Ge": 1383,
      "@K": 1384,
      "FRE": 1385,
      "tre": 1386,
      "let": 1387,
      "Now ": 1388,
      "Mo": 1389,
      "I've ": 1390,
      "Americ": 1391,
      "ty ": 1392,
      "RI": 1393,
      "pers": 1394,
      "feel ": 1395,
      "bro": 1396,
      "life ": 1397,
      "DA": 1398,
      "Hol": 1399,
      "riv": 1400,
      "chang": 1401,
      "find ": 1402,
      "s on ": 1403,
      "oup": 1404,
      "So ": 1405,
      "I just ": 1406,
      "her": 1407,
      "kid": 1408,
      "bec": 1409,
      "fil": 1410,
      "Ab": 1411,
      "SE": 1412,
      "iss": 1413,
      "uck ": 1414,
      "I have ": 1415,
      "les ": 1416,
      "enn": 1417,
      "hi": 1418,
      "allow": 1419,
      "THE ": 1420,
      "looking ": 1421,
      "inc": 1422,
      "ed the ": 1423,
      "s in ": 1424,
      "y. ": 1425,
      "@C": 1426,
      "view ": 1427,
      "from the ": 1428,
      "head": 1429,
      "Friday ": 1430,
      "many ": 1431,
      ":0": 1432,
      ".\" ": 1433,
      "aff": 1434,
      "Thank ": 1435,
      "Sc": 1436,
      "ream": 1437,
      "ath": 1438,
      "going ": 1439,
      "HA": 1440,
      "49": 1441,
      "sn": 1442,
      "those ": 1443,
      "always ": 1444,
      "tonight ": 1445,
      "twitter ": 1446,
      "ew": 1447,
      "little ": 1448,
      "Pre": 1449,
      "ould": 1450,
      "inf": 1451,
      "40": 1452,
      "lear": 1453,
      "self ": 1454,
      "Why ": 1455,
      "t of ": 1456,
      "top ": 1457,
      "ical ": 1458,
      "RO": 1459,
      "Happy ": 1460,
      "ink": 1461,
      "working ": 1462,
      "onna ": 1463,
      "want to ": 1464,
      "21": 1465,
      "45": 1466,
      "Not ": 1467,
      "ine": 1468,
      "raz": 1469,
      "App": 1470,
      "@T": 1471,
      "ton ": 1472,
      "fb": 1473,
      "unch": 1474,
      "lol ": 1475,
      "nee": 1476,
      "ody ": 1477,
      "net ": 1478,
      "Google ": 1479,
      "That ": 1480,
      "Co": 1481,
      "Ac": 1482,
      "Mi": 1483,
      "bur": 1484,
      ": \"": 1485,
      "need to ": 1486,
      "Hou": 1487,
      "IC": 1488,
      "star": 1489,
      "DE": 1490,
      "If you ": 1491,
      "ft ": 1492,
      "33": 1493,
      "cer": 1494,
      "game ": 1495,
      "ory ": 1496,
      "hope ": 1497,
      "Don't ": 1498,
      "Sal": 1499,
      "son": 1500,
      "sol": 1501,
      ". B": 1502,
      "Social ": 1503,
      "boo": 1504,
      "view": 1505,
      "that's ": 1506,
      "ich": 1507,
      "Christ": 1508,
      "leas": 1509,
      "try ": 1510,
      "Par": 1511,
      "iver": 1512,
      "Are ": 1513,
      "dec": 1514,
      "Dr": 1515,
      "Tra": 1516,
      "Have ": 1517,
      "ener": 1518,
      "a h": 1519,
      "LA": 1520,
      "als ": 1521,
      "Love ": 1522,
      "ING ": 1523,
      "VE ": 1524,
      "J ": 1525,
      "fm": 1526,
      "call": 1527,
      "serv": 1528,
      "e-": 1529,
      ":  ": 1530,
      "ors ": 1531,
      "before ": 1532,
      "de ": 1533,
      "being ": 1534,
      "mp": 1535,
      "spec": 1536,
      "give ": 1537,
      "produc": 1538,
      "loc": 1539,
      "\n\n": 1540,
      "Pe": 1541,
      "well ": 1542,
      "47": 1543,
      "os ": 1544,
      "ros": 1545,
      ":-": 1546,
      "iday": 1547,
      "all the ": 1548,
      "EE": 1549,
      "your": 1550,
      "music ": 1551,
      "coun": 1552,
      "try": 1553,
      "ed in ": 1554,
      "Op": 1555,
      "MA": 1556,
      "IL": 1557,
      "amaz": 1558,
      ".im": 1559,
      "Can": 1560,
      "er, ": 1561,
      "HO": 1562,
      "w/ ": 1563,
      "All ": 1564,
      "Twitter": 1565,
      "ash ": 1566,
      "read ": 1567,
      "girl": 1568,
      "Ro": 1569,
      "es.": 1570,
      "Rec": 1571,
      "ily ": 1572,
      "H ": 1573,
      "hour": 1574,
      "week ": 1575,
      "Ser": 1576,
      "on my ": 1577,
      "enti": 1578,
      "imp": 1579,
      "land": 1580,
      "ace": 1581,
      "and the ": 1582,
      "ll": 1583,
      "a, ": 1584,
      ": @": 1585,
      "I love ": 1586,
      ": http://": 1587,
      "ward ": 1588,
      "a p": 1589,
      "ebr": 1590,
      "keep ": 1591,
      "things ": 1592,
      ". L": 1593,
      "With ": 1594,
      "... http://": 1595,
      "these ": 1596,
      "At ": 1597,
      "48": 1598,
      "YOU": 1599,
      "eff": 1600,
      "Man": 1601,
      "a m": 1602,
      "not": 1603,
      "X ": 1604,
      "ants ": 1605,
      "augh": 1606,
      "FF": 1607,
      "quest": 1608,
      "giving ": 1609,
      "wal": 1610,
      "well": 1611,
      "char": 1612,
      "Marketing ": 1613,
      "y.": 1614,
      "35": 1615,
      "sing ": 1616,
      "til ": 1617,
      "tomorrow": 1618,
      "ason": 1619,
      "Dec": 1620,
      "> ": 1621,
      "nk": 1622,
      "follow ": 1623,
      "it.": 1624,
      "+ ": 1625,
      ".im/": 1626,
      "ink ": 1627,
      "Pres": 1628,
      "ama ": 1629,
      "46": 1630,
      "Ev": 1631,
      "high": 1632,
      "News ": 1633,
      "sion ": 1634,
      "es to ": 1635,
      "77": 1636,
      "less ": 1637,
      "watch ": 1638,
      "Wee": 1639,
      "oooo": 1640,
      "Fin": 1641,
      "may ": 1642,
      "unch ": 1643,
      "La": 1644,
      "Facebook ": 1645,
      "ious ": 1646,
      "liv": 1647,
      "eng": 1648,
      "does ": 1649,
      "ous ": 1650,
      "a great ": 1651,
      "ian ": 1652,
      "htm": 1653,
      "ys": 1654,
      "ON ": 1655,
      "I think ": 1656,
      "ER ": 1657,
      " @ ": 1658,
      "long ": 1659,
      "gonna ": 1660,
      "med": 1661,
      "I was ": 1662,
      "fer": 1663,
      "by": 1664,
      "start ": 1665,
      "pm ": 1666,
      "ts": 1667,
      "orn": 1668,
      "shar": 1669,
      "doing ": 1670,
      "ball ": 1671,
      "il ": 1672,
      "because ": 1673,
      "thing": 1674,
      "Res": 1675,
      "grap": 1676,
      "lec": 1677,
      "tiv": 1678,
      "een ": 1679,
      "iPh": 1680,
      "erc": 1681,
      "– ": 1682,
      "play ": 1683,
      "000 ": 1684,
      "it. ": 1685,
      "ery ": 1686,
      "38": 1687,
      "ed. ": 1688,
      "pm": 1689,
      "Heal": 1690,
      "LOL": 1691,
      "offic": 1692,
      "-0": 1693,
      "air ": 1694,
      "Media ": 1695,
      "cu": 1696,
      "every ": 1697,
      "t. ": 1698,
      "feel": 1699,
      "say": 1700,
      "another ": 1701,
      "artic": 1702,
      "of my ": 1703,
      "online ": 1704,
      "Dis": 1705,
      "o, ": 1706,
      "v ": 1707,
      "ask": 1708,
      "Go ": 1709,
      "Des": 1710,
      "s are ": 1711,
      "weekend": 1712,
      "music": 1713,
      "@p": 1714,
      "right": 1715,
      "favor": 1716,
      "ited ": 1717,
      "real ": 1718,
      "side ": 1719,
      "AP": 1720,
      "emp": 1721,
      "99": 1722,
      "morn": 1723,
      "-2": 1724,
      "you can ": 1725,
      "hom": 1726,
      "bi": 1727,
      "Please ": 1728,
      "un ": 1729,
      "something ": 1730,
      "ening ": 1731,
      "Day ": 1732,
      "tta ": 1733,
      "everyone ": 1734,
      "es: ": 1735,
      "wait ": 1736,
      "him ": 1737,
      "bar": 1738,
      "66": 1739,
      "aj": 1740,
      "ox": 1741,
      "act ": 1742,
      "ins ": 1743,
      "ck ": 1744,
      "w/": 1745,
      "in my ": 1746,
      "itch": 1747,
      "wom": 1748,
      "few ": 1749,
      "Up": 1750,
      "ower ": 1751,
      ".... ": 1752,
      "Cr": 1753,
      "Make ": 1754,
      "Best ": 1755,
      "olog": 1756,
      "Can ": 1757,
      "Gl": 1758,
      "reg": 1759,
      "'ve ": 1760,
      "money ": 1761,
      "fun ": 1762,
      "Rev": 1763,
      "in S": 1764,
      "FO": 1765,
      "ason ": 1766,
      "Fre": 1767,
      "del": 1768,
      "dat": 1769,
      "e? ": 1770,
      "earch ": 1771,
      "One ": 1772,
      "ole ": 1773,
      "37": 1774,
      "y: ": 1775,
      "I w": 1776,
      "icag": 1777,
      "rem": 1778,
      "old": 1779,
      "Tw": 1780,
      "under": 1781,
      "When ": 1782,
      "Of ": 1783,
      "on a ": 1784,
      "didn't ": 1785,
      "\t6": 1786,
      "Net": 1787,
      "tell ": 1788,
      "while ": 1789,
      "12 ": 1790,
      "yea": 1791,
      "Off": 1792,
      "post ": 1793,
      "che": 1794,
      "said ": 1795,
      "ak ": 1796,
      "ond": 1797,
      "ition ": 1798,
      "urr": 1799,
      "through ": 1800,
      "usiness": 1801,
      "ince ": 1802,
      "er: ": 1803,
      "FREE ": 1804,
      "have to ": 1805,
      "a f": 1806,
      "cle": 1807,
      "Sk": 1808,
      "30 ": 1809,
      "ah ": 1810,
      "Business ": 1811,
      "(via @": 1812,
      "two ": 1813,
      "GO": 1814,
      "88": 1815,
      "mag": 1816,
      "20 ": 1817,
      "Su": 1818,
      "ax": 1819,
      "ics ": 1820,
      "put ": 1821,
      "the s": 1822,
      "I don't ": 1823,
      "Fir": 1824,
      "sion": 1825,
      "IG": 1826,
      "Loo": 1827,
      "ms ": 1828,
      "exp": 1829,
      "Tim": 1830,
      "help": 1831,
      "tak": 1832,
      "11/": 1833,
      "\n ": 1834,
      "great": 1835,
      "t.": 1836,
      "tweet ": 1837,
      "Hey ": 1838,
      "ild ": 1839,
      "I can ": 1840,
      "s? ": 1841,
      "ach ": 1842,
      "Oc": 1843,
      "lik": 1844,
      "check out ": 1845,
      "Will ": 1846,
      "e's ": 1847,
      "tive ": 1848,
      "a s": 1849,
      "it was ": 1850,
      "rep": 1851,
      "world": 1852,
      "http://is.gd/4": 1853,
      "! #": 1854,
      "Come ": 1855,
      "ley ": 1856,
      "TV ": 1857,
      "@l": 1858,
      "@g": 1859,
      "ational ": 1860,
      "Bea": 1861,
      "en't ": 1862,
      "bir": 1863,
      "IS ": 1864,
      "They ": 1865,
      "Blog ": 1866,
      "Thanks for the ": 1867,
      "does": 1868,
      "albu": 1869,
      "nec": 1870,
      "Char": 1871,
      "around ": 1872,
      "From ": 1873,
      "a good ": 1874,
      "men": 1875,
      "ild": 1876,
      "IN ": 1877,
      "makes ": 1878,
      "?? ": 1879,
      "elebr": 1880,
      "enjo": 1881,
      "@P": 1882,
      "someone ": 1883,
      "Ed": 1884,
      "56": 1885,
      "do you ": 1886,
      "US ": 1887,
      "ester": 1888,
      "Mc": 1889,
      "sid": 1890,
      "- http://": 1891,
      "Ste": 1892,
      "sw": 1893,
      "dro": 1894,
      "mas ": 1895,
      "ny ": 1896,
      "minut": 1897,
      "ond ": 1898,
      "soon": 1899,
      "ix": 1900,
      "tru": 1901,
      "word": 1902,
      ".. http://bit.ly/1": 1903,
      "to h": 1904,
      "prom": 1905,
      "World ": 1906,
      "int ": 1907,
      "fm/": 1908,
      "Mag": 1909,
      "Sm": 1910,
      "11 ": 1911,
      "VI": 1912,
      "ite": 1913,
      "call ": 1914,
      "ement ": 1915,
      "succ": 1916,
      "58": 1917,
      "business ": 1918,
      "twitter": 1919,
      "Who ": 1920,
      "oo ": 1921,
      "big ": 1922,
      "are": 1923,
      "interest": 1924,
      "ing: ": 1925,
      "ition": 1926,
      "using ": 1927,
      "ious": 1928,
      "world ": 1929,
      "publ": 1930,
      "book ": 1931,
      "@n": 1932,
      "ative ": 1933,
      "Bre": 1934,
      "! RT @": 1935,
      "prof": 1936,
      "Job": 1937,
      "set ": 1938,
      "cour": 1939,
      "ens ": 1940,
      ".. http://bit.ly/3": 1941,
      ".htm": 1942,
      "Comp": 1943,
      "nice ": 1944,
      "Sch": 1945,
      "tomorrow ": 1946,
      "59": 1947,
      "per ": 1948,
      "ub ": 1949,
      "es and ": 1950,
      "Follow": 1951,
      "cat": 1952,
      "Veg": 1953,
      "lnk": 1954,
      "yf": 1955,
      "Hel": 1956,
      "anna ": 1957,
      "pretty ": 1958,
      ":(": 1959,
      ", the ": 1960,
      "rog": 1961,
      "year ": 1962,
      "Hallow": 1963,
      "ous": 1964,
      "ffer": 1965,
      "leg": 1966,
      "aybe ": 1967,
      "Cre": 1968,
      "List": 1969,
      "bor": 1970,
      "My": 1971,
      "Cent": 1972,
      "happy ": 1973,
      "says ": 1974,
      "06": 1975,
      "] ": 1976,
      "Bar": 1977,
      "Be ": 1978,
      "Ever": 1979,
      "care ": 1980,
      "ations ": 1981,
      "self": 1982,
      "inner ": 1983,
      "15 ": 1984,
      "dam": 1985,
      "ching ": 1986,
      "acks": 1987,
      "Me": 1988,
      "social ": 1989,
      "er. ": 1990,
      "miss ": 1991,
      "09 ": 1992,
      "ian": 1993,
      "morning ": 1994,
      "ha ": 1995,
      "    ": 1996,
      ".ms/": 1997,
      "ying ": 1998,
      ".. http://bit.ly/2": 1999,
      "ice": 2000,
      "Po": 2001,
      "might ": 2002,
      "UN": 2003,
      "Online ": 2004,
      "win ": 2005,
      "which ": 2006,
      "feat": 2007,
      "mom": 2008,
      ".gs/": 2009,
      "lnk.ms/": 2010,
      "Af": 2011,
      "you are ": 2012,
      "eck": 2013,
      "?!": 2014,
      "prov": 2015,
      "nam": 2016,
      "&#39;s ": 2017,
      "ounc": 2018,
      "out of ": 2019,
      "thank ": 2020,
      ".. http://bit.ly/4": 2021,
      "ock ": 2022,
      "stud": 2023,
      "followers ": 2024,
      "100": 2025,
      "i'": 2026,
      "Rob": 2027,
      ";)": 2028,
      "Au": 2029,
      "yl": 2030,
      "57": 2031,
      "iate ": 2032,
      "actu": 2033,
      "ship ": 2034,
      "from": 2035,
      "about the ": 2036,
      "rr": 2037,
      "with a ": 2038,
      "o: ": 2039,
      "ode ": 2040,
      "get": 2041,
      "hand": 2042,
      "it is ": 2043,
      "dd": 2044,
      "Time ": 2045,
      "ump": 2046,
      "Aw": 2047,
      "orts ": 2048,
      "Real": 2049,
      "\t2009-10": 2050,
      "ali": 2051,
      "ale ": 2052,
      "ere's ": 2053,
      "War": 2054,
      "http://ow.ly/16": 2055,
      "s - ": 2056,
      "det": 2057,
      "sed ": 2058,
      "vo": 2059,
      "yr": 2060,
      "ush": 2061,
      "ieve ": 2062,
      "age": 2063,
      "phone ": 2064,
      "able": 2065,
      "Sou": 2066,
      "Se": 2067,
      "ven": 2068,
      "@t": 2069,
      "pol": 2070,
      "That's ": 2071,
      "graph": 2072,
      "Fe": 2073,
      "media ": 2074,
      "AD": 2075,
      "home": 2076,
      "ed.": 2077,
      "Day": 2078,
      "@N": 2079,
      "IS": 2080,
      "song": 2081,
      "! http://": 2082,
      "ict": 2083,
      "sub": 2084,
      "Har": 2085,
      "with @": 2086,
      "Ton": 2087,
      "Top ": 2088,
      "ounds ": 2089,
      "ly, ": 2090,
      "anyone ": 2091,
      "PO": 2092,
      "Per": 2093,
      "! http://bit.ly/": 2094,
      "ru": 2095,
      "s #": 2096,
      "ower": 2097,
      "ude ": 2098,
      "are you ": 2099,
      "Fi": 2100,
      "must ": 2101,
      "loy": 2102,
      "away ": 2103,
      "life": 2104,
      "also ": 2105,
      "tick": 2106,
      "right now": 2107,
      "yy": 2108,
      "lead": 2109,
      "!!!! ": 2110,
      "grat": 2111,
      "Sec": 2112,
      "TO": 2113,
      "sing": 2114,
      "days ": 2115,
      "sign": 2116,
      "CO": 2117,
      "bad ": 2118,
      "” ": 2119,
      "stop ": 2120,
      "looks ": 2121,
      "p: ": 2122,
      "until ": 2123,
      "Live ": 2124,
      "way to ": 2125,
      "tain": 2126,
      "Yor": 2127,
      "chn": 2128,
      "ness ": 2129,
      "inst": 2130,
      "= ": 2131,
      "BE": 2132,
      "iPhone ": 2133,
      "Any": 2134,
      "day, ": 2135,
      "gif": 2136,
      "evel": 2137,
      "talk ": 2138,
      "ening to ": 2139,
      ". The ": 2140,
      "making ": 2141,
      "Video ": 2142,
      "Photo": 2143,
      "ING": 2144,
      "Z ": 2145,
      "@A": 2146,
      "Satur": 2147,
      "ady ": 2148,
      "ed, ": 2149,
      "44": 2150,
      "times ": 2151,
      "San ": 2152,
      "Home ": 2153,
      "hu": 2154,
      "watching ": 2155,
      "adio ": 2156,
      "exper": 2157,
      "No": 2158,
      "67": 2159,
      "UR": 2160,
      "cover": 2161,
      "ed for ": 2162,
      "yp": 2163,
      "house ": 2164,
      "gets ": 2165,
      "done ": 2166,
      "erg": 2167,
      "Em": 2168,
      "IM": 2169,
      "h, ": 2170,
      "rect": 2171,
      "80": 2172,
      "Oh ": 2173,
      ". W": 2174,
      ". M": 2175,
      "ene": 2176,
      "cli.gs/": 2177,
      "100 ": 2178,
      "Part": 2179,
      "oh ": 2180,
      ". http://": 2181,
      "ently ": 2182,
      "of a ": 2183,
      "aul": 2184,
      "u/": 2185,
      "load": 2186,
      "Chicag": 2187,
      "guys ": 2188,
      "ney ": 2189,
      ".....": 2190,
      "hal": 2191,
      "! I ": 2192,
      "ual ": 2193,
      "favorite ": 2194,
      "out to ": 2195,
      "tl": 2196,
      "87": 2197,
      "TW": 2198,
      "ank ": 2199,
      "i'm ": 2200,
      "bas": 2201,
      "place ": 2202,
      "pi": 2203,
      "cool": 2204,
      "@r": 2205,
      "Every": 2206,
      "forward ": 2207,
      "noth": 2208,
      "ending ": 2209,
      "illion ": 2210,
      "party ": 2211,
      "**": 2212,
      "ym": 2213,
      "AT ": 2214,
      "saw ": 2215,
      "ones ": 2216,
      "Did ": 2217,
      "rel": 2218,
      "lim": 2219,
      "ens": 2220,
      "lev": 2221,
      "Black ": 2222,
      "!!!!!!!!": 2223,
      "EL": 2224,
      "Post": 2225,
      "found ": 2226,
      "friend ": 2227,
      "stre": 2228,
      "Ann": 2229,
      "Our ": 2230,
      "ina ": 2231,
      "13 ": 2232,
      "bet": 2233,
      "orry ": 2234,
      "thought ": 2235,
      "spir": 2236,
      "Nor": 2237,
      "ap ": 2238,
      "yet": 2239,
      "girl ": 2240,
      "it, ": 2241,
      "Music ": 2242,
      "cool ": 2243,
      "que ": 2244,
      "top": 2245,
      "LA ": 2246,
      "thanks": 2247,
      "90": 2248,
      "TO ": 2249,
      "Its ": 2250,
      "month": 2251,
      "seen ": 2252,
      "Cont": 2253,
      "But ": 2254,
      "hun": 2255,
      "me/": 2256,
      "doesn't ": 2257,
      "go to ": 2258,
      "a lo": 2259,
      ": RT @": 2260,
      "lip": 2261,
      "please ": 2262,
      "Gir": 2263,
      "person": 2264,
      "Play": 2265,
      "CA": 2266,
      "There ": 2267,
      "Tal": 2268,
      "resp": 2269,
      "2010 ": 2270,
      "adv": 2271,
      "ing! ": 2272,
      "Med": 2273,
      "for your ": 2274,
      "Wal": 2275,
      "ows ": 2276,
      "us/": 2277,
      "beau": 2278,
      "change ": 2279,
      "craz": 2280,
      "plan": 2281,
      "dont ": 2282,
      "rest": 2283,
      "ya ": 2284,
      "ib": 2285,
      "hn ": 2286,
      ",000 ": 2287,
      "ama": 2288,
      "@The": 2289,
      "Dav": 2290,
      "hate ": 2291,
      "mas": 2292,
      "97": 2293,
      "Comm": 2294,
      "people": 2295,
      "tv": 2296,
      "body ": 2297,
      "urs": 2298,
      " http://": 2299,
      "swee": 2300,
      "2n": 2301,
      ":30": 2302,
      "ights ": 2303,
      "es of ": 2304,
      "Star": 2305,
      ": B": 2306,
      "@ch": 2307,
      "nl": 2308,
      "tc": 2309,
      "send ": 2310,
      "vil": 2311,
      "Social Media ": 2312,
      "VE": 2313,
      "tiful ": 2314,
      "trav": 2315,
      "nt ": 2316,
      "ii": 2317,
      "oto ": 2318,
      "4.": 2319,
      "hot": 2320,
      "short": 2321,
      "CE": 2322,
      "50 ": 2323,
      "Rem": 2324,
      "ins": 2325,
      "rip": 2326,
      "sleep": 2327,
      "New Yor": 2328,
      "amm": 2329,
      "YouTu": 2330,
      "itt": 2331,
      "hop": 2332,
      "And": 2333,
      "How to ": 2334,
      "ary": 2335,
      "ag ": 2336,
      "trying to ": 2337,
      "differ": 2338,
      "Ju": 2339,
      "umm": 2340,
      "earn ": 2341,
      "how to ": 2342,
      "Friday": 2343,
      "Ha": 2344,
      "ang ": 2345,
      "awesome ": 2346,
      "it!": 2347,
      "hard ": 2348,
      "er.": 2349,
      ". http://bit.ly/": 2350,
      "in' ": 2351,
      "upd": 2352,
      "arm": 2353,
      "avail": 2354,
      "Str": 2355,
      "email ": 2356,
      "ft": 2357,
      "Follow ": 2358,
      "rain": 2359,
      "yfrog": 2360,
      "les": 2361,
      "Life ": 2362,
      "ession": 2363,
      "Ag": 2364,
      "Tip": 2365,
      "deal": 2366,
      "with my ": 2367,
      "ucc": 2368,
      "proble": 2369,
      "ought ": 2370,
      "ital ": 2371,
      "Fun": 2372,
      "WA": 2373,
      "already ": 2374,
      "rock": 2375,
      "buy ": 2376,
      "Big ": 2377,
      "eni": 2378,
      "eed": 2379,
      "key": 2380,
      "): ": 2381,
      "s...": 2382,
      "1st ": 2383,
      "Ear": 2384,
      "RA": 2385,
      "sul": 2386,
      "Up ": 2387,
      "Tweet": 2388,
      "foot": 2389,
      "hit ": 2390,
      "Im": 2391,
      "since ": 2392,
      "list ": 2393,
      "BO": 2394,
      "ez": 2395,
      "\t2009-11-0": 2396,
      "ext ": 2397,
      "Money ": 2398,
      "yfrog.com/": 2399,
      "aur": 2400,
      "cor": 2401,
      "Micha": 2402,
      "Coun": 2403,
      "turn": 2404,
      "ire ": 2405,
      "ari": 2406,
      "oot ": 2407,
      "Obama ": 2408,
      "a d": 2409,
      "els ": 2410,
      "Chr": 2411,
      "68": 2412,
      "mem": 2413,
      "IT ": 2414,
      "GE": 2415,
      "actually ": 2416,
      ":-)": 2417,
      "question": 2418,
      "Lov": 2419,
      "Fri": 2420,
      "ball": 2421,
      "video": 2422,
      "mil": 2423,
      "Pu": 2424,
      "Cor": 2425,
      "ouldn't ": 2426,
      "ley": 2427,
      "weekend ": 2428,
      "s?": 2429,
      "Peop": 2430,
      "school ": 2431,
      "55": 2432,
      "what": 2433,
      "each ": 2434,
      "Art": 2435,
      "tions ": 2436,
      "sh ": 2437,
      "Thank you ": 2438,
      "believe ": 2439,
      "without ": 2440,
      "sha": 2441,
      "* ": 2442,
      "Watch ": 2443,
      "dj": 2444,
      "Ap": 2445,
      "Looking ": 2446,
      "Bro": 2447,
      "happen": 2448,
      "2.": 2449,
      "25 ": 2450,
      "idd": 2451,
      ": M": 2452,
      "health": 2453,
      "hon": 2454,
      "ed on ": 2455,
      "wonder": 2456,
      "y and ": 2457,
      "... http://bit.ly/4": 2458,
      "Internet ": 2459,
      "ize ": 2460,
      "Rel": 2461,
      "for my ": 2462,
      "This is ": 2463,
      "ord ": 2464,
      "design": 2465,
      "name ": 2466,
      "69": 2467,
      "break": 2468,
      "... http://lnk.ms/": 2469,
      "ing!": 2470,
      "food ": 2471,
      "unity ": 2472,
      "Can't ": 2473,
      "a_": 2474,
      "him": 2475,
      "34": 2476,
      "health ": 2477,
      "Pal": 2478,
      "dri": 2479,
      "res ": 2480,
      "early ": 2481,
      "High": 2482,
      "ipp": 2483,
      "izz": 2484,
      "oup ": 2485,
      "job ": 2486,
      "Today ": 2487,
      "lu": 2488,
      "ers, ": 2489,
      "Mac": 2490,
      "to do ": 2491,
      "Show ": 2492,
      "une ": 2493,
      "ei": 2494,
      "Win": 2495,
      "they": 2496,
      "ress ": 2497,
      "turn ": 2498,
      "beg": 2499,
      "ret": 2500,
      "First ": 2501,
      ".S": 2502,
      "ing in ": 2503,
      "All": 2504,
      "a new ": 2505,
      "ustom": 2506,
      "think": 2507,
      "mess": 2508,
      "load ": 2509,
      "\"The ": 2510,
      "DO": 2511,
      "ho": 2512,
      "ner": 2513,
      "it out": 2514,
      "book": 2515,
      "a #": 2516,
      "~ ": 2517,
      "60": 2518,
      "Pol": 2519,
      "look": 2520,
      "writ": 2521,
      "TV": 2522,
      "vot": 2523,
      "John": 2524,
      "UC": 2525,
      "AA": 2526,
      "As ": 2527,
      "sist": 2528,
      "movie ": 2529,
      "left ": 2530,
      "Web ": 2531,
      "@G": 2532,
      "issu": 2533,
      "Got ": 2534,
      "AND ": 2535,
      "mat": 2536,
      "e...": 2537,
      "key ": 2538,
      "http://tw": 2539,
      "plac": 2540,
      "Blog": 2541,
      "Ang": 2542,
      "news ": 2543,
      "Amaz": 2544,
      "umb": 2545,
      "ivers": 2546,
      "He ": 2547,
      "state ": 2548,
      "Wed": 2549,
      "Yea": 2550,
      "val": 2551,
      "What's ": 2552,
      "wel": 2553,
      "evelop": 2554,
      "2\t": 2555,
      "Her": 2556,
      "kill": 2557,
      "cus": 2558,
      "Mor": 2559,
      "Sup": 2560,
      "ner ": 2561,
      "what you ": 2562,
      "youtu": 2563,
      "es in ": 2564,
      "s.  ": 2565,
      "spe": 2566,
      "needs ": 2567,
      "SH": 2568,
      "Wr": 2569,
      "...: ": 2570,
      "Im ": 2571,
      "e?": 2572,
      "aily ": 2573,
      "mod": 2574,
      "ing for ": 2575,
      "quot": 2576,
      "Christmas ": 2577,
      "eter": 2578,
      "ca": 2579,
      "cop": 2580,
      "een": 2581,
      "xx": 2582,
      "market": 2583,
      "ID": 2584,
      "t, ": 2585,
      "proj": 2586,
      "... http://bit.ly/1": 2587,
      "es for ": 2588,
      "class": 2589,
      "House ": 2590,
      "ed up ": 2591,
      "full ": 2592,
      "soc": 2593,
      "want": 2594,
      "is not ": 2595,
      "Halloween ": 2596,
      "YouTube ": 2597,
      "????????": 2598,
      "stand": 2599,
      "See ": 2600,
      "ities ": 2601,
      "sun": 2602,
      "event": 2603,
      "es! ": 2604,
      "te ": 2605,
      "los": 2606,
      "y!": 2607,
      "album ": 2608,
      "November ": 2609,
      "UP": 2610,
      "url.": 2611,
      "ju": 2612,
      "Stre": 2613,
      "ull": 2614,
      " - ": 2615,
      "the best ": 2616,
      "John ": 2617,
      "El": 2618,
      "nn": 2619,
      "business": 2620,
      "TE": 2621,
      "Health ": 2622,
      "AB": 2623,
      "ourc": 2624,
      "head ": 2625,
      "finish": 2626,
      "back to ": 2627,
      "heard ": 2628,
      "Mil": 2629,
      "fast": 2630,
      "progr": 2631,
      "playing ": 2632,
      "We're ": 2633,
      "Monday ": 2634,
      "tap": 2635,
      "again ": 2636,
      "Head": 2637,
      "@h": 2638,
      "support ": 2639,
      "faceb": 2640,
      "room ": 2641,
      "Getting ": 2642,
      "friends ": 2643,
      "Real ": 2644,
      "fut": 2645,
      "yester": 2646,
      "NF": 2647,
      "fol": 2648,
      "es/": 2649,
      "ute ": 2650,
      "Tur": 2651,
      "amazing ": 2652,
      "open ": 2653,
      "ourn": 2654,
      "last night": 2655,
      "1\t": 2656,
      "p/": 2657,
      "in your ": 2658,
      "o's ": 2659,
      "su.": 2660,
      "fac": 2661,
      "s.com/": 2662,
      "Out ": 2663,
      "God ": 2664,
      "89": 2665,
      "song ": 2666,
      "NEW ": 2667,
      "team ": 2668,
      "you know ": 2669,
      "on, ": 2670,
      "1.": 2671,
      "long": 2672,
      "ams ": 2673,
      "ayl": 2674,
      "@F": 2675,
      "kn": 2676,
      "answ": 2677,
      "ing my ": 2678,
      "As": 2679,
      "http://cli.gs/": 2680,
      "link ": 2681,
      "'d ": 2682,
      "About ": 2683,
      "So": 2684,
      "sex": 2685,
      "70": 2686,
      "YOU ": 2687,
      "urch": 2688,
      "aut": 2689,
      "er and ": 2690,
      ".us/": 2691,
      "the c": 2692,
      "day. ": 2693,
      "spot": 2694,
      "pri": 2695,
      "wea": 2696,
      "pr/": 2697,
      "went ": 2698,
      "a: ": 2699,
      "would be ": 2700,
      "guy ": 2701,
      "accoun": 2702,
      "word ": 2703,
      "hum": 2704,
      "Down": 2705,
      "ric": 2706,
      "vert": 2707,
      "American ": 2708,
      "ML": 2709,
      "NB": 2710,
      "dio ": 2711,
      "forward to ": 2712,
      "part ": 2713,
      "what's ": 2714,
      "por": 2715,
      "e_": 2716,
      "ab ": 2717,
      "Hope ": 2718,
      "marketing ": 2719,
      "enter": 2720,
      "Phil": 2721,
      "Want ": 2722,
      "Sl": 2723,
      "Thanksgiving ": 2724,
      "I'd ": 2725,
      "Ir": 2726,
      "we're ": 2727,
      "ff.im/": 2728,
      "arket ": 2729,
      "meet ": 2730,
      "16 ": 2731,
      "FF ": 2732,
      ".\n": 2733,
      "Fam": 2734,
      "has been ": 2735,
      "led": 2736,
      "ship": 2737,
      "vir": 2738,
      "was": 2739,
      "uu": 2740,
      "Michael ": 2741,
      "Mov": 2742,
      "IR": 2743,
      "Thanks for ": 2744,
      "y! ": 2745,
      "su.pr/": 2746,
      "cast": 2747,
      "14 ": 2748,
      "post: ": 2749,
      "\t2009-11-2": 2750,
      "Are you ": 2751,
      "shit ": 2752,
      "ons": 2753,
      "mix": 2754,
      "MP": 2755,
      "lob": 2756,
      "Fil": 2757,
      "cal": 2758,
      "ture ": 2759,
      "18 ": 2760,
      "Week": 2761,
      "and I ": 2762,
      "HH": 2763,
      "perf": 2764,
      "Read": 2765,
      "Jacks": 2766,
      "ed my ": 2767,
      "form ": 2768,
      "olu": 2769,
      "@f": 2770,
      "run ": 2771,
      "dra": 2772,
      "DI": 2773,
      "thday ": 2774,
      "talking ": 2775,
      "ana ": 2776,
      "Where ": 2777,
      "io ": 2778,
      "ons ": 2779,
      "umbl": 2780,
      "today. ": 2781,
      "family ": 2782,
      "Sha": 2783,
      "3\t": 2784,
      "Is": 2785,
      "chan": 2786,
      "Acc": 2787,
      "open": 2788,
      "Bir": 2789,
      "such ": 2790,
      "die ": 2791,
      "City ": 2792,
      "bus": 2793,
      "Me ": 2794,
      "NOT ": 2795,
      "stuff ": 2796,
      "PR": 2797,
      "Tri": 2798,
      ": http://bit.ly/1": 2799,
      "mean ": 2800,
      "glad ": 2801,
      "like a ": 2802,
      "News: ": 2803,
      "I know ": 2804,
      "Vis": 2805,
      "yle ": 2806,
      "bad": 2807,
      "as a ": 2808,
      "ask ": 2809,
      ".org": 2810,
      "house": 2811,
      "need": 2812,
      "under ": 2813,
      "ull ": 2814,
      "e.  ": 2815,
      "... http://bit.ly/3": 2816,
      "17 ": 2817,
      "uk": 2818,
      "scre": 2819,
      "@H": 2820,
      "so much ": 2821,
      "gotta ": 2822,
      "ex ": 2823,
      "shir": 2824,
      "err": 2825,
      "land ": 2826,
      "should be ": 2827,
      "ily": 2828,
      "MO": 2829,
      "Min": 2830,
      "boy": 2831,
      "dur": 2832,
      "em ": 2833,
      "when you ": 2834,
      "Revie": 2835,
      "Wom": 2836,
      "ember": 2837,
      "ME": 2838,
      "chil": 2839,
      "stat": 2840,
      "DJ": 2841,
      "dog": 2842,
      "PP": 2843,
      "hard": 2844,
      "least ": 2845,
      "defin": 2846,
      "much": 2847,
      "possi": 2848,
      "event ": 2849,
      "from @": 2850,
      "page ": 2851,
      "stay ": 2852,
      "esday ": 2853,
      "Jam": 2854,
      "Tre": 2855,
      "Gam": 2856,
      "VER": 2857,
      "co ": 2858,
      "nl/": 2859,
      "Ber": 2860,
      "after": 2861,
      "Wow": 2862,
      "- http://bit.ly/": 2863,
      "Die": 2864,
      "KE": 2865,
      "rac": 2866,
      "fiel": 2867,
      "PA": 2868,
      "ends ": 2869,
      "person ": 2870,
      "town ": 2871,
      "ze ": 2872,
      "bb": 2873,
      "vi": 2874,
      "it! ": 2875,
      "Lat": 2876,
      "best": 2877,
      "canc": 2878,
      "ves ": 2879,
      "wants ": 2880,
      "ateg": 2881,
      "ane ": 2882,
      "ye": 2883,
      "cap": 2884,
      "ices ": 2885,
      "a's ": 2886,
      "ween ": 2887,
      "bably ": 2888,
      "65": 2889,
      "ps": 2890,
      "ense ": 2891,
      "Liv": 2892,
      "stuff": 2893,
      "@i": 2894,
      "one of ": 2895,
      "05": 2896,
      "Val": 2897,
      "camp": 2898,
      ". D": 2899,
      "Take ": 2900,
      "coff": 2901,
      "e/": 2902,
      "@jo": 2903,
      ": #": 2904,
      "ienc": 2905,
      "Vir": 2906,
      "better": 2907,
      "having ": 2908,
      "er's ": 2909,
      "y's ": 2910,
      "akes ": 2911,
      "ed with ": 2912,
      "almost ": 2913,
      "ing and ": 2914,
      "cra": 2915,
      "Inv": 2916,
      "lma": 2917,
      "Market": 2918,
      "Ret": 2919,
      "ement": 2920,
      "et's ": 2921,
      "Mr": 2922,
      "79": 2923,
      "HE": 2924,
      "Att": 2925,
      "a. ": 2926,
      "hear ": 2927,
      "I got ": 2928,
      ".\"": 2929,
      "ility ": 2930,
      "Congrat": 2931,
      "ially ": 2932,
      "story ": 2933,
      "ush ": 2934,
      "ular ": 2935,
      "An ": 2936,
      "kind ": 2937,
      "incl": 2938,
      "... http://bit.ly/2": 2939,
      "ience ": 2940,
      "celebr": 2941,
      "http://tr": 2942,
      "box ": 2943,
      "website ": 2944,
      "he's ": 2945,
      "article ": 2946,
      "car ": 2947,
      "eat ": 2948,
      "youtube": 2949,
      "By ": 2950,
      "ping.": 2951,
      "Thurs": 2952,
      "http://twurl.": 2953,
      "MI": 2954,
      "thinking ": 2955,
      "???": 2956,
      "room": 2957,
      "lar": 2958,
      "http://twitpic.com/p": 2959,
      "Bab": 2960,
      "news": 2961,
      "tot": 2962,
      ":D": 2963,
      "ally": 2964,
      "SA": 2965,
      "this is ": 2966,
      "ange ": 2967,
      "time to ": 2968,
      "78": 2969,
      "ness": 2970,
      "lege ": 2971,
      "ALL ": 2972,
      "cho": 2973,
      "info ": 2974,
      "won't ": 2975,
      "je": 2976,
      "pag": 2977,
      ". I'm ": 2978,
      "finally ": 2979,
      "Bi": 2980,
      "j ": 2981,
      "ator ": 2982,
      "en to ": 2983,
      "Only ": 2984,
      "News": 2985,
      "releas": 2986,
      "awesome": 2987,
      ": C": 2988,
      "Rep": 2989,
      "75": 2990,
      "pass": 2991,
      "shopp": 2992,
      "ping.fm/": 2993,
      "Sy": 2994,
      "Ok": 2995,
      "iev": 2996,
      "@dj": 2997,
      "Rock": 2998,
      "Still ": 2999,
      "onlin": 3000,
      "else ": 3001,
      "Aff": 3002,
      "SS": 3003,
      "detail": 3004,
      "toge": 3005,
      "Back ": 3006,
      "omin": 3007,
      "ept ": 3008,
      "mysp": 3009,
      "a.": 3010,
      "lif": 3011,
      "on your ": 3012,
      "host": 3013,
      "following ": 3014,
      "beautiful ": 3015,
      "fan": 3016,
      "http://twurl.nl/": 3017,
      "Aust": 3018,
      "r.com/": 3019,
      "hot ": 3020,
      "oud ": 3021,
      "Atl": 3022,
      "nic": 3023,
      "ident ": 3024,
      "youn": 3025,
      "both ": 3026,
      "Today": 3027,
      "ax ": 3028,
      "cam": 3029,
      ". C": 3030,
      "4\t": 3031,
      "cast ": 3032,
      "feature": 3033,
      "@the": 3034,
      "TI": 3035,
      "I can't ": 3036,
      "pop": 3037,
      "the new ": 3038,
      "haha ": 3039,
      "s\" ": 3040,
      ") - ": 3041,
      "??? ": 3042,
      "haven't ": 3043,
      "ue": 3044,
      "People ": 3045,
      "er to ": 3046,
      "ster": 3047,
      "sou": 3048,
      "U.S": 3049,
      "whole ": 3050,
      "obile ": 3051,
      "available ": 3052,
      "Let ": 3053,
      "maybe ": 3054,
      "comes ": 3055,
      "lex": 3056,
      "up to ": 3057,
      "Out": 3058,
      "WS": 3059,
      "Dem": 3060,
      "connec": 3061,
      "vid": 3062,
      "pris": 3063,
      "Produc": 3064,
      "elling ": 3065,
      "success": 3066,
      "ref": 3067,
      "incre": 3068,
      "DAY": 3069,
      "tist": 3070,
      "sleep ": 3071,
      "same ": 3072,
      "Sur": 3073,
      "oh": 3074,
      "BB": 3075,
      "White ": 3076,
      "yc": 3077,
      "ing? ": 3078,
      "http://ff.im/": 3079,
      "ni": 3080,
      "ouch": 3081,
      "each": 3082,
      "enough ": 3083,
      "less": 3084,
      "listening to ": 3085,
      "pleas": 3086,
      "Hot": 3087,
      "isn't ": 3088,
      ".me/": 3089,
      "beat": 3090,
      "WW": 3091,
      "dem": 3092,
      "rain ": 3093,
      "qui": 3094,
      "ts of ": 3095,
      "train": 3096,
      "Do you ": 3097,
      "Learn ": 3098,
      "eful": 3099,
      "SP": 3100,
      "Join ": 3101,
      "Serv": 3102,
      "anything ": 3103,
      "Find ": 3104,
      "WH": 3105,
      "vers": 3106,
      "ke": 3107,
      "ake": 3108,
      "da ": 3109,
      "ed and ": 3110,
      "holiday ": 3111,
      "Flor": 3112,
      "Spec": 3113,
      "Very ": 3114,
      "hur": 3115,
      "ben": 3116,
      "Mod": 3117,
      "years ": 3118,
      "everything ": 3119,
      "season ": 3120,
      "afe ": 3121,
      "pap": 3122,
      "add ": 3123,
      "came ": 3124,
      "Boo": 3125,
      "LL": 3126,
      "veg": 3127,
      "ross ": 3128,
      "ani": 3129,
      "guy": 3130,
      "wood ": 3131,
      "We are ": 3132,
      "ne ": 3133,
      "anta ": 3134,
      "excit": 3135,
      "face ": 3136,
      "sav": 3137,
      "Tom": 3138,
      "DJ ": 3139,
      "fic": 3140,
      "guess ": 3141,
      "cks ": 3142,
      "to make ": 3143,
      "yle": 3144,
      "winn": 3145,
      "mind": 3146,
      "Air": 3147,
      "Ver": 3148,
      "MM": 3149,
      "coup": 3150,
      "hey ": 3151,
      "HT": 3152,
      "q ": 3153,
      "19 ": 3154,
      "info": 3155,
      "a few ": 3156,
      "latest ": 3157,
      "<<": 3158,
      "es!": 3159,
      "high ": 3160,
      "Last ": 3161,
      "Awes": 3162,
      "Angel": 3163,
      "Off ": 3164,
      "gar": 3165,
      "myself ": 3166,
      "how": 3167,
      "Stu": 3168,
      "kin ": 3169,
      "hour ": 3170,
      "sive ": 3171,
      "erson": 3172,
      "mind ": 3173,
      "ert ": 3174,
      "took ": 3175,
      "vote ": 3176,
      "press ": 3177,
      "AN ": 3178,
      "squ": 3179,
      "special ": 3180,
      "we are ": 3181,
      "Tex": 3182,
      "I had ": 3183,
      "used ": 3184,
      "kids ": 3185,
      "@E": 3186,
      "@w": 3187,
      "Vegas ": 3188,
      "ling ": 3189,
      "ott": 3190,
      "feeling ": 3191,
      "RT @j": 3192,
      "Good": 3193,
      "ya": 3194,
      "76": 3195,
      "eeee": 3196,
      "told ": 3197,
      "Read ": 3198,
      "the p": 3199,
      "olf ": 3200,
      "damn ": 3201,
      "ten": 3202,
      "to go ": 3203,
      "She ": 3204,
      "money": 3205,
      "a little ": 3206,
      "iss ": 3207,
      "worth ": 3208,
      "import": 3209,
      "num": 3210,
      "s-": 3211,
      "Bur": 3212,
      "works ": 3213,
      "Green ": 3214,
      "Cap": 3215,
      ": A ": 3216,
      "fron": 3217,
      "shop ": 3218,
      "youtube.com/": 3219,
      "test": 3220,
      "onom": 3221,
      "wish ": 3222,
      "Cal": 3223,
      "__": 3224,
      "doc": 3225,
      "ett": 3226,
      "present": 3227,
      "ba": 3228,
      "all of ": 3229,
      "learn ": 3230,
      "ugg": 3231,
      "chat": 3232,
      "iz ": 3233,
      "cas": 3234,
      "apprec": 3235,
      "ALL": 3236,
      "- The ": 3237,
      "earch": 3238,
      "EN ": 3239,
      "43": 3240,
      "io": 3241,
      ": http://bit.ly/2": 3242,
      "cost": 3243,
      "to my ": 3244,
      ", you ": 3245,
      "have been ": 3246,
      "hr": 3247,
      "http://tr.im/": 3248,
      "Del": 3249,
      "box": 3250,
      "ttle": 3251,
      "weet": 3252,
      "Like ": 3253,
      "prene": 3254,
      "oll ": 3255,
      "a-": 3256,
      "on #": 3257,
      "dream": 3258,
      "oy": 3259,
      "Av": 3260,
      "once ": 3261,
      "luck": 3262,
      "wed": 3263,
      "baby ": 3264,
      "chance ": 3265,
      "this week": 3266,
      "far": 3267,
      "on-": 3268,
      "thanks for the ": 3269,
      "nor": 3270,
      "ology ": 3271,
      "dep": 3272,
      "plic": 3273,
      "probably ": 3274,
      "called ": 3275,
      "Q ": 3276,
      "es are ": 3277,
      "ned": 3278,
      "You can ": 3279,
      "After ": 3280,
      "interview ": 3281,
      "gift ": 3282,
      "ark ": 3283,
      "esp": 3284,
      ". . ": 3285,
      "Ow": 3286,
      "yes ": 3287,
      "for $": 3288,
      "Some ": 3289,
      "late ": 3290,
      "http://bud": 3291,
      "dig": 3292,
      "ing?": 3293,
      "Red": 3294,
      "\t\t": 3295,
      "wit ": 3296,
      "AL ": 3297,
      "http://budurl.com/": 3298,
      "cc/": 3299,
      "98": 3300,
      "kind": 3301,
      "Lol": 3302,
      "Wind": 3303,
      "State ": 3304,
      ". It's ": 3305,
      "Anyone ": 3306,
      "bal": 3307,
      "e\" ": 3308,
      "Mat": 3309,
      "DV": 3310,
      "agg": 3311,
      "NY ": 3312,
      "TT": 3313,
      "though ": 3314,
      "between ": 3315,
      "concer": 3316,
      "yo ": 3317,
      "fail": 3318,
      "en, ": 3319,
      "Nov ": 3320,
      "sounds ": 3321,
      "support": 3322,
      "forget ": 3323,
      "& @": 3324,
      "» ": 3325,
      "join": 3326,
      "chat ": 3327,
      "Sunday ": 3328,
      "Succ": 3329,
      "ed that ": 3330,
      "oke ": 3331,
      "rece": 3332,
      "boy ": 3333,
      ": http://www.": 3334,
      "Ass": 3335,
      "ering ": 3336,
      "it out ": 3337,
      "DAY ": 3338,
      "DM": 3339,
      "2009/": 3340,
      "Reg": 3341,
      "ality ": 3342,
      ":00": 3343,
      "CN": 3344,
      "Use ": 3345,
      "sum": 3346,
      "cent": 3347,
      "tweets ": 3348,
      "web ": 3349,
      "fig": 3350,
      "rat": 3351,
      "FA": 3352,
      "fast ": 3353,
      "Man ": 3354,
      "Some": 3355,
      "aint ": 3356,
      "WE": 3357,
      "ce": 3358,
      "2010": 3359,
      ".html": 3360,
      "dinner ": 3361,
      "it to ": 3362,
      "going to be ": 3363,
      "y of ": 3364,
      "ing on ": 3365,
      "GA": 3366,
      "unk": 3367,
      "followers": 3368,
      "http://twitpic.com/q": 3369,
      "Does ": 3370,
      "store ": 3371,
      "ept": 3372,
      ": http://bit.ly/3": 3373,
      "against ": 3374,
      "Ben": 3375,
      "Dam": 3376,
      "lad": 3377,
      "met": 3378,
      "join ": 3379,
      ": F": 3380,
      "Lu": 3381,
      "PM ": 3382,
      "Exc": 3383,
      "ox ": 3384,
      "Should ": 3385,
      "12-0": 3386,
      "adio": 3387,
      "ert": 3388,
      "icks ": 3389,
      "   ": 3390,
      "hy": 3391,
      "soon ": 3392,
      "thats ": 3393,
      "Stor": 3394,
      "s.com": 3395,
      "PS": 3396,
      "light": 3397,
      "Cam": 3398,
      "announc": 3399,
      "ird ": 3400,
      "#fb": 3401,
      "stem ": 3402,
      "small ": 3403,
      "movie": 3404,
      ";-": 3405,
      "more than ": 3406,
      "local ": 3407,
      "vertis": 3408,
      "link": 3409,
      "remember ": 3410,
      "curr": 3411,
      "Show": 3412,
      "(via ": 3413,
      "become ": 3414,
      "Den": 3415,
      "light ": 3416,
      "3r": 3417,
      "vs. ": 3418,
      "http://yfrog.com/": 3419,
      "You're ": 3420,
      "OF ": 3421,
      "Mom": 3422,
      "pay ": 3423,
      "rob": 3424,
      "trad": 3425,
      "!\n": 3426,
      "BI": 3427,
      "one. ": 3428,
      "tast": 3429,
      "vel": 3430,
      "asy ": 3431,
      "oft ": 3432,
      "team": 3433,
      "ears ": 3434,
      "#FF": 3435,
      "\t2009-12-0": 3436,
      "school": 3437,
      "Pet": 3438,
      "http://tinyurl.com/yz": 3439,
      "inj": 3440,
      "driv": 3441,
      "Week ": 3442,
      "SO": 3443,
      "bit": 3444,
      "like the ": 3445,
      "New York ": 3446,
      "sale ": 3447,
      "meeting ": 3448,
      "rid": 3449,
      "! :)": 3450,
      "Chicago ": 3451,
      "cks": 3452,
      "launch": 3453,
      "Cha": 3454,
      "God": 3455,
      "fa": 3456,
      "ump ": 3457,
      "band ": 3458,
      "dog ": 3459,
      "Help ": 3460,
      "ator": 3461,
      "LOVE ": 3462,
      "Prof": 3463,
      "$$": 3464,
      "mean": 3465,
      "ina": 3466,
      "EC": 3467,
      "umblr.com/": 3468,
      "Soc": 3469,
      "ed at ": 3470,
      "one of the ": 3471,
      "I'm not ": 3472,
      "MY ": 3473,
      "let me ": 3474,
      "TR": 3475,
      "ing up ": 3476,
      "RT: ": 3477,
      "by the ": 3478,
      "Mee": 3479,
      "04": 3480,
      "86": 3481,
      "Any ": 3482,
      "BU": 3483,
      "ards ": 3484,
      "Miam": 3485,
      "85": 3486,
      "Hu": 3487,
      "er is ": 3488,
      "Girl": 3489,
      "Mu": 3490,
      "yeah ": 3491,
      "cred": 3492,
      "ington ": 3493,
      "rew": 3494,
      "ocol": 3495,
      "Here ": 3496,
      "tip": 3497,
      "... http://bit.ly/6": 3498,
      "How": 3499,
      "Holiday ": 3500,
      "hind ": 3501,
      "itely ": 3502,
      "omb": 3503,
      "just": 3504,
      ". It ": 3505,
      "I get ": 3506,
      "Enjo": 3507,
      "wanna ": 3508,
      "Another ": 3509,
      "contin": 3510,
      "tun": 3511,
      "Supp": 3512,
      "oods ": 3513,
      "Florid": 3514,
      "ES ": 3515,
      "Octo": 3516,
      "Dat": 3517,
      "\n #": 3518,
      "ban": 3519,
      "ek": 3520,
      "ital": 3521,
      "you to ": 3522,
      ". Th": 3523,
      "95": 3524,
      "net/": 3525,
      "gener": 3526,
      "ma ": 3527,
      "ture": 3528,
      "New blog ": 3529,
      "to/": 3530,
      "me.": 3531,
      "Pat": 3532,
      "nov": 3533,
      "Manag": 3534,
      "ai ": 3535,
      "sho": 3536,
      "er - ": 3537,
      "oud": 3538,
      "I will ": 3539,
      "RT @M": 3540,
      "visit ": 3541,
      "shop": 3542,
      "stem": 3543,
      "har": 3544,
      "green": 3545,
      "RT @m": 3546,
      "ello ": 3547,
      "stand ": 3548,
      "deb": 3549,
      "Music": 3550,
      "Tweet ": 3551,
      "discus": 3552,
      "energ": 3553,
      "Daily ": 3554,
      "http://su.pr/": 3555,
      ". N": 3556,
      "ells ": 3557,
      "lost ": 3558,
      "conf": 3559,
      "Franc": 3560,
      "funny ": 3561,
      "Det": 3562,
      "this weekend": 3563,
      "Health": 3564,
      "keep": 3565,
      "... More ": 3566,
      "eak ": 3567,
      "buil": 3568,
      "ference ": 3569,
      "ism ": 3570,
      "... http://bit.ly/5": 3571,
      "ih": 3572,
      "care": 3573,
      "Sen": 3574,
      "pract": 3575,
      "GI": 3576,
      "aw ": 3577,
      "ashion ": 3578,
      "day.": 3579,
      "websit": 3580,
      "Saturday ": 3581,
      "imag": 3582,
      "me to ": 3583,
      "BR": 3584,
      "at www.": 3585,
      "season": 3586,
      "complet": 3587,
      "gn": 3588,
      "hor": 3589,
      "... More for ": 3590,
      "nel ": 3591,
      "aster ": 3592,
      "app ": 3593,
      "summ": 3594,
      "for you": 3595,
      "enjoy ": 3596,
      "roll": 3597,
      "sorry ": 3598,
      "custom": 3599,
      "elec": 3600,
      "yourself ": 3601,
      "cover ": 3602,
      "eat": 3603,
      "taking ": 3604,
      "inking ": 3605,
      "\t2009-09": 3606,
      "NOW": 3607,
      "http://tumblr.com/": 3608,
      "tor": 3609,
      ", so ": 3610,
      "Offic": 3611,
      " http://bit.ly/": 3612,
      "du": 3613,
      "direct": 3614,
      "they are ": 3615,
      "icul": 3616,
      ":30 ": 3617,
      "organ": 3618,
      "cant ": 3619,
      "Let's ": 3620,
      "Youn": 3621,
      "band": 3622,
      "we can ": 3623,
      "dou": 3624,
      "iT": 3625,
      "recomm": 3626,
      "% off ": 3627,
      "aly": 3628,
      "leave ": 3629,
      "http://tinyurl.com/yj": 3630,
      "COM": 3631,
      "SM": 3632,
      "ger ": 3633,
      "estiv": 3634,
      "photo ": 3635,
      "friday ": 3636,
      "day!": 3637,
      "idea ": 3638,
      "the f": 3639,
      "black": 3640,
      "... http://bit.ly/7": 3641,
      "Watching ": 3642,
      "Dig": 3643,
      "FL": 3644,
      "ica ": 3645,
      "nothing ": 3646,
      "pay": 3647,
      "? http://bit.ly/": 3648,
      "Tig": 3649,
      "agre": 3650,
      "aily": 3651,
      "West ": 3652,
      "Sw": 3653,
      "far ": 3654,
      "ster ": 3655,
      "Black": 3656,
      "Radio ": 3657,
      "la ": 3658,
      "ream ": 3659,
      "away": 3660,
      "town": 3661,
      "estion": 3662,
      "lip.": 3663,
      "Ros": 3664,
      "http://www.youtube.com/": 3665,
      "deal ": 3666,
      "ahoo": 3667,
      "flu": 3668,
      "DM ": 3669,
      "le, ": 3670,
      "acks ": 3671,
      "32": 3672,
      "goes ": 3673,
      "social media ": 3674,
      "II": 3675,
      "May": 3676,
      "cri": 3677,
      "waiting ": 3678,
      "cause ": 3679,
      "epis": 3680,
      "Run": 3681,
      "Green": 3682,
      "Here's ": 3683,
      "Loc": 3684,
      "PL": 3685,
      "'ll be ": 3686,
      ":00 ": 3687,
      "food": 3688,
      "http://tinyurl.com/yk": 3689,
      "hours ": 3690,
      "ki": 3691,
      "ed! ": 3692,
      "wind": 3693,
      "day! ": 3694,
      "check": 3695,
      "WO": 3696,
      "Bri": 3697,
      "nigg": 3698,
      "Sol": 3699,
      "black ": 3700,
      "Bel": 3701,
      "World": 3702,
      "ED": 3703,
      "Rich": 3704,
      "e of ": 3705,
      "Book ": 3706,
      "Lead": 3707,
      "Wa": 3708,
      "........": 3709,
      "01": 3710,
      "wear": 3711,
      "eav": 3712,
      "vern": 3713,
      "extr": 3714,
      "yet ": 3715,
      "ed!": 3716,
      "talk": 3717,
      "national ": 3718,
      "Willi": 3719,
      "sign ": 3720,
      "e, but ": 3721,
      "Wedn": 3722,
      "’t ": 3723,
      "... http://bit.ly/8": 3724,
      ".cc/": 3725,
      "JO": 3726,
      "ing...": 3727,
      "Che": 3728,
      "clus": 3729,
      "record": 3730,
      "illion": 3731,
      "Network ": 3732,
      "asp": 3733,
      "sugg": 3734,
      "Keep ": 3735,
      "inform": 3736,
      "Star ": 3737,
      "digg": 3738,
      "y_": 3739,
      "a t": 3740,
      "3.": 3741,
      "Cle": 3742,
      "Night ": 3743,
      "azz": 3744,
      ": P": 3745,
      "there's ": 3746,
      "mc": 3747,
      "Indi": 3748,
      "EST ": 3749,
      "http://tumblr.com/x": 3750,
      "save ": 3751,
      "wood": 3752,
      "office ": 3753,
      "Start": 3754,
      "sil": 3755,
      "Apple ": 3756,
      "#p": 3757,
      "Giv": 3758,
      "OOOO": 3759,
      "eu/": 3760,
      "else": 3761,
      "others ": 3762,
      "ing out ": 3763,
      "ession ": 3764,
      "simp": 3765,
      "crazy ": 3766,
      "cook": 3767,
      "def": 3768,
      "move ": 3769,
      "this morn": 3770,
      "ace.com/": 3771,
      "Stud": 3772,
      "David ": 3773,
      "log": 3774,
      "Life": 3775,
      "to your ": 3776,
      "white ": 3777,
      "that is ": 3778,
      "bed ": 3779,
      "leav": 3780,
      "Work": 3781,
      "Party ": 3782,
      "they're ": 3783,
      "fall": 3784,
      "Most ": 3785,
      "short.": 3786,
      "grow": 3787,
      ". But ": 3788,
      "ac ": 3789,
      "fall ": 3790,
      "techn": 3791,
      "Ind": 3792,
      "TS": 3793,
      "ler ": 3794,
      "month ": 3795,
      "FOR ": 3796,
      "Bay ": 3797,
      "words ": 3798,
      "class ": 3799,
      "posted ": 3800,
      "ino ": 3801,
      "dom": 3802,
      "Thank you": 3803,
      "Game ": 3804,
      "Micros": 3805,
      "Leg": 3806,
      "- S": 3807,
      "THIS ": 3808,
      "reading ": 3809,
      "shows ": 3810,
      "!!  ": 3811,
      "?! ": 3812,
      "traff": 3813,
      "men ": 3814,
      "pic.gd/": 3815,
      "design ": 3816,
      "beat ": 3817,
      "funny": 3818,
      "Exp": 3819,
      "url4.": 3820,
      "Bas": 3821,
      ".com/?": 3822,
      "url4.eu/": 3823,
      "ted ": 3824,
      "forman": 3825,
      "96": 3826,
      "Brand": 3827,
      "oop": 3828,
      "24 ": 3829,
      "danc": 3830,
      ", C": 3831,
      "law": 3832,
      "arr": 3833,
      "http://blip.": 3834,
      "Jon": 3835,
      "set": 3836,
      "Er": 3837,
      "I'll be ": 3838,
      "public": 3839,
      "99 ": 3840,
      "Hun": 3841,
      "http://ff.im/-": 3842,
      "03": 3843,
      "order ": 3844,
      "plan ": 3845,
      "Techn": 3846,
      "search ": 3847,
      "eez": 3848,
      "THE": 3849,
      "Watch": 3850,
      "easy ": 3851,
      "share ": 3852,
      "ers and ": 3853,
      "LOL ": 3854,
      "@Ch": 3855,
      "AK": 3856,
      "I need ": 3857,
      "of your ": 3858,
      "whats ": 3859,
      "\t2009-10-": 3860,
      "oftw": 3861,
      "s' ": 3862,
      "Publ": 3863,
      "ready for ": 3864,
      "Or ": 3865,
      "iliate ": 3866,
      "I would ": 3867,
      "pick ": 3868,
      "power": 3869,
      "Going to ": 3870,
      "ok ": 3871,
      "company ": 3872,
      "grad": 3873,
      "blogspot": 3874,
      "mail": 3875,
      "es - ": 3876,
      ", S": 3877,
      "AZ": 3878,
      "Cy": 3879,
      "econom": 3880,
      "opport": 3881,
      "NYC ": 3882,
      "ern ": 3883,
      ".mp/": 3884,
      "case ": 3885,
      "dea": 3886,
      "nu": 3887,
      "1-": 3888,
      "Hear": 3889,
      "Won": 3890,
      "excited ": 3891,
      "CL": 3892,
      "kk": 3893,
      "oft": 3894,
      "takes ": 3895,
      "resul": 3896,
      "Magaz": 3897,
      "the h": 3898,
      "PM": 3899,
      "cur": 3900,
      "Kid": 3901,
      "er for ": 3902,
      "Adv": 3903,
      "@al": 3904,
      "\" - ": 3905,
      "missed ": 3906,
      "tain ": 3907,
      "I could ": 3908,
      "star ": 3909,
      "AM ": 3910,
      "Dro": 3911,
      "j.mp/": 3912,
      "ing at ": 3913,
      "Int": 3914,
      "green ": 3915,
      "Rock ": 3916,
      "mid": 3917,
      "54": 3918,
      ": http://bit.ly/4": 3919,
      "fm/~": 3920,
      "piec": 3921,
      "Foot": 3922,
      "I like ": 3923,
      "brand": 3924,
      "has a ": 3925,
      "feed": 3926,
      ". P": 3927,
      ", M": 3928,
      "cand": 3929,
      "Have you ": 3930,
      "cut": 3931,
      "report": 3932,
      "Bost": 3933,
      "ms": 3934,
      "includ": 3935,
      "pack": 3936,
      "lose ": 3937,
      "about": 3938,
      "osp": 3939,
      "aaaa": 3940,
      "Facebook": 3941,
      ". You ": 3942,
      "running ": 3943,
      "en's ": 3944,
      "http://s": 3945,
      "sure": 3946,
      "Design": 3947,
      "service ": 3948,
      "2nd ": 3949,
      "sent ": 3950,
      "http://blip.fm/~": 3951,
      "ore": 3952,
      "ress": 3953,
      "Well": 3954,
      "three ": 3955,
      "stri": 3956,
      "s & ": 3957,
      "RT @d": 3958,
      "into the ": 3959,
      "stra": 3960,
      "water ": 3961,
      "review": 3962,
      "invest": 3963,
      "second ": 3964,
      "Chris ": 3965,
      "ger": 3966,
      "may": 3967,
      "pan": 3968,
      "ony ": 3969,
      "itor": 3970,
      "hair ": 3971,
      "ED ": 3972,
      "Red ": 3973,
      "mic": 3974,
      "ele": 3975,
      "Si": 3976,
      "? #": 3977,
      "media": 3978,
      "totally ": 3979,
      "National ": 3980,
      "email": 3981,
      "t-": 3982,
      "lie ": 3983,
      "with your ": 3984,
      "Now": 3985,
      "develop": 3986,
      "Working ": 3987,
      "Jer": 3988,
      "hist": 3989,
      "blogg": 3990,
      "tit": 3991,
      "?v": 3992,
      "BL": 3993,
      "84": 3994,
      "ready to ": 3995,
      ". F": 3996,
      "at #": 3997,
      "Interest": 3998,
      "Sn": 3999,
      "even": 4000,
      "point": 4001,
      "Holly": 4002,
      "to hear ": 4003,
      "ournal": 4004,
      "I hope ": 4005,
      "Look ": 4006,
      "unk ": 4007,
      "64": 4008,
      "alifor": 4009,
      "a and ": 4010,
      "Las ": 4011,
      "dev": 4012,
      "heart ": 4013,
      "HT ": 4014,
      "proc": 4015,
      "mad": 4016,
      "MS": 4017,
      "Us": 4018,
      "football ": 4019,
      "write ": 4020,
      "o.": 4021,
      "GR": 4022,
      "Nic": 4023,
      "tee": 4024,
      "get a ": 4025,
      "@I": 4026,
      "s... ": 4027,
      "at least ": 4028,
      "10/": 4029,
      "Just got ": 4030,
      "short.to/": 4031,
      "OK": 4032,
      "can be ": 4033,
      "GO ": 4034,
      "Jan": 4035,
      ": H": 4036,
      "igin": 4037,
      "Well ": 4038,
      "iet": 4039,
      "@th": 4040,
      "?\" ": 4041,
      "vs ": 4042,
      "?v=": 4043,
      "Spr": 4044,
      "Club ": 4045,
      "in #": 4046,
      "What": 4047,
      "women ": 4048,
      "bed": 4049,
      "ds are ": 4050,
      "facebook": 4051,
      ": D": 4052,
      "rect ": 4053,
      "last night ": 4054,
      "Call ": 4055,
      "sport": 4056,
      "? http://blip.fm/~": 4057,
      "tickets ": 4058,
      "! http://bit.ly/1": 4059,
      "Wel": 4060,
      "Try ": 4061,
      "ed out ": 4062,
      "weet ": 4063,
      "ret ": 4064,
      "typ": 4065,
      "childr": 4066,
      "ills ": 4067,
      ". We ": 4068,
      "Prom": 4069,
      "fans ": 4070,
      "Mem": 4071,
      "Nice ": 4072,
      "U.S. ": 4073,
      "Bal": 4074,
      "to a ": 4075,
      "October ": 4076,
      "2\t5": 4077,
      "@sh": 4078,
      "aim": 4079,
      "board ": 4080,
      "Two ": 4081,
      "Ter": 4082,
      "half ": 4083,
      "31": 4084,
      "bring ": 4085,
      "track ": 4086,
      "ident": 4087,
      "ativ": 4088,
      "NFL ": 4089,
      "ized ": 4090,
      "wonder ": 4091,
      "the same ": 4092,
      "I feel ": 4093,
      ". (": 4094,
      "wrong ": 4095,
      "manag": 4096,
      "meet": 4097,
      "Hop": 4098,
      "KS": 4099,
      "y? ": 4100,
      "you have ": 4101,
      "http://tinyurl.com/l": 4102,
      "up on ": 4103,
      "kind of ": 4104,
      "WI": 4105,
      "will": 4106,
      "es on ": 4107,
      "http://tinyurl.com/yh": 4108,
      "different ": 4109,
      "@V": 4110,
      "ury ": 4111,
      "super ": 4112,
      "ross": 4113,
      "wow": 4114,
      ". http://bit.ly/1": 4115,
      "uter ": 4116,
      "Business": 4117,
      "Link": 4118,
      "enjoy": 4119,
      "<--": 4120,
      "ouch ": 4121,
      "radio ": 4122,
      "lobal ": 4123,
      "Sea": 4124,
      "le of ": 4125,
      "contr": 4126,
      "speak": 4127,
      "<3": 4128,
      "jam": 4129,
      "Need ": 4130,
      "@W": 4131,
      "pain": 4132,
      "ilar": 4133,
      "eek": 4134,
      "itic": 4135,
      "@st": 4136,
      "lunch ": 4137,
      "is now ": 4138,
      "short ": 4139,
      "in this ": 4140,
      "Buy ": 4141,
      "ency ": 4142,
      "Next ": 4143,
      "Ra": 4144,
      "up and ": 4145,
      "ro ": 4146,
      "haw": 4147,
      "me, ": 4148,
      "vol": 4149,
      "other": 4150,
      "trip ": 4151,
      "group ": 4152,
      "cuz ": 4153,
      "=)": 4154,
      "s at ": 4155,
      "myspace.com/": 4156,
      "fly": 4157,
      "_ ": 4158,
      "artist": 4159,
      "shot": 4160,
      "respon": 4161,
      "Artic": 4162,
      "Ur": 4163,
      "rest ": 4164,
      "BA": 4165,
      "jobs": 4166,
      "Summ": 4167,
      "bout ": 4168,
      "@DJ": 4169,
      "e... ": 4170,
      "learn": 4171,
      "starts ": 4172,
      "Had ": 4173,
      "Ma": 4174,
      "ward": 4175,
      "auth": 4176,
      "sen": 4177,
      "consid": 4178,
      "ili": 4179,
      "gett": 4180,
      "ET": 4181,
      "foc": 4182,
      "Port": 4183,
      "ott ": 4184,
      "ville ": 4185,
      "Street ": 4186,
      "rock ": 4187,
      "drive ": 4188,
      "Bob": 4189,
      "Wash": 4190,
      "dy": 4191,
      "met ": 4192,
      "having a ": 4193,
      "goog": 4194,
      "Lou": 4195,
      "RS": 4196,
      "EX": 4197,
      "Hi": 4198,
      "iously ": 4199,
      "definitely ": 4200,
      "Celebr": 4201,
      "chick": 4202,
      "perfect ": 4203,
      "Hav": 4204,
      "uter": 4205,
      "ects ": 4206,
      "rah": 4207,
      "H1": 4208,
      "and a ": 4209,
      "rt ": 4210,
      "was a ": 4211,
      "ellow ": 4212,
      "seeing ": 4213,
      "Eng": 4214,
      "Bill ": 4215,
      "GRE": 4216,
      "Art ": 4217,
      "did you ": 4218,
      "a lot of ": 4219,
      "nation": 4220,
      ", it's ": 4221,
      "had a ": 4222,
      "gi": 4223,
      "bert ": 4224,
      "Over": 4225,
      "WT": 4226,
      "one, ": 4227,
      "bit ": 4228,
      "watch?v=": 4229,
      "anim": 4230,
      "able to ": 4231,
      "Work ": 4232,
      "surv": 4233,
      "fan ": 4234,
      "looking for ": 4235,
      "olf": 4236,
      "Sar": 4237,
      "aliforn": 4238,
      ".. http://bit.ly/6": 4239,
      "tour": 4240,
      "iter": 4241,
      "oss ": 4242,
      "know what ": 4243,
      "mmm": 4244,
      "Sav": 4245,
      "Yes, ": 4246,
      "gh ": 4247,
      "000": 4248,
      "anke": 4249,
      "Sil": 4250,
      "bigg": 4251,
      "wis": 4252,
      "ext": 4253,
      "important ": 4254,
      "date ": 4255,
      "I want ": 4256,
      "UG": 4257,
      "shot ": 4258,
      "is it ": 4259,
      "21 ": 4260,
      "ism": 4261,
      "ppl ": 4262,
      "like to ": 4263,
      "OUT ": 4264,
      "Thanksgiv": 4265,
      "2-": 4266,
      "Cour": 4267,
      "kin": 4268,
      "up for ": 4269,
      "rap": 4270,
      "http://tinyurl.com/yg": 4271,
      "behind ": 4272,
      "expl": 4273,
      "close ": 4274,
      "laugh": 4275,
      "New Mo": 4276,
      "TON": 4277,
      "true ": 4278,
      "thank you ": 4279,
      "my new ": 4280,
      "Ru": 4281,
      "mul": 4282,
      "public ": 4283,
      "\t2009-10-2": 4284,
      "ly.": 4285,
      "ers are ": 4286,
      "eel ": 4287,
      "I've been ": 4288,
      "SI": 4289,
      "cul": 4290,
      "commun": 4291,
      "walk ": 4292,
      "ed: ": 4293,
      "ential ": 4294,
      "started ": 4295,
      "Train": 4296,
      "ers: ": 4297,
      "Search ": 4298,
      ". :)": 4299,
      "Word": 4300,
      "gave ": 4301,
      "mom ": 4302,
      "RT @J": 4303,
      "... http://ow.ly/16": 4304,
      "Every ": 4305,
      "Sto": 4306,
      "NOW ": 4307,
      "walk": 4308,
      "Gif": 4309,
      "Way": 4310,
      "aul ": 4311,
      "Too ": 4312,
      "Vo": 4313,
      "idea": 4314,
      "birthday ": 4315,
      ".. http://bit.ly/5": 4316,
      ", T": 4317,
      "gan": 4318,
      "ier": 4319,
      "better than ": 4320,
      "ual": 4321,
      "s from ": 4322,
      "Glad ": 4323,
      "Cra": 4324,
      "family": 4325,
      "@v": 4326,
      "Design ": 4327,
      "— ": 4328,
      "San Die": 4329,
      "its": 4330,
      "HI": 4331,
      "ral": 4332,
      "break ": 4333,
      "on this ": 4334,
      "thre": 4335,
      "a big ": 4336,
      "Proj": 4337,
      "NYC": 4338,
      "ana": 4339,
      "ney": 4340,
      "ishing ": 4341,
      "VIDE": 4342,
      "o. ": 4343,
      "edu": 4344,
      "SO ": 4345,
      "sell ": 4346,
      "http://url4.eu/": 4347,
      "Hey": 4348,
      "is that ": 4349,
      "http://tinyurl.com/yf": 4350,
      "TH ": 4351,
      "den": 4352,
      "books ": 4353,
      "of our ": 4354,
      "pet": 4355,
      "over the ": 4356,
      "till ": 4357,
      "cott": 4358,
      "ier ": 4359,
      "at a ": 4360,
      "interview": 4361,
      "Morning ": 4362,
      "iTun": 4363,
      "p=": 4364,
      "ically ": 4365,
      "regist": 4366,
      "am/": 4367,
      "ung": 4368,
      "plann": 4369,
      "Univers": 4370,
      "me. ": 4371,
      "allen": 4372,
      "may be ": 4373,
      "preneur": 4374,
      "ing.  ": 4375,
      "pa": 4376,
      "in to ": 4377,
      "Mike ": 4378,
      "5\t": 4379,
      "doll": 4380,
      "ston ": 4381,
      "es the ": 4382,
      "super": 4383,
      "kr": 4384,
      "ooo ": 4385,
      "grats ": 4386,
      "ers. ": 4387,
      "’ ": 4388,
      "ource ": 4389,
      "you.": 4390,
      "hhhh": 4391,
      "number ": 4392,
      "eh": 4393,
      "Shar": 4394,
      "future ": 4395,
      "pic ": 4396,
      "today! ": 4397,
      "CK": 4398,
      "lets ": 4399,
      "shoot ": 4400,
      "flo": 4401,
      "Family ": 4402,
      "coffee ": 4403,
      "Cas": 4404,
      "sand": 4405,
      ": \n": 4406,
      "wait": 4407,
      ";-)": 4408,
      "dud": 4409,
      "fuck": 4410,
      "http://tinyurl.com/yl": 4411,
      "interesting ": 4412,
      ".org/": 4413,
      "mer": 4414,
      "fire ": 4415,
      "High ": 4416,
      "ene ": 4417,
      "!!!!!": 4418,
      "http://twitpic.com/n": 4419,
      "Dall": 4420,
      "thanks for ": 4421,
      "weather ": 4422,
      "40 ": 4423,
      "53": 4424,
      "som": 4425,
      "a - ": 4426,
      "aylor ": 4427,
      "bod": 4428,
      "to have ": 4429,
      "bc": 4430,
      ". T": 4431,
      "d, ": 4432,
      "ado ": 4433,
      "travel": 4434,
      ">>": 4435,
      "struc": 4436,
      "ory": 4437,
      "elly": 4438,
      "is on ": 4439,
      "maj": 4440,
      "DC": 4441,
      "fant": 4442,
      "South ": 4443,
      "es? ": 4444,
      "Tech": 4445,
      "afterno": 4446,
      "Post ": 4447,
      "rand": 4448,
      "ington": 4449,
      "sd": 4450,
      "ern": 4451,
      "means ": 4452,
      "FT": 4453,
      "Mad": 4454,
      "first": 4455,
      "field ": 4456,
      "Just": 4457,
      "pur": 4458,
      "problem": 4459,
      "at http://": 4460,
      "inspir": 4461,
      "million ": 4462,
      "past ": 4463,
      "z.us/": 4464,
      "i love ": 4465,
      "Check out the ": 4466,
      "http://www.youtube.com/watch?v=": 4467,
      "Over ": 4468,
      "tten ": 4469,
      "ancial ": 4470,
      "Trad": 4471,
      "PR ": 4472,
      "tg": 4473,
      "Center ": 4474,
      "weeks ": 4475,
      "cy": 4476,
      ". So ": 4477,
      "'S ": 4478,
      "Du": 4479,
      "http://tinyurl.com/n": 4480,
      "thank": 4481,
      ", I'm ": 4482,
      "Dep": 4483,
      "Lar": 4484,
      "ad.": 4485,
      "tips ": 4486,
      "lots of ": 4487,
      "Lin": 4488,
      "CH ": 4489,
      "02": 4490,
      "s, and ": 4491,
      "indust": 4492,
      "cut ": 4493,
      "org ": 4494,
      "in C": 4495,
      "&#39; ": 4496,
      "power ": 4497,
      "HAHA": 4498,
      ";) ": 4499,
      "wine ": 4500,
      "Class": 4501,
      "Obama": 4502,
      "drink ": 4503,
      "Jackson ": 4504,
      "efully ": 4505,
      "ing with ": 4506,
      "today, ": 4507,
      "appreciate ": 4508,
      "just got ": 4509,
      "FREE": 4510,
      "CB": 4511,
      "spr": 4512,
      "club": 4513,
      "74": 4514,
      "RT: @": 4515,
      "to re": 4516,
      "love": 4517,
      "Add": 4518,
      "Div": 4519,
      "avid": 4520,
      "Gi": 4521,
      "more": 4522,
      "ly. ": 4523,
      "Hal": 4524,
      "Jay": 4525,
      "Ry": 4526,
      "Squ": 4527,
      "UM": 4528,
      "when I ": 4529,
      "mou": 4530,
      "eme ": 4531,
      "94": 4532,
      "T-": 4533,
      "lyn": 4534,
      "cod": 4535,
      "Exper": 4536,
      "fact": 4537,
      "ers.": 4538,
      "php": 4539,
      "tech": 4540,
      "miss": 4541,
      "Met": 4542,
      "lunch": 4543,
      "Pri": 4544,
      "Cu": 4545,
      "ol ": 4546,
      "erv": 4547,
      "ing your ": 4548,
      "out the ": 4549,
      "that you ": 4550,
      "then": 4551,
      "Hom": 4552,
      "Way ": 4553,
      "Would ": 4554,
      "boys ": 4555,
      "3-": 4556,
      "pat": 4557,
      "are the ": 4558,
      "Review": 4559,
      "AW": 4560,
      "one.": 4561,
      "near ": 4562,
      "CR": 4563,
      "NO ": 4564,
      "acking ": 4565,
      "12/": 4566,
      "film": 4567,
      "pot": 4568,
      "AY": 4569,
      "stup": 4570,
      "fit": 4571,
      "ucking ": 4572,
      "writing ": 4573,
      "bri": 4574,
      "icks": 4575,
      "$5": 4576,
      "@_": 4577,
      "Vegas": 4578,
      "......": 4579,
      "card": 4580,
      "Nov. ": 4581,
      "Job ": 4582,
      "und": 4583,
      "catch ": 4584,
      "board": 4585,
      "bow": 4586,
      "equ": 4587,
      "Windows ": 4588,
      "@O": 4589,
      "Times ": 4590,
      "market ": 4591,
      "on our ": 4592,
      "acy ": 4593,
      "scar": 4594,
      "arch": 4595,
      "uni": 4596,
      "that the ": 4597,
      "pick": 4598,
      "film ": 4599,
      "sales ": 4600,
      "22 ": 4601,
      "you!": 4602,
      "! http://www.": 4603,
      "up with ": 4604,
      "Enter": 4605,
      "tired ": 4606,
      "rav": 4607,
      "article": 4608,
      "CS": 4609,
      "bag": 4610,
      "that I ": 4611,
      "but": 4612,
      "is so ": 4613,
      ".. http://": 4614,
      "luck ": 4615,
      "rais": 4616,
      "we'll ": 4617,
      "come to ": 4618,
      "wonderful ": 4619,
      "Microsoft ": 4620,
      "1/": 4621,
      "QU": 4622,
      "Sam": 4623,
      "ical": 4624,
      "action": 4625,
      "about to ": 4626,
      "23 ": 4627,
      "activ": 4628,
      "create ": 4629,
      "Hot ": 4630,
      "PE": 4631,
      "lil ": 4632,
      "make it ": 4633,
      "Never ": 4634,
      ".es/": 4635,
      "finished ": 4636,
      "masha": 4637,
      "Elec": 4638,
      "tool": 4639,
      "social": 4640,
      "bs ": 4641,
      "er #": 4642,
      "itive ": 4643,
      "Food ": 4644,
      "TS ": 4645,
      "i was ": 4646,
      "audi": 4647,
      "action ": 4648,
      "F at ": 4649,
      "right now ": 4650,
      "order": 4651,
      "ured ": 4652,
      "woman ": 4653,
      "da": 4654,
      " @j": 4655,
      "ME ": 4656,
      "VO": 4657,
      "tho": 4658,
      "Invest": 4659,
      "th, ": 4660,
      "educ": 4661,
      "http://tinyurl.com/m": 4662,
      "Francis": 4663,
      "ed me ": 4664,
      "Really ": 4665,
      "Mark ": 4666,
      "\n8": 4667,
      "Gener": 4668,
      "Law": 4669,
      "john": 4670,
      "It was ": 4671,
      "RT @D": 4672,
      "let's ": 4673,
      "WN": 4674,
      "Inf": 4675,
      "e, and ": 4676,
      "Tru": 4677,
      "gonna be ": 4678,
      "Canc": 4679,
      "Know ": 4680,
      "May ": 4681,
      "Inc": 4682,
      "Making ": 4683,
      ". And ": 4684,
      "Eur": 4685,
      "Progr": 4686,
      "saying ": 4687,
      "@br": 4688,
      "CD": 4689,
      "e.com/": 4690,
      "tape ": 4691,
      "), ": 4692,
      "mal": 4693,
      "anch": 4694,
      "click ": 4695,
      "code ": 4696,
      "scri": 4697,
      "Power ": 4698,
      "lot ": 4699,
      "quite ": 4700,
      "kl": 4701,
      "ages ": 4702,
      "that was ": 4703,
      "benef": 4704,
      "ings": 4705,
      "program ": 4706,
      "personal ": 4707,
      "Vol": 4708,
      "erson ": 4709,
      "you, ": 4710,
      "report ": 4711,
      "#follow": 4712,
      "Emp": 4713,
      "er than ": 4714,
      "Stay ": 4715,
      "Media": 4716,
      "Check this ": 4717,
      "yeah": 4718,
      "ONE ": 4719,
      "ead of ": 4720,
      "orge": 4721,
      "ed it ": 4722,
      "Check it out": 4723,
      "Ca": 4724,
      "Wil": 4725,
      "Winds are ": 4726,
      "Camp": 4727,
      "review ": 4728,
      "emin": 4729,
      "Open ": 4730,
      "yall ": 4731,
      "club ": 4732,
      "point ": 4733,
      "OP": 4734,
      "cold ": 4735,
      "8\t": 4736,
      "fel": 4737,
      "RT @K": 4738,
      "Cat": 4739,
      "wife ": 4740,
      "as the ": 4741,
      "sweet ": 4742,
      "used to ": 4743,
      "LIVE ": 4744,
      "solut": 4745,
      "6\t": 4746,
      "roduc": 4747,
      "pray": 4748,
      "Maybe ": 4749,
      "Seas": 4750,
      "lab": 4751,
      "sus": 4752,
      "sourc": 4753,
      "compet": 4754,
      "oose ": 4755,
      "@Mr": 4756,
      "Video": 4757,
      "Finally ": 4758,
      "73": 4759,
      "Care ": 4760,
      "FE": 4761,
      "bought ": 4762,
      "is an ": 4763,
      "sex ": 4764,
      "astic ": 4765,
      "tcot ": 4766,
      "iat": 4767,
      ". http://bit.ly/2": 4768,
      "record ": 4769,
      "together ": 4770,
      "Night": 4771,
      "ns ": 4772,
      "http://tiny.cc/": 4773,
      "na": 4774,
      "is in ": 4775,
      "ILL ": 4776,
      "album": 4777,
      "you've ": 4778,
      "http://ow.ly/B": 4779,
      "baby": 4780,
      "esh": 4781,
      "etc": 4782,
      "look at ": 4783,
      "compl": 4784,
      "Park ": 4785,
      "clean": 4786,
      "City": 4787,
      "DD": 4788,
      "Los ": 4789,
      "city ": 4790,
      "era ": 4791,
      "iel": 4792,
      "% of ": 4793,
      "test ": 4794,
      "version ": 4795,
      "ocolate ": 4796,
      "Full ": 4797,
      "ooking ": 4798,
      "ered ": 4799,
      "wear ": 4800,
      ", \"": 4801,
      "to help ": 4802,
      "Things ": 4803,
      "Blu": 4804,
      "take a ": 4805,
      "President ": 4806,
      "anti": 4807,
      "outside ": 4808,
      "ually ": 4809,
      "Can't wait ": 4810,
      "urch ": 4811,
      "fix": 4812,
      "biz": 4813,
      "we have ": 4814,
      "today.": 4815,
      "How To ": 4816,
      "Atlant": 4817,
      "Estate ": 4818,
      "EVER": 4819,
      "Twit": 4820,
      "rol ": 4821,
      "Gold": 4822,
      ". What ": 4823,
      "a bit ": 4824,
      "fire": 4825,
      "christ": 4826,
      "ike": 4827,
      "thru ": 4828,
      "New York": 4829,
      "it?": 4830,
      "!!!  ": 4831,
      "Press ": 4832,
      "Affiliate ": 4833,
      "me and ": 4834,
      "time.": 4835,
      "Miss": 4836,
      "North ": 4837,
      "sound": 4838,
      "! S": 4839,
      "she's ": 4840,
      "- @": 4841,
      "Your": 4842,
      "hahaha": 4843,
      "s) ": 4844,
      "side": 4845,
      "the first ": 4846,
      ", not ": 4847,
      "urity ": 4848,
      "Blogg": 4849,
      "Twil": 4850,
      "oftware ": 4851,
      "Smi": 4852,
      "lead ": 4853,
      "Aut": 4854,
      "Not": 4855,
      "ire": 4856,
      "account ": 4857,
      "bon": 4858,
      "y #": 4859,
      "Thanks to ": 4860,
      "travel ": 4861,
      "collec": 4862,
      "County ": 4863,
      "during ": 4864,
      "SU": 4865,
      "mail ": 4866,
      "question ": 4867,
      "ities": 4868,
      "Hi ": 4869,
      "http://pic.gd/": 4870,
      "hair": 4871,
      "Right ": 4872,
      "sick ": 4873,
      "reason ": 4874,
      "Thr": 4875,
      "Beat": 4876,
      "ability ": 4877,
      "Bow": 4878,
      "o-": 4879,
      "http://twi": 4880,
      "internet ": 4881,
      "Sales ": 4882,
      "due ": 4883,
      "These ": 4884,
      "this year": 4885,
      "shar.es/": 4886,
      "Give ": 4887,
      "big": 4888,
      "ij": 4889,
      "He's ": 4890,
      "success ": 4891,
      "Tonight ": 4892,
      "RT @k": 4893,
      "Everyone ": 4894,
      "studio ": 4895,
      "Fav": 4896,
      "Was ": 4897,
      "ica": 4898,
      "div": 4899,
      "wards ": 4900,
      "ground ": 4901,
      "\t2009-08": 4902,
      "tour ": 4903,
      "alread": 4904,
      "dead": 4905,
      "Little ": 4906,
      "girls ": 4907,
      "ram": 4908,
      "get the ": 4909,
      "official": 4910,
      "course ": 4911,
      "Home": 4912,
      "WOR": 4913,
      "! (": 4914,
      "mine ": 4915,
      "level": 4916,
      "Je": 4917,
      "commerc": 4918,
      "Listening to ": 4919,
      ". http://bit.ly/3": 4920,
      "83": 4921,
      "mel": 4922,
      "http://ping.fm/": 4923,
      "Mart": 4924,
      "ford ": 4925,
      "minutes ": 4926,
      "eber": 4927,
      "You are ": 4928,
      "tech ": 4929,
      "studi": 4930,
      "mention": 4931,
      "@z": 4932,
      "ision ": 4933,
      "Did you ": 4934,
      "GOO": 4935,
      "SC": 4936,
      "Thursday ": 4937,
      "you?": 4938,
      "Mix": 4939,
      "Key": 4940,
      "on.": 4941,
      "up, ": 4942,
      "Arch": 4943,
      "#FF ": 4944,
      ".am/": 4945,
      "tte ": 4946,
      "New blog post: ": 4947,
      "KT": 4948,
      "ST ": 4949,
      "performan": 4950,
      "DC ": 4951,
      "win a ": 4952,
      "y-": 4953,
      "cd": 4954,
      "off the ": 4955,
      "I do ": 4956,
      "ticket": 4957,
      "you'll ": 4958,
      "network": 4959,
      "via @add": 4960,
      "busy ": 4961,
      "ines ": 4962,
      "Deal": 4963,
      "Sub": 4964,
      "ed \"": 4965,
      "so, ": 4966,
      "surance ": 4967,
      "lmao": 4968,
      "Rus": 4969,
      "olv": 4970,
      "fight ": 4971,
      "gone ": 4972,
      "oul": 4973,
      "End ": 4974,
      ".. http://bit.ly/8": 4975,
      "SEO ": 4976,
      ": L": 4977,
      ".. http://bit.ly/7": 4978,
      "fli": 4979,
      "ane": 4980,
      ". - ": 4981,
      "http://ow.ly/z": 4982,
      "THAN": 4983,
      "( ": 4984,
      "Ash": 4985,
      "sam": 4986,
      "tar": 4987,
      "upload": 4988,
      "id=": 4989,
      "Part ": 4990,
      "appro": 4991,
      "! http://bit.ly/3": 4992,
      "aster": 4993,
      "Is it ": 4994,
      "works": 4995,
      "scor": 4996,
      "in, ": 4997,
      "Even ": 4998,
      "Beach ": 4999
    },
    "merges": [
      [
        "e",
        " "
      ],
      [
        "s",
        " "
      ],
      [
        "t",
        " "
      ],
      [
        "i",
        "n"
      ],
      [
        "t",
        "h"
      ],
      [
        "e",
        "r"
      ],
      [
        "a",
        "n"
      ],
      [
        "o",
        "n"
      ],
      [
        "d",
        " "
      ],
      [
        "y",
        " "
      ],
      [
        "o",
        "u"
      ],
      [
        "o",
        "r"
      ],
      [
        "o",
        " "
      ],
      [
        "t",
        "t"
      ],
      [
        "in",
        "g"
      ],
      [
        ".",
        " "
      ],
      [
        "i",
        "t"
      ],
      [
        "a",
        "r"
      ],
      [
        "e",
        "n"
      ],
      [
        "p",
        ":"
      ],
      [
        "/",
        "/"
      ],
      [
        "h",
        "tt"
      ],
      [
        "p:",
        "//"
      ],
      [
        "htt",
        "p://"
      ],
      [
        "a",
        "l"
      ],
      [
        "o",
        "m"
      ],
      [
        "ing",
        " "
      ],
      [
        "r",
        "e"
      ],
      [
        "a",
        " "
      ],
      [
        "th",
        "e "
      ],
      [
        "s",
        "t"
      ],
      [
        ",",
        " "
      ],
      [
        "a",
        "t"
      ],
      [
        "t",
        "o "
      ],
      [
        "l",
        "y"
      ],
      [
        ".",
        "."
      ],
      [
        "o",
        "w"
      ],
      [
        "i",
        "c"
      ],
      [
        "l",
        " "
      ],
      [
        "er",
        " "
      ],
      [
        "ly",
        "/"
      ],
      [
        ".",
        "ly/"
      ],
      [
        ":",
        " "
      ],
      [
        "e",
        "s"
      ],
      [
        "on",
        " "
      ],
      [
        "http://",
        "b"
      ],
      [
        "f",
        " "
      ],
      [
        "it",
        ".ly/"
      ],
      [
        "http://b",
        "it.ly/"
      ],
      [
        "a",
        "t "
      ],
      [
        "o",
        "o"
      ],
      [
        "c",
        "h"
      ],
      [
        "i",
        "s "
      ],
      [
        "or",
        " "
      ],
      [
        "y",
        "ou"
      ],
      [
        "in",
        " "
      ],
      [
        "k",
        " "
      ],
      [
        "i",
        "l"
      ],
      [
        "e",
        "l"
      ],
      [
        "!",
        " "
      ],
      [
        "c",
        "om"
      ],
      [
        "e",
        "d "
      ],
      [
        "a",
        "m"
      ],
      [
        "I",
        " "
      ],
      [
        "an",
        "d "
      ],
      [
        "a",
        "s"
      ],
      [
        "i",
        "s"
      ],
      [
        "u",
        "s"
      ],
      [
        "e",
        "s "
      ],
      [
        "o",
        "l"
      ],
      [
        "u",
        "r"
      ],
      [
        "a",
        "c"
      ],
      [
        "i",
        "g"
      ],
      [
        "f",
        "or "
      ],
      [
        "o",
        "f "
      ],
      [
        "T",
        "h"
      ],
      [
        " ",
        "@"
      ],
      [
        "v",
        "e "
      ],
      [
        "h",
        "a"
      ],
      [
        "e",
        "e"
      ],
      [
        "a",
        "y"
      ],
      [
        "l",
        "e"
      ],
      [
        ".",
        "com"
      ],
      [
        "an",
        " "
      ],
      [
        "l",
        "i"
      ],
      [
        "r",
        " "
      ],
      [
        "a",
        "d"
      ],
      [
        "i",
        "d"
      ],
      [
        "-",
        " "
      ],
      [
        "p",
        " "
      ],
      [
        "t",
        "i"
      ],
      [
        "n",
        "e"
      ],
      [
        "you",
        " "
      ],
      [
        "l",
        "o"
      ],
      [
        "a",
        "y "
      ],
      [
        "w",
        "i"
      ],
      [
        "u",
        "n"
      ],
      [
        "'",
        "s "
      ],
      [
        "ow",
        " "
      ],
      [
        "r",
        "o"
      ],
      [
        "R",
        "T"
      ],
      [
        "en",
        " "
      ],
      [
        "e",
        "c"
      ],
      [
        "m",
        " "
      ],
      [
        "th",
        " "
      ],
      [
        "s",
        "h"
      ],
      [
        "w",
        "h"
      ],
      [
        ".com",
        "/"
      ],
      [
        "!",
        "!"
      ],
      [
        "i",
        "t "
      ],
      [
        "ig",
        "h"
      ],
      [
        "a",
        "b"
      ],
      [
        "e",
        "t"
      ],
      [
        "a",
        "g"
      ],
      [
        "al",
        " "
      ],
      [
        "ou",
        "t "
      ],
      [
        "RT",
        " @"
      ],
      [
        "a",
        "k"
      ],
      [
        "r",
        "i"
      ],
      [
        "n",
        " "
      ],
      [
        "?",
        " "
      ],
      [
        "e",
        "d"
      ],
      [
        "w",
        " "
      ],
      [
        "m",
        "y "
      ],
      [
        "a",
        "s "
      ],
      [
        "l",
        "y "
      ],
      [
        "0",
        "0"
      ],
      [
        "w",
        "w"
      ],
      [
        "i",
        "r"
      ],
      [
        "o",
        "p"
      ],
      [
        "l",
        "e "
      ],
      [
        "b",
        "e"
      ],
      [
        "v",
        "er"
      ],
      [
        "t",
        "o"
      ],
      [
        "e",
        "m"
      ],
      [
        "e",
        "t "
      ],
      [
        "o",
        "t "
      ],
      [
        "..",
        "."
      ],
      [
        "..",
        ". "
      ],
      [
        "a",
        "p"
      ],
      [
        "en",
        "t"
      ],
      [
        "b",
        "u"
      ],
      [
        "m",
        "e "
      ],
      [
        "http://",
        "t"
      ],
      [
        "e",
        "ar"
      ],
      [
        "i",
        " "
      ],
      [
        "h",
        " "
      ],
      [
        "wi",
        "th "
      ],
      [
        "o",
        "s"
      ],
      [
        "ar",
        "e "
      ],
      [
        "b",
        "e "
      ],
      [
        "Th",
        "e "
      ],
      [
        "us",
        "t "
      ],
      [
        "th",
        "at "
      ],
      [
        "t",
        "r"
      ],
      [
        "w",
        "or"
      ],
      [
        "at",
        "i"
      ],
      [
        "f",
        "f"
      ],
      [
        "C",
        "h"
      ],
      [
        "you",
        "r "
      ],
      [
        "al",
        "l "
      ],
      [
        "s",
        "e"
      ],
      [
        "f",
        "r"
      ],
      [
        "om",
        " "
      ],
      [
        "'",
        "t "
      ],
      [
        "il",
        "l "
      ],
      [
        "ch",
        " "
      ],
      [
        "w",
        "ee"
      ],
      [
        "on",
        "e "
      ],
      [
        "th",
        "is "
      ],
      [
        "th",
        "e"
      ],
      [
        "i",
        "m"
      ],
      [
        "o",
        "t"
      ],
      [
        "s",
        "u"
      ],
      [
        "g",
        " "
      ],
      [
        "\"",
        " "
      ],
      [
        "d",
        "ay"
      ],
      [
        "e",
        "v"
      ],
      [
        "s",
        "p"
      ],
      [
        "e",
        "a"
      ],
      [
        "ou",
        "n"
      ],
      [
        "I",
        "'"
      ],
      [
        "e",
        "b"
      ],
      [
        "an",
        "d"
      ],
      [
        "k",
        "s "
      ],
      [
        "S",
        "t"
      ],
      [
        "o",
        "c"
      ],
      [
        "W",
        "h"
      ],
      [
        "ha",
        "ve "
      ],
      [
        "er",
        "s "
      ],
      [
        "p",
        "l"
      ],
      [
        "o",
        "v"
      ],
      [
        ". ",
        " "
      ],
      [
        "t",
        "s "
      ],
      [
        "igh",
        "t "
      ],
      [
        "e",
        "st"
      ],
      [
        "e",
        "x"
      ],
      [
        "en",
        "t "
      ],
      [
        "E",
        " "
      ],
      [
        "d",
        "i"
      ],
      [
        "u",
        "l"
      ],
      [
        "A",
        " "
      ],
      [
        "l",
        "d "
      ],
      [
        "r",
        "a"
      ],
      [
        "d",
        "ay "
      ],
      [
        "om",
        "e "
      ],
      [
        "0",
        " "
      ],
      [
        "er",
        "e "
      ],
      [
        "k",
        "e "
      ],
      [
        "&",
        " "
      ],
      [
        "2",
        "00"
      ],
      [
        "ur",
        "l"
      ],
      [
        "N",
        "e"
      ],
      [
        ".",
        ". "
      ],
      [
        "Y",
        "ou"
      ],
      [
        "f",
        "or"
      ],
      [
        "m",
        "e"
      ],
      [
        "u",
        "c"
      ],
      [
        "p",
        "p"
      ],
      [
        "al",
        "l"
      ],
      [
        ")",
        " "
      ],
      [
        "oo",
        "d "
      ],
      [
        "t",
        "er"
      ],
      [
        "at",
        "e "
      ],
      [
        "a",
        "v"
      ],
      [
        "w",
        "."
      ],
      [
        "q",
        "u"
      ],
      [
        "i",
        "e"
      ],
      [
        "m",
        "or"
      ],
      [
        "ol",
        "l"
      ],
      [
        "en",
        "d"
      ],
      [
        "1",
        "1"
      ],
      [
        "fr",
        "om "
      ],
      [
        "ar",
        "t"
      ],
      [
        "u",
        "p "
      ],
      [
        "g",
        "et "
      ],
      [
        "es",
        "t "
      ],
      [
        "ww",
        "w."
      ],
      [
        "2",
        " "
      ],
      [
        "j",
        "ust "
      ],
      [
        "200",
        "9"
      ],
      [
        "in",
        "y"
      ],
      [
        "u",
        "m"
      ],
      [
        "n",
        "ow "
      ],
      [
        "url",
        ".com/"
      ],
      [
        "g",
        "r"
      ],
      [
        "p",
        "ro"
      ],
      [
        "g",
        "o"
      ],
      [
        "c",
        "on"
      ],
      [
        "ic",
        " "
      ],
      [
        "k",
        "ing "
      ],
      [
        "S",
        " "
      ],
      [
        "http://bit.ly/",
        "1"
      ],
      [
        "s",
        "o "
      ],
      [
        "o",
        "b"
      ],
      [
        "ak",
        "e "
      ],
      [
        "igh",
        "t"
      ],
      [
        "http://t",
        "iny"
      ],
      [
        "re",
        "s"
      ],
      [
        "A",
        "n"
      ],
      [
        "I",
        "n"
      ],
      [
        "es",
        "s"
      ],
      [
        "u",
        "t"
      ],
      [
        "ou",
        "ld "
      ],
      [
        "w",
        "as "
      ],
      [
        "?",
        "?"
      ],
      [
        "er",
        "s"
      ],
      [
        "c",
        "e "
      ],
      [
        "http://tiny",
        "url.com/"
      ],
      [
        "d",
        "o"
      ],
      [
        "bu",
        "t "
      ],
      [
        "u",
        "p"
      ],
      [
        "u",
        " "
      ],
      [
        "am",
        " "
      ],
      [
        "I'",
        "m "
      ],
      [
        "o",
        "d"
      ],
      [
        "n",
        "ot "
      ],
      [
        "T",
        " "
      ],
      [
        "b",
        "y "
      ],
      [
        "ab",
        "out "
      ],
      [
        "e",
        ". "
      ],
      [
        "li",
        "ke "
      ],
      [
        "l",
        "in"
      ],
      [
        "p",
        "h"
      ],
      [
        "tt",
        "er "
      ],
      [
        "e",
        ", "
      ],
      [
        "i",
        "a "
      ],
      [
        "ne",
        "w "
      ],
      [
        "ing ",
        "to "
      ],
      [
        "i",
        "v"
      ],
      [
        "in ",
        "the "
      ],
      [
        "http://bit.ly/",
        "2"
      ],
      [
        "http://bit.ly/",
        "3"
      ],
      [
        "p",
        "ic"
      ],
      [
        "es",
        "s "
      ],
      [
        "id",
        "e"
      ],
      [
        "p",
        "r"
      ],
      [
        "el",
        "l"
      ],
      [
        "S",
        "h"
      ],
      [
        "ou",
        "r "
      ],
      [
        "a",
        "i"
      ],
      [
        "al",
        "ly "
      ],
      [
        "a",
        "d "
      ],
      [
        "a",
        "in"
      ],
      [
        "k",
        "s"
      ],
      [
        "ac",
        "k "
      ],
      [
        "w",
        "ill "
      ],
      [
        "a",
        "w"
      ],
      [
        " ",
        " "
      ],
      [
        "g",
        "re"
      ],
      [
        "ar",
        " "
      ],
      [
        "e",
        "y "
      ],
      [
        "as",
        "t "
      ],
      [
        "ou",
        "g"
      ],
      [
        "http://bit.ly/",
        "4"
      ],
      [
        "R",
        "e"
      ],
      [
        "1",
        "0"
      ],
      [
        "c",
        "an "
      ],
      [
        "an",
        "t "
      ],
      [
        "r",
        "e "
      ],
      [
        "a",
        "st"
      ],
      [
        "ou",
        "r"
      ],
      [
        " ",
        "#"
      ],
      [
        "o",
        "st"
      ],
      [
        "s",
        "i"
      ],
      [
        "d",
        "o "
      ],
      [
        "d",
        "on"
      ],
      [
        "Th",
        "an"
      ],
      [
        "b",
        "l"
      ],
      [
        "om",
        "e"
      ],
      [
        "w",
        "e "
      ],
      [
        "ati",
        "on"
      ],
      [
        "s",
        ", "
      ],
      [
        "2009",
        "-"
      ],
      [
        "for ",
        "the "
      ],
      [
        "oo",
        "k "
      ],
      [
        "of ",
        "the "
      ],
      [
        "s",
        "e "
      ],
      [
        "d",
        "s "
      ],
      [
        "il",
        "l"
      ],
      [
        "5",
        " "
      ],
      [
        "\t",
        "2009-"
      ],
      [
        "u",
        "d"
      ],
      [
        "it",
        "e "
      ],
      [
        "s",
        ". "
      ],
      [
        "o",
        "f"
      ],
      [
        "o",
        "th"
      ],
      [
        "p",
        "e"
      ],
      [
        "wh",
        "at "
      ],
      [
        "x",
        " "
      ],
      [
        "f",
        "e"
      ],
      [
        "n",
        "ow"
      ],
      [
        "u",
        "s "
      ],
      [
        "ec",
        "k "
      ],
      [
        "1",
        " "
      ],
      [
        "or",
        "t"
      ],
      [
        "I",
        "N"
      ],
      [
        "f",
        "in"
      ],
      [
        "4",
        " "
      ],
      [
        "Ne",
        "w "
      ],
      [
        "3",
        " "
      ],
      [
        "ic",
        "k"
      ],
      [
        "er",
        "e"
      ],
      [
        "ac",
        "k"
      ],
      [
        "ar",
        "k"
      ],
      [
        "e",
        "y"
      ],
      [
        "g",
        "u"
      ],
      [
        "re",
        "c"
      ],
      [
        "ic",
        "e "
      ],
      [
        "http://",
        "www."
      ],
      [
        "L",
        "i"
      ],
      [
        "w",
        "it"
      ],
      [
        "d",
        "e"
      ],
      [
        "an",
        "t"
      ],
      [
        "b",
        "o"
      ],
      [
        "ed ",
        "to "
      ],
      [
        "s",
        "t "
      ],
      [
        "D",
        " "
      ],
      [
        "b",
        "r"
      ],
      [
        "c",
        "l"
      ],
      [
        "A",
        "l"
      ],
      [
        "el",
        "l "
      ],
      [
        "it",
        "y "
      ],
      [
        "g",
        "e"
      ],
      [
        "e",
        "ver"
      ],
      [
        "ati",
        "on "
      ],
      [
        "h",
        "e"
      ],
      [
        "t",
        "on"
      ],
      [
        "mor",
        "e "
      ],
      [
        "m",
        "an"
      ],
      [
        "You",
        " "
      ],
      [
        "i",
        "f "
      ],
      [
        "a",
        "il"
      ],
      [
        "i",
        "z"
      ],
      [
        "F",
        "r"
      ],
      [
        "ur",
        "e "
      ],
      [
        "!",
        "! "
      ],
      [
        "http://tinyurl.com/",
        "y"
      ],
      [
        "s",
        "ome "
      ],
      [
        "s",
        ": "
      ],
      [
        "ou",
        "t"
      ],
      [
        "a",
        "u"
      ],
      [
        "th",
        "in"
      ],
      [
        "a",
        "z"
      ],
      [
        "R",
        "E"
      ],
      [
        "g",
        "ood "
      ],
      [
        "an",
        "n"
      ],
      [
        "ap",
        "p"
      ],
      [
        "f",
        "oll"
      ],
      [
        "on ",
        "the "
      ],
      [
        "s",
        "c"
      ],
      [
        "j",
        "o"
      ],
      [
        "p",
        "er"
      ],
      [
        "i",
        "on"
      ],
      [
        "an",
        "g"
      ],
      [
        "am",
        "e "
      ],
      [
        "os",
        "t "
      ],
      [
        "u",
        "st"
      ],
      [
        "i",
        "al "
      ],
      [
        "an",
        "c"
      ],
      [
        "re",
        "e "
      ],
      [
        "m",
        "on"
      ],
      [
        "g",
        "o "
      ],
      [
        "2",
        "0"
      ],
      [
        "T",
        "wi"
      ],
      [
        "ha",
        "s "
      ],
      [
        "ar",
        "d "
      ],
      [
        "en",
        "d "
      ],
      [
        "Y",
        " "
      ],
      [
        "o",
        "ff"
      ],
      [
        "k",
        "now "
      ],
      [
        "..",
        ".."
      ],
      [
        "oo",
        "d"
      ],
      [
        "http://",
        "ow"
      ],
      [
        "http://ow",
        ".ly/"
      ],
      [
        "! ",
        " "
      ],
      [
        "ow",
        "n "
      ],
      [
        "ar",
        "d"
      ],
      [
        "g",
        "ot "
      ],
      [
        "h",
        "ow "
      ],
      [
        "e",
        ": "
      ],
      [
        "a",
        "f"
      ],
      [
        "i",
        "st"
      ],
      [
        "O",
        " "
      ],
      [
        "T",
        "H"
      ],
      [
        "lo",
        "ve "
      ],
      [
        "C",
        "on"
      ],
      [
        "R",
        " "
      ],
      [
        "se",
        "e "
      ],
      [
        "m",
        "in"
      ],
      [
        "http://t",
        "wit"
      ],
      [
        "e",
        "."
      ],
      [
        "L",
        " "
      ],
      [
        "O",
        "N"
      ],
      [
        "ti",
        "on"
      ],
      [
        "w",
        "at"
      ],
      [
        "tt",
        "er"
      ],
      [
        "b",
        "lo"
      ],
      [
        "ay",
        "s "
      ],
      [
        "ow",
        "n"
      ],
      [
        "P",
        "h"
      ],
      [
        "ti",
        "me "
      ],
      [
        "!!",
        "!!"
      ],
      [
        "ag",
        "e "
      ],
      [
        "or",
        "r"
      ],
      [
        "1",
        "2"
      ],
      [
        "s",
        "."
      ],
      [
        "a",
        "h"
      ],
      [
        "th",
        "an"
      ],
      [
        "e",
        "l "
      ],
      [
        "i",
        "es "
      ],
      [
        "pic",
        ".com/"
      ],
      [
        "u",
        "t "
      ],
      [
        ":",
        ")"
      ],
      [
        "1",
        "6"
      ],
      [
        "re",
        "ad"
      ],
      [
        "A",
        "N"
      ],
      [
        "1",
        "9"
      ],
      [
        "http://twit",
        "pic.com/"
      ],
      [
        "e",
        "g"
      ],
      [
        "@",
        "m"
      ],
      [
        "ti",
        "on "
      ],
      [
        "S",
        "p"
      ],
      [
        "l",
        "l "
      ],
      [
        "t",
        "wee"
      ],
      [
        "u",
        "b"
      ],
      [
        "oo",
        "k"
      ],
      [
        "B",
        "r"
      ],
      [
        "C",
        " "
      ],
      [
        "tt",
        "ing "
      ],
      [
        "I",
        "t"
      ],
      [
        "w",
        "e"
      ],
      [
        "the",
        "y "
      ],
      [
        "3",
        "9"
      ],
      [
        "'",
        " "
      ],
      [
        "0",
        "9"
      ],
      [
        "'",
        "re "
      ],
      [
        "wh",
        "en "
      ],
      [
        "J",
        "ust "
      ],
      [
        "as",
        "e "
      ],
      [
        "gre",
        "at "
      ],
      [
        "L",
        "O"
      ],
      [
        "t",
        "e"
      ],
      [
        "t",
        "er "
      ],
      [
        "7",
        " "
      ],
      [
        "n",
        "'t "
      ],
      [
        "e",
        "p"
      ],
      [
        "pe",
        "op"
      ],
      [
        "T",
        "r"
      ],
      [
        "oug",
        "h"
      ],
      [
        "to",
        "day"
      ],
      [
        "n",
        "o "
      ],
      [
        "a",
        "ve "
      ],
      [
        "c",
        "o"
      ],
      [
        "i",
        "p"
      ],
      [
        "i",
        "e "
      ],
      [
        "ar",
        "t "
      ],
      [
        "M",
        " "
      ],
      [
        "it",
        "s "
      ],
      [
        "z",
        " "
      ],
      [
        "h",
        "el"
      ],
      [
        "foll",
        "ow"
      ],
      [
        "t",
        "u"
      ],
      [
        "us",
        "e "
      ],
      [
        "as",
        "s"
      ],
      [
        "th",
        "ing "
      ],
      [
        "don",
        "'t "
      ],
      [
        "in",
        "d"
      ],
      [
        "b",
        "er"
      ],
      [
        "ear",
        " "
      ],
      [
        "th",
        "at"
      ],
      [
        "f",
        "un"
      ],
      [
        "s",
        "m"
      ],
      [
        "W",
        "or"
      ],
      [
        "i",
        "on "
      ],
      [
        "as",
        "h"
      ],
      [
        "@",
        "M"
      ],
      [
        "O",
        "n"
      ],
      [
        "on",
        "g "
      ],
      [
        "11",
        "-"
      ],
      [
        "to ",
        "the "
      ],
      [
        "wee",
        "k"
      ],
      [
        "E",
        "n"
      ],
      [
        "it",
        "'s "
      ],
      [
        "J",
        "o"
      ],
      [
        "v",
        "ide"
      ],
      [
        "W",
        "e "
      ],
      [
        "G",
        "re"
      ],
      [
        "wh",
        "o "
      ],
      [
        ".com",
        " "
      ],
      [
        "s",
        "ome"
      ],
      [
        "ing ",
        "the "
      ],
      [
        "T",
        "o"
      ],
      [
        "d",
        "er"
      ],
      [
        "m",
        "ake "
      ],
      [
        "an",
        "y"
      ],
      [
        "i",
        "d "
      ],
      [
        "oun",
        "d "
      ],
      [
        "p",
        "re"
      ],
      [
        "d",
        "r"
      ],
      [
        "Wh",
        "at "
      ],
      [
        "8",
        " "
      ],
      [
        "ing",
        "s "
      ],
      [
        "\t2009-",
        "11-"
      ],
      [
        "i",
        "r "
      ],
      [
        "H",
        "ow "
      ],
      [
        "m",
        "u"
      ],
      [
        "c",
        "re"
      ],
      [
        "A",
        "r"
      ],
      [
        "thin",
        "k "
      ],
      [
        ".",
        "g"
      ],
      [
        "i",
        "m "
      ],
      [
        "B",
        "l"
      ],
      [
        "b",
        "ack "
      ],
      [
        "a",
        "tt"
      ],
      [
        "i",
        "ve "
      ],
      [
        "is",
        "h"
      ],
      [
        "ol",
        "d "
      ],
      [
        "b",
        "er "
      ],
      [
        "i",
        "f"
      ],
      [
        "in",
        "e "
      ],
      [
        "at ",
        "the "
      ],
      [
        "1",
        "5"
      ],
      [
        "oth",
        "er "
      ],
      [
        "in",
        "ter"
      ],
      [
        "P",
        "ro"
      ],
      [
        "\t",
        "5"
      ],
      [
        "or",
        "e "
      ],
      [
        "m",
        "y"
      ],
      [
        "M",
        "on"
      ],
      [
        "wor",
        "k "
      ],
      [
        "ic",
        "k "
      ],
      [
        ". ",
        "I "
      ],
      [
        "ing ",
        "a "
      ],
      [
        "g",
        "e "
      ],
      [
        "I",
        "f "
      ],
      [
        "s",
        "l"
      ],
      [
        "in",
        "n"
      ],
      [
        "f",
        "l"
      ],
      [
        "ac",
        "e "
      ],
      [
        "f",
        "u"
      ],
      [
        "ark",
        "et"
      ],
      [
        "Ne",
        "w"
      ],
      [
        "f",
        "ri"
      ],
      [
        "v",
        "er "
      ],
      [
        "s",
        "/"
      ],
      [
        "us",
        "in"
      ],
      [
        "com",
        "e "
      ],
      [
        "M",
        "y "
      ],
      [
        "A",
        "m"
      ],
      [
        "o",
        "g"
      ],
      [
        "C",
        "om"
      ],
      [
        "ov",
        "er "
      ],
      [
        "f",
        "ir"
      ],
      [
        "Th",
        "is "
      ],
      [
        "ne",
        "w"
      ],
      [
        "Ch",
        "eck "
      ],
      [
        "be",
        "en "
      ],
      [
        "1",
        "0 "
      ],
      [
        "Twi",
        "tter "
      ],
      [
        "l",
        "d"
      ],
      [
        "of",
        "f "
      ],
      [
        "w",
        "ay "
      ],
      [
        "w",
        "ant "
      ],
      [
        "s",
        "el"
      ],
      [
        "or",
        "t "
      ],
      [
        "E",
        "x"
      ],
      [
        "s ",
        "to "
      ],
      [
        "m",
        "m"
      ],
      [
        "ever",
        "y"
      ],
      [
        "-",
        "-"
      ],
      [
        "@",
        "j"
      ],
      [
        "es",
        ", "
      ],
      [
        "t",
        "w"
      ],
      [
        "h",
        "e "
      ],
      [
        "l",
        "ol"
      ],
      [
        "c",
        "r"
      ],
      [
        "peop",
        "le "
      ],
      [
        ":",
        "3"
      ],
      [
        "S",
        "T"
      ],
      [
        "wor",
        "k"
      ],
      [
        "G",
        " "
      ],
      [
        "B",
        "e"
      ],
      [
        "ha",
        "d "
      ],
      [
        "a",
        "ch"
      ],
      [
        "ig",
        "n"
      ],
      [
        "s",
        "er"
      ],
      [
        "lin",
        "e "
      ],
      [
        "P",
        "l"
      ],
      [
        "c",
        "an"
      ],
      [
        "Than",
        "ks "
      ],
      [
        "O",
        "U"
      ],
      [
        "1",
        "4"
      ],
      [
        "s",
        "o"
      ],
      [
        "en",
        "c"
      ],
      [
        "P",
        " "
      ],
      [
        "id",
        "e "
      ],
      [
        "v",
        "ia "
      ],
      [
        "on",
        "g"
      ],
      [
        "|",
        " "
      ],
      [
        "... ",
        "http://bit.ly/"
      ],
      [
        "p",
        "res"
      ],
      [
        "@",
        "d"
      ],
      [
        "w",
        "ould "
      ],
      [
        "It",
        "'s "
      ],
      [
        "g",
        "g"
      ],
      [
        "v",
        "ie"
      ],
      [
        "m",
        "us"
      ],
      [
        "m",
        "is"
      ],
      [
        "com",
        "p"
      ],
      [
        "t",
        "wi"
      ],
      [
        "I",
        "t "
      ],
      [
        "s ",
        "and "
      ],
      [
        "id",
        "ay "
      ],
      [
        "h",
        "is "
      ],
      [
        "p",
        "ost"
      ],
      [
        "c",
        "ar"
      ],
      [
        "a ",
        "b"
      ],
      [
        "I",
        "n "
      ],
      [
        "6",
        " "
      ],
      [
        "oo",
        "l "
      ],
      [
        "e",
        "! "
      ],
      [
        "i",
        "ou"
      ],
      [
        "E",
        "R"
      ],
      [
        "is",
        "t "
      ],
      [
        "A",
        "T"
      ],
      [
        "!!",
        "! "
      ],
      [
        "m",
        "i"
      ],
      [
        "A",
        "L"
      ],
      [
        ", ",
        "but "
      ],
      [
        "A",
        "d"
      ],
      [
        ".. ",
        "http://bit.ly/"
      ],
      [
        "oo",
        "l"
      ],
      [
        "ha",
        "pp"
      ],
      [
        "!!",
        "!"
      ],
      [
        "ad",
        "e "
      ],
      [
        "ab",
        "le "
      ],
      [
        "a",
        "in "
      ],
      [
        "l",
        "ast "
      ],
      [
        "@",
        "D"
      ],
      [
        "ee",
        "p "
      ],
      [
        "oug",
        "h "
      ],
      [
        "l",
        "oo"
      ],
      [
        "H",
        "e"
      ],
      [
        "T",
        "o "
      ],
      [
        "ur",
        " "
      ],
      [
        "t",
        "al"
      ],
      [
        "fu",
        "l "
      ],
      [
        "m",
        "ak"
      ],
      [
        "G",
        "o"
      ],
      [
        "g",
        "iv"
      ],
      [
        "it",
        "y"
      ],
      [
        "e",
        "e "
      ],
      [
        "d",
        "uc"
      ],
      [
        "th",
        "an "
      ],
      [
        "t",
        "om"
      ],
      [
        "c",
        "c"
      ],
      [
        "s",
        "k"
      ],
      [
        "for ",
        "a "
      ],
      [
        "i",
        "a"
      ],
      [
        "is",
        "h "
      ],
      [
        "an",
        "ce "
      ],
      [
        "ig",
        " "
      ],
      [
        "1",
        "8"
      ],
      [
        "1",
        "7"
      ],
      [
        "il",
        "e "
      ],
      [
        "L",
        "o"
      ],
      [
        "an",
        "y "
      ],
      [
        "You",
        "r "
      ],
      [
        "F",
        " "
      ],
      [
        "1",
        "3"
      ],
      [
        "re",
        "ally "
      ],
      [
        "s ",
        "of "
      ],
      [
        "U",
        "n"
      ],
      [
        "li",
        "st"
      ],
      [
        "il",
        "li"
      ],
      [
        "G",
        "r"
      ],
      [
        "f",
        "e "
      ],
      [
        "00",
        " "
      ],
      [
        "sh",
        "ould "
      ],
      [
        "am",
        "p"
      ],
      [
        "/",
        " "
      ],
      [
        "C",
        "l"
      ],
      [
        "on",
        "ly "
      ],
      [
        "e",
        "f"
      ],
      [
        "d",
        "is"
      ],
      [
        "r",
        "y "
      ],
      [
        "d",
        "er "
      ],
      [
        "u",
        "e "
      ],
      [
        "o",
        "to"
      ],
      [
        "w",
        "a"
      ],
      [
        "m",
        "a"
      ],
      [
        "m",
        "an "
      ],
      [
        "w",
        "eb"
      ],
      [
        "w",
        "r"
      ],
      [
        "@",
        "S"
      ],
      [
        "n",
        "ing "
      ],
      [
        "u",
        "re"
      ],
      [
        "ti",
        "m"
      ],
      [
        "i",
        "k"
      ],
      [
        "O",
        "O"
      ],
      [
        "M",
        "ar"
      ],
      [
        "o",
        "p "
      ],
      [
        "op",
        "e "
      ],
      [
        "F",
        "or "
      ],
      [
        "ac",
        "t"
      ],
      [
        ", ",
        "and "
      ],
      [
        ";",
        " "
      ],
      [
        "st",
        "ill "
      ],
      [
        "r",
        "ight "
      ],
      [
        "W",
        " "
      ],
      [
        "an",
        "s "
      ],
      [
        "m",
        "ov"
      ],
      [
        "g",
        "h"
      ],
      [
        "com",
        "m"
      ],
      [
        "9",
        " "
      ],
      [
        "-",
        "- "
      ],
      [
        "Th",
        "e"
      ],
      [
        "ne",
        "x"
      ],
      [
        "d",
        "/"
      ],
      [
        "is ",
        "a "
      ],
      [
        "in ",
        "a "
      ],
      [
        "os",
        "e "
      ],
      [
        "et",
        "s "
      ],
      [
        "th",
        "ere "
      ],
      [
        "oc",
        "ial "
      ],
      [
        "h",
        "er "
      ],
      [
        "th",
        "er"
      ],
      [
        "st",
        "r"
      ],
      [
        "con",
        "t"
      ],
      [
        "ea",
        "d "
      ],
      [
        "ver",
        "y "
      ],
      [
        "j",
        "ob"
      ],
      [
        "s",
        "! "
      ],
      [
        "pl",
        "ay"
      ],
      [
        "2",
        "5"
      ],
      [
        "ha",
        "v"
      ],
      [
        "t",
        "ing "
      ],
      [
        "th",
        "er "
      ],
      [
        "f",
        "i"
      ],
      [
        "the",
        "ir "
      ],
      [
        "el",
        "y "
      ],
      [
        "K",
        " "
      ],
      [
        "vide",
        "o "
      ],
      [
        "B",
        "lo"
      ],
      [
        ".g",
        "d/"
      ],
      [
        "h",
        "ere "
      ],
      [
        "th",
        "r"
      ],
      [
        "D",
        "on"
      ],
      [
        "sh",
        "ow"
      ],
      [
        "ch",
        "eck "
      ],
      [
        "oo",
        "g"
      ],
      [
        "p",
        "ort"
      ],
      [
        "@",
        " "
      ],
      [
        "ac",
        "eb"
      ],
      [
        "&",
        "#"
      ],
      [
        "c",
        "k"
      ],
      [
        "ha",
        "ha"
      ],
      [
        "C",
        "ar"
      ],
      [
        "mu",
        "ch "
      ],
      [
        ". ",
        "S"
      ],
      [
        "??",
        "??"
      ],
      [
        "wi",
        "th"
      ],
      [
        "tt",
        "le "
      ],
      [
        "I",
        "s "
      ],
      [
        "ri",
        "st"
      ],
      [
        "E",
        "S"
      ],
      [
        ":",
        "4"
      ],
      [
        "le",
        "ase "
      ],
      [
        "l",
        "a"
      ],
      [
        ", ",
        "I "
      ],
      [
        "at",
        "'s "
      ],
      [
        "en",
        "ce "
      ],
      [
        "in",
        "t"
      ],
      [
        "b",
        "le"
      ],
      [
        "wat",
        "ch"
      ],
      [
        "E",
        "N"
      ],
      [
        "d",
        "es"
      ],
      [
        "an",
        "s"
      ],
      [
        "2",
        "4"
      ],
      [
        "In",
        "ter"
      ],
      [
        "go",
        "ing to "
      ],
      [
        "tom",
        "orr"
      ],
      [
        "to",
        "day "
      ],
      [
        "2",
        "3"
      ],
      [
        "ent",
        "s "
      ],
      [
        "f",
        "ee"
      ],
      [
        "P",
        "r"
      ],
      [
        "ee",
        "p"
      ],
      [
        "i",
        "al"
      ],
      [
        "ev",
        "er "
      ],
      [
        "p",
        "o"
      ],
      [
        "ad",
        "d"
      ],
      [
        "fri",
        "end"
      ],
      [
        "lo",
        "v"
      ],
      [
        "ing",
        ". "
      ],
      [
        "st",
        "or"
      ],
      [
        "A",
        "R"
      ],
      [
        "An",
        "d "
      ],
      [
        "s",
        "ch"
      ],
      [
        "at",
        "ed "
      ],
      [
        "on",
        "e"
      ],
      [
        "p",
        "ar"
      ],
      [
        "ai",
        "l "
      ],
      [
        "is ",
        "the "
      ],
      [
        "g",
        "l"
      ],
      [
        "at",
        "s "
      ],
      [
        "f",
        "re"
      ],
      [
        "g",
        "ir"
      ],
      [
        "ed",
        "ia "
      ],
      [
        "es",
        "e "
      ],
      [
        "ing",
        "."
      ],
      [
        "m",
        "ost "
      ],
      [
        "read",
        "y "
      ],
      [
        "W",
        "i"
      ],
      [
        "ton",
        "ight"
      ],
      [
        "t",
        "ur"
      ],
      [
        "@",
        "J"
      ],
      [
        "m",
        "ent "
      ],
      [
        "ti",
        "me"
      ],
      [
        "to ",
        "be "
      ],
      [
        ":",
        "5"
      ],
      [
        "sh",
        "ow "
      ],
      [
        "n",
        "ight"
      ],
      [
        "nex",
        "t "
      ],
      [
        "r",
        "y"
      ],
      [
        "n",
        "ight "
      ],
      [
        "usin",
        "ess "
      ],
      [
        "in",
        "d "
      ],
      [
        "to",
        "o "
      ],
      [
        "G",
        "ood "
      ],
      [
        "th",
        "ough"
      ],
      [
        "@",
        "k"
      ],
      [
        "p",
        "art"
      ],
      [
        "y",
        "ear"
      ],
      [
        "oo",
        "t"
      ],
      [
        "? ",
        " "
      ],
      [
        "ne",
        "t"
      ],
      [
        "U",
        "S"
      ],
      [
        "&#",
        "39"
      ],
      [
        "0",
        "8"
      ],
      [
        "fir",
        "st "
      ],
      [
        "U",
        " "
      ],
      [
        "ne",
        "ed "
      ],
      [
        "W",
        "e"
      ],
      [
        "s",
        "s"
      ],
      [
        "b",
        "est "
      ],
      [
        "G",
        "et "
      ],
      [
        "T",
        "e"
      ],
      [
        ". ",
        "H"
      ],
      [
        "a ",
        "c"
      ],
      [
        "b",
        "re"
      ],
      [
        "B",
        "u"
      ],
      [
        "k",
        "now"
      ],
      [
        "h",
        "ear"
      ],
      [
        "i",
        "es"
      ],
      [
        "di",
        "d "
      ],
      [
        "N",
        "O"
      ],
      [
        "f",
        "ree "
      ],
      [
        "t",
        "ake "
      ],
      [
        "ac",
        "c"
      ],
      [
        "oun",
        "d"
      ],
      [
        "b",
        " "
      ],
      [
        "uc",
        "k"
      ],
      [
        "ec",
        "t "
      ],
      [
        "can",
        "'t "
      ],
      [
        "m",
        "o"
      ],
      [
        "or",
        "d"
      ],
      [
        "w",
        "ays "
      ],
      [
        "r",
        "un"
      ],
      [
        "the",
        "m "
      ],
      [
        "will ",
        "be "
      ],
      [
        "em",
        "ber "
      ],
      [
        "b",
        "ab"
      ],
      [
        "w",
        "on"
      ],
      [
        "ec",
        "t"
      ],
      [
        ": ",
        "http://bit.ly/"
      ],
      [
        "n",
        "o"
      ],
      [
        "s",
        "ure "
      ],
      [
        "%",
        " "
      ],
      [
        "I",
        "T"
      ],
      [
        "t",
        "oo"
      ],
      [
        "er",
        "ic"
      ],
      [
        "y",
        ", "
      ],
      [
        "N",
        "E"
      ],
      [
        "@",
        "s"
      ],
      [
        "th",
        "en "
      ],
      [
        "c",
        "ol"
      ],
      [
        "at",
        "e"
      ],
      [
        "Q",
        "u"
      ],
      [
        "f",
        "ul"
      ],
      [
        "on",
        "n"
      ],
      [
        "b",
        "le "
      ],
      [
        "'",
        "ll "
      ],
      [
        "as",
        "s "
      ],
      [
        "a",
        "use "
      ],
      [
        "B",
        " "
      ],
      [
        "W",
        "at"
      ],
      [
        "ar",
        "y "
      ],
      [
        "2",
        "2"
      ],
      [
        "ad",
        "i"
      ],
      [
        "A",
        "M"
      ],
      [
        "L",
        "e"
      ],
      [
        "at",
        "ing "
      ],
      [
        "O",
        "M"
      ],
      [
        "ig",
        "g"
      ],
      [
        "B",
        "o"
      ],
      [
        "F",
        "or"
      ],
      [
        "h",
        "ol"
      ],
      [
        "ing",
        ", "
      ],
      [
        "A",
        "S"
      ],
      [
        "st",
        "e"
      ],
      [
        "z",
        "z"
      ],
      [
        "arket",
        "ing "
      ],
      [
        "I ",
        "am "
      ],
      [
        "ig",
        "n "
      ],
      [
        "s",
        "al"
      ],
      [
        "d",
        "own "
      ],
      [
        "p",
        "os"
      ],
      [
        "ge",
        "tting "
      ],
      [
        "p",
        "u"
      ],
      [
        "blo",
        "g"
      ],
      [
        "F",
        "l"
      ],
      [
        "C",
        "H"
      ],
      [
        "o",
        "k"
      ],
      [
        "st",
        "u"
      ],
      [
        "s",
        "a"
      ],
      [
        "li",
        "ve "
      ],
      [
        "s",
        "ay "
      ],
      [
        "s",
        "y"
      ],
      [
        "t",
        "m"
      ],
      [
        "an",
        "k"
      ],
      [
        "af",
        "ter "
      ],
      [
        "to ",
        "get "
      ],
      [
        "V",
        " "
      ],
      [
        "Than",
        "ks"
      ],
      [
        "w",
        "ay"
      ],
      [
        ". ",
        "#"
      ],
      [
        "Check ",
        "out "
      ],
      [
        "ai",
        "d "
      ],
      [
        "m",
        "ar"
      ],
      [
        "s",
        "ee"
      ],
      [
        "y",
        "s "
      ],
      [
        "h",
        "h"
      ],
      [
        "D",
        "e"
      ],
      [
        "wh",
        "ere "
      ],
      [
        "g",
        "ood"
      ],
      [
        "a",
        "a"
      ],
      [
        "C",
        "ol"
      ],
      [
        "is",
        ".gd/"
      ],
      [
        "via ",
        "@"
      ],
      [
        "N",
        "ov"
      ],
      [
        "G",
        "u"
      ],
      [
        "Gre",
        "at "
      ],
      [
        "http://bit.ly/",
        "6"
      ],
      [
        "have ",
        "a "
      ],
      [
        "0",
        "7"
      ],
      [
        "or",
        "g"
      ],
      [
        "O",
        "n "
      ],
      [
        "ic",
        "h "
      ],
      [
        "t",
        "ri"
      ],
      [
        "p",
        "s "
      ],
      [
        "c",
        "li"
      ],
      [
        "c",
        "ould "
      ],
      [
        "http://bit.ly/",
        "5"
      ],
      [
        "2",
        "9"
      ],
      [
        "http://",
        "is.gd/"
      ],
      [
        "f",
        "am"
      ],
      [
        "l",
        "ook "
      ],
      [
        ".",
        "m"
      ],
      [
        "s",
        "ec"
      ],
      [
        "&#39",
        ";"
      ],
      [
        "2",
        "7"
      ],
      [
        "e",
        "!"
      ],
      [
        "2",
        "6"
      ],
      [
        "oc",
        "k"
      ],
      [
        "f",
        "f "
      ],
      [
        "h",
        "ere"
      ],
      [
        "O",
        "R"
      ],
      [
        "RT",
        " "
      ],
      [
        "F",
        "oll"
      ],
      [
        "http://bit.ly/",
        "7"
      ],
      [
        "for",
        "m"
      ],
      [
        "su",
        "pp"
      ],
      [
        "h",
        "ome "
      ],
      [
        "w",
        "ere "
      ],
      [
        "v",
        "is"
      ],
      [
        "s",
        "on "
      ],
      [
        "T",
        "wee"
      ],
      [
        "s",
        "!"
      ],
      [
        "a",
        "ir"
      ],
      [
        "n",
        "y"
      ],
      [
        "h",
        "ou"
      ],
      [
        "@",
        "b"
      ],
      [
        "than",
        "ks "
      ],
      [
        "in",
        "to "
      ],
      [
        "hel",
        "p "
      ],
      [
        "2",
        "8"
      ],
      [
        "3",
        "6"
      ],
      [
        "i",
        "p "
      ],
      [
        "G",
        "oog"
      ],
      [
        "e",
        "as"
      ],
      [
        "s",
        "ite "
      ],
      [
        "r",
        "is"
      ],
      [
        "http://bit.ly/",
        "8"
      ],
      [
        "with ",
        "the "
      ],
      [
        "at",
        "es "
      ],
      [
        "ex",
        "c"
      ],
      [
        "d",
        "id"
      ],
      [
        "s",
        "ur"
      ],
      [
        "M",
        "ic"
      ],
      [
        "’",
        "s "
      ],
      [
        "g",
        "am"
      ],
      [
        "d",
        "own"
      ],
      [
        ": ",
        "S"
      ],
      [
        "ak",
        "ing "
      ],
      [
        "M",
        "us"
      ],
      [
        "th",
        "ere"
      ],
      [
        "N",
        " "
      ],
      [
        "3",
        "0"
      ],
      [
        "I'",
        "ll "
      ],
      [
        "L",
        "E"
      ],
      [
        "ne",
        "ver "
      ],
      [
        "H",
        "app"
      ],
      [
        "D",
        "o "
      ],
      [
        "at",
        "ur"
      ],
      [
        ": ",
        "The "
      ],
      [
        "t",
        "y"
      ],
      [
        "m",
        "ent"
      ],
      [
        "be",
        "tter "
      ],
      [
        "v",
        "e"
      ],
      [
        "N",
        "o "
      ],
      [
        "c",
        " "
      ],
      [
        "m",
        "ee"
      ],
      [
        "ev",
        "en "
      ],
      [
        "L",
        "I"
      ],
      [
        "@",
        "B"
      ],
      [
        "you",
        "'re "
      ],
      [
        "ot",
        "e "
      ],
      [
        "re",
        "al"
      ],
      [
        "V",
        "ide"
      ],
      [
        "sh",
        "e "
      ],
      [
        "th",
        "is"
      ],
      [
        "T",
        "u"
      ],
      [
        "blo",
        "g "
      ],
      [
        "s",
        "it"
      ],
      [
        "M",
        "ore "
      ],
      [
        "5",
        "0"
      ],
      [
        "l",
        "at"
      ],
      [
        "F",
        "aceb"
      ],
      [
        "ag",
        "ain"
      ],
      [
        "if ",
        "you "
      ],
      [
        "ed ",
        "by "
      ],
      [
        "2009",
        " "
      ],
      [
        "o",
        "ver"
      ],
      [
        "th",
        "em"
      ],
      [
        "w",
        "in"
      ],
      [
        "F",
        "ree "
      ],
      [
        "ed ",
        "a "
      ],
      [
        "st",
        "art"
      ],
      [
        "re",
        "d "
      ],
      [
        "T",
        "i"
      ],
      [
        "twee",
        "t"
      ],
      [
        "S",
        "un"
      ],
      [
        "u",
        "g"
      ],
      [
        "wh",
        "y "
      ],
      [
        "@",
        "c"
      ],
      [
        "le",
        "t "
      ],
      [
        "he",
        "al"
      ],
      [
        "ph",
        "oto"
      ],
      [
        "aw",
        "es"
      ],
      [
        "d",
        "ing "
      ],
      [
        "com",
        "ing "
      ],
      [
        "A",
        "C"
      ],
      [
        "D",
        "i"
      ],
      [
        "b",
        "ack"
      ],
      [
        "for",
        "e "
      ],
      [
        "op",
        "p"
      ],
      [
        "N",
        "Y"
      ],
      [
        "in",
        "v"
      ],
      [
        "es",
        ". "
      ],
      [
        "f",
        "av"
      ],
      [
        "s ",
        "for "
      ],
      [
        "tt",
        "y "
      ],
      [
        "b",
        "el"
      ],
      [
        "O",
        "r"
      ],
      [
        "D",
        "o"
      ],
      [
        "u",
        "m "
      ],
      [
        "re",
        "d"
      ],
      [
        "w",
        "ar"
      ],
      [
        "y",
        "n"
      ],
      [
        "c",
        "lo"
      ],
      [
        "@",
        "R"
      ],
      [
        "@",
        "L"
      ],
      [
        ":",
        ") "
      ],
      [
        "O",
        "b"
      ],
      [
        "is",
        "e "
      ],
      [
        "h",
        "n"
      ],
      [
        "m",
        "ade "
      ],
      [
        "W",
        "eb"
      ],
      [
        "to ",
        "see "
      ],
      [
        "it",
        "ing "
      ],
      [
        "G",
        "e"
      ],
      [
        "@",
        "K"
      ],
      [
        "F",
        "RE"
      ],
      [
        "t",
        "re"
      ],
      [
        "le",
        "t"
      ],
      [
        "N",
        "ow "
      ],
      [
        "M",
        "o"
      ],
      [
        "I'",
        "ve "
      ],
      [
        "Am",
        "eric"
      ],
      [
        "t",
        "y "
      ],
      [
        "R",
        "I"
      ],
      [
        "p",
        "ers"
      ],
      [
        "fee",
        "l "
      ],
      [
        "b",
        "ro"
      ],
      [
        "li",
        "fe "
      ],
      [
        "D",
        "A"
      ],
      [
        "H",
        "ol"
      ],
      [
        "ri",
        "v"
      ],
      [
        "ch",
        "ang"
      ],
      [
        "fin",
        "d "
      ],
      [
        "s ",
        "on "
      ],
      [
        "ou",
        "p"
      ],
      [
        "S",
        "o "
      ],
      [
        "I ",
        "just "
      ],
      [
        "h",
        "er"
      ],
      [
        "k",
        "id"
      ],
      [
        "b",
        "ec"
      ],
      [
        "f",
        "il"
      ],
      [
        "A",
        "b"
      ],
      [
        "S",
        "E"
      ],
      [
        "is",
        "s"
      ],
      [
        "uc",
        "k "
      ],
      [
        "I ",
        "have "
      ],
      [
        "l",
        "es "
      ],
      [
        "en",
        "n"
      ],
      [
        "h",
        "i"
      ],
      [
        "all",
        "ow"
      ],
      [
        "TH",
        "E "
      ],
      [
        "loo",
        "king "
      ],
      [
        "in",
        "c"
      ],
      [
        "ed ",
        "the "
      ],
      [
        "s ",
        "in "
      ],
      [
        "y",
        ". "
      ],
      [
        "@",
        "C"
      ],
      [
        "vie",
        "w "
      ],
      [
        "from ",
        "the "
      ],
      [
        "he",
        "ad"
      ],
      [
        "Fr",
        "iday "
      ],
      [
        "man",
        "y "
      ],
      [
        ":",
        "0"
      ],
      [
        ".",
        "\" "
      ],
      [
        "a",
        "ff"
      ],
      [
        "Than",
        "k "
      ],
      [
        "S",
        "c"
      ],
      [
        "re",
        "am"
      ],
      [
        "a",
        "th"
      ],
      [
        "go",
        "ing "
      ],
      [
        "H",
        "A"
      ],
      [
        "4",
        "9"
      ],
      [
        "s",
        "n"
      ],
      [
        "th",
        "ose "
      ],
      [
        "al",
        "ways "
      ],
      [
        "ton",
        "ight "
      ],
      [
        "twi",
        "tter "
      ],
      [
        "e",
        "w"
      ],
      [
        "li",
        "ttle "
      ],
      [
        "P",
        "re"
      ],
      [
        "ou",
        "ld"
      ],
      [
        "in",
        "f"
      ],
      [
        "4",
        "0"
      ],
      [
        "le",
        "ar"
      ],
      [
        "sel",
        "f "
      ],
      [
        "Wh",
        "y "
      ],
      [
        "t ",
        "of "
      ],
      [
        "to",
        "p "
      ],
      [
        "ic",
        "al "
      ],
      [
        "R",
        "O"
      ],
      [
        "Happ",
        "y "
      ],
      [
        "in",
        "k"
      ],
      [
        "wor",
        "king "
      ],
      [
        "onn",
        "a "
      ],
      [
        "want ",
        "to "
      ],
      [
        "2",
        "1"
      ],
      [
        "4",
        "5"
      ],
      [
        "N",
        "ot "
      ],
      [
        "in",
        "e"
      ],
      [
        "ra",
        "z"
      ],
      [
        "A",
        "pp"
      ],
      [
        "@",
        "T"
      ],
      [
        "t",
        "on "
      ],
      [
        "f",
        "b"
      ],
      [
        "un",
        "ch"
      ],
      [
        "lo",
        "l "
      ],
      [
        "n",
        "ee"
      ],
      [
        "od",
        "y "
      ],
      [
        "ne",
        "t "
      ],
      [
        "Goog",
        "le "
      ],
      [
        "Th",
        "at "
      ],
      [
        "C",
        "o"
      ],
      [
        "A",
        "c"
      ],
      [
        "M",
        "i"
      ],
      [
        "b",
        "ur"
      ],
      [
        ": ",
        "\""
      ],
      [
        "ne",
        "ed to "
      ],
      [
        "H",
        "ou"
      ],
      [
        "I",
        "C"
      ],
      [
        "st",
        "ar"
      ],
      [
        "D",
        "E"
      ],
      [
        "If ",
        "you "
      ],
      [
        "f",
        "t "
      ],
      [
        "3",
        "3"
      ],
      [
        "c",
        "er"
      ],
      [
        "g",
        "ame "
      ],
      [
        "or",
        "y "
      ],
      [
        "h",
        "ope "
      ],
      [
        "Don",
        "'t "
      ],
      [
        "S",
        "al"
      ],
      [
        "s",
        "on"
      ],
      [
        "s",
        "ol"
      ],
      [
        ". ",
        "B"
      ],
      [
        "S",
        "ocial "
      ],
      [
        "b",
        "oo"
      ],
      [
        "vie",
        "w"
      ],
      [
        "that",
        "'s "
      ],
      [
        "ic",
        "h"
      ],
      [
        "Ch",
        "rist"
      ],
      [
        "le",
        "as"
      ],
      [
        "tr",
        "y "
      ],
      [
        "P",
        "ar"
      ],
      [
        "i",
        "ver"
      ],
      [
        "A",
        "re "
      ],
      [
        "d",
        "ec"
      ],
      [
        "D",
        "r"
      ],
      [
        "T",
        "ra"
      ],
      [
        "H",
        "ave "
      ],
      [
        "en",
        "er"
      ],
      [
        "a ",
        "h"
      ],
      [
        "L",
        "A"
      ],
      [
        "al",
        "s "
      ],
      [
        "Lo",
        "ve "
      ],
      [
        "IN",
        "G "
      ],
      [
        "V",
        "E "
      ],
      [
        "J",
        " "
      ],
      [
        "f",
        "m"
      ],
      [
        "c",
        "all"
      ],
      [
        "ser",
        "v"
      ],
      [
        "e",
        "-"
      ],
      [
        ": ",
        " "
      ],
      [
        "or",
        "s "
      ],
      [
        "be",
        "fore "
      ],
      [
        "d",
        "e "
      ],
      [
        "be",
        "ing "
      ],
      [
        "m",
        "p"
      ],
      [
        "sp",
        "ec"
      ],
      [
        "g",
        "ive "
      ],
      [
        "pro",
        "duc"
      ],
      [
        "lo",
        "c"
      ],
      [
        "\n",
        "\n"
      ],
      [
        "P",
        "e"
      ],
      [
        "w",
        "ell "
      ],
      [
        "4",
        "7"
      ],
      [
        "o",
        "s "
      ],
      [
        "ro",
        "s"
      ],
      [
        ":",
        "-"
      ],
      [
        "id",
        "ay"
      ],
      [
        "all ",
        "the "
      ],
      [
        "E",
        "E"
      ],
      [
        "you",
        "r"
      ],
      [
        "mus",
        "ic "
      ],
      [
        "c",
        "oun"
      ],
      [
        "tr",
        "y"
      ],
      [
        "ed ",
        "in "
      ],
      [
        "O",
        "p"
      ],
      [
        "M",
        "A"
      ],
      [
        "I",
        "L"
      ],
      [
        "am",
        "az"
      ],
      [
        ".",
        "im"
      ],
      [
        "C",
        "an"
      ],
      [
        "er",
        ", "
      ],
      [
        "H",
        "O"
      ],
      [
        "w",
        "/ "
      ],
      [
        "Al",
        "l "
      ],
      [
        "Twi",
        "tter"
      ],
      [
        "as",
        "h "
      ],
      [
        "re",
        "ad "
      ],
      [
        "gir",
        "l"
      ],
      [
        "R",
        "o"
      ],
      [
        "es",
        "."
      ],
      [
        "R",
        "ec"
      ],
      [
        "il",
        "y "
      ],
      [
        "H",
        " "
      ],
      [
        "h",
        "our"
      ],
      [
        "wee",
        "k "
      ],
      [
        "S",
        "er"
      ],
      [
        "on ",
        "my "
      ],
      [
        "en",
        "ti"
      ],
      [
        "im",
        "p"
      ],
      [
        "l",
        "and"
      ],
      [
        "ac",
        "e"
      ],
      [
        "and ",
        "the "
      ],
      [
        "l",
        "l"
      ],
      [
        "a",
        ", "
      ],
      [
        ": ",
        "@"
      ],
      [
        "I ",
        "love "
      ],
      [
        ": ",
        "http://"
      ],
      [
        "w",
        "ard "
      ],
      [
        "a ",
        "p"
      ],
      [
        "eb",
        "r"
      ],
      [
        "k",
        "eep "
      ],
      [
        "th",
        "ings "
      ],
      [
        ". ",
        "L"
      ],
      [
        "Wi",
        "th "
      ],
      [
        "... ",
        "http://"
      ],
      [
        "th",
        "ese "
      ],
      [
        "A",
        "t "
      ],
      [
        "4",
        "8"
      ],
      [
        "Y",
        "OU"
      ],
      [
        "e",
        "ff"
      ],
      [
        "M",
        "an"
      ],
      [
        "a ",
        "m"
      ],
      [
        "n",
        "ot"
      ],
      [
        "X",
        " "
      ],
      [
        "an",
        "ts "
      ],
      [
        "au",
        "gh"
      ],
      [
        "F",
        "F"
      ],
      [
        "qu",
        "est"
      ],
      [
        "giv",
        "ing "
      ],
      [
        "w",
        "al"
      ],
      [
        "w",
        "ell"
      ],
      [
        "ch",
        "ar"
      ],
      [
        "M",
        "arketing "
      ],
      [
        "y",
        "."
      ],
      [
        "3",
        "5"
      ],
      [
        "s",
        "ing "
      ],
      [
        "ti",
        "l "
      ],
      [
        "tomorr",
        "ow"
      ],
      [
        "as",
        "on"
      ],
      [
        "D",
        "ec"
      ],
      [
        ">",
        " "
      ],
      [
        "n",
        "k"
      ],
      [
        "foll",
        "ow "
      ],
      [
        "it",
        "."
      ],
      [
        "+",
        " "
      ],
      [
        ".im",
        "/"
      ],
      [
        "in",
        "k "
      ],
      [
        "P",
        "res"
      ],
      [
        "am",
        "a "
      ],
      [
        "4",
        "6"
      ],
      [
        "E",
        "v"
      ],
      [
        "h",
        "igh"
      ],
      [
        "New",
        "s "
      ],
      [
        "si",
        "on "
      ],
      [
        "es ",
        "to "
      ],
      [
        "7",
        "7"
      ],
      [
        "l",
        "ess "
      ],
      [
        "wat",
        "ch "
      ],
      [
        "W",
        "ee"
      ],
      [
        "oo",
        "oo"
      ],
      [
        "F",
        "in"
      ],
      [
        "m",
        "ay "
      ],
      [
        "un",
        "ch "
      ],
      [
        "L",
        "a"
      ],
      [
        "Faceb",
        "ook "
      ],
      [
        "iou",
        "s "
      ],
      [
        "li",
        "v"
      ],
      [
        "en",
        "g"
      ],
      [
        "do",
        "es "
      ],
      [
        "ou",
        "s "
      ],
      [
        "a ",
        "great "
      ],
      [
        "i",
        "an "
      ],
      [
        "h",
        "tm"
      ],
      [
        "y",
        "s"
      ],
      [
        "ON",
        " "
      ],
      [
        "I ",
        "think "
      ],
      [
        "E",
        "R "
      ],
      [
        " @",
        " "
      ],
      [
        "l",
        "ong "
      ],
      [
        "g",
        "onna "
      ],
      [
        "m",
        "ed"
      ],
      [
        "I ",
        "was "
      ],
      [
        "f",
        "er"
      ],
      [
        "b",
        "y"
      ],
      [
        "st",
        "art "
      ],
      [
        "p",
        "m "
      ],
      [
        "t",
        "s"
      ],
      [
        "or",
        "n"
      ],
      [
        "sh",
        "ar"
      ],
      [
        "do",
        "ing "
      ],
      [
        "b",
        "all "
      ],
      [
        "i",
        "l "
      ],
      [
        "bec",
        "ause "
      ],
      [
        "th",
        "ing"
      ],
      [
        "R",
        "es"
      ],
      [
        "gr",
        "ap"
      ],
      [
        "le",
        "c"
      ],
      [
        "ti",
        "v"
      ],
      [
        "e",
        "en "
      ],
      [
        "i",
        "Ph"
      ],
      [
        "er",
        "c"
      ],
      [
        "–",
        " "
      ],
      [
        "pl",
        "ay "
      ],
      [
        "00",
        "0 "
      ],
      [
        "it",
        ". "
      ],
      [
        "er",
        "y "
      ],
      [
        "3",
        "8"
      ],
      [
        "ed",
        ". "
      ],
      [
        "p",
        "m"
      ],
      [
        "He",
        "al"
      ],
      [
        "LO",
        "L"
      ],
      [
        "off",
        "ic"
      ],
      [
        "-",
        "0"
      ],
      [
        "ai",
        "r "
      ],
      [
        "M",
        "edia "
      ],
      [
        "c",
        "u"
      ],
      [
        "ever",
        "y "
      ],
      [
        "t",
        ". "
      ],
      [
        "fe",
        "el"
      ],
      [
        "s",
        "ay"
      ],
      [
        "an",
        "other "
      ],
      [
        "art",
        "ic"
      ],
      [
        "of ",
        "my "
      ],
      [
        "on",
        "line "
      ],
      [
        "D",
        "is"
      ],
      [
        "o",
        ", "
      ],
      [
        "v",
        " "
      ],
      [
        "as",
        "k"
      ],
      [
        "G",
        "o "
      ],
      [
        "D",
        "es"
      ],
      [
        "s ",
        "are "
      ],
      [
        "week",
        "end"
      ],
      [
        "mus",
        "ic"
      ],
      [
        "@",
        "p"
      ],
      [
        "r",
        "ight"
      ],
      [
        "fav",
        "or"
      ],
      [
        "it",
        "ed "
      ],
      [
        "re",
        "al "
      ],
      [
        "s",
        "ide "
      ],
      [
        "A",
        "P"
      ],
      [
        "em",
        "p"
      ],
      [
        "9",
        "9"
      ],
      [
        "mor",
        "n"
      ],
      [
        "-",
        "2"
      ],
      [
        "you ",
        "can "
      ],
      [
        "h",
        "om"
      ],
      [
        "b",
        "i"
      ],
      [
        "P",
        "lease "
      ],
      [
        "un",
        " "
      ],
      [
        "some",
        "thing "
      ],
      [
        "en",
        "ing "
      ],
      [
        "D",
        "ay "
      ],
      [
        "tt",
        "a "
      ],
      [
        "every",
        "one "
      ],
      [
        "es",
        ": "
      ],
      [
        "wa",
        "it "
      ],
      [
        "h",
        "im "
      ],
      [
        "b",
        "ar"
      ],
      [
        "6",
        "6"
      ],
      [
        "a",
        "j"
      ],
      [
        "o",
        "x"
      ],
      [
        "ac",
        "t "
      ],
      [
        "in",
        "s "
      ],
      [
        "c",
        "k "
      ],
      [
        "w",
        "/"
      ],
      [
        "in ",
        "my "
      ],
      [
        "it",
        "ch"
      ],
      [
        "w",
        "om"
      ],
      [
        "fe",
        "w "
      ],
      [
        "U",
        "p"
      ],
      [
        "ow",
        "er "
      ],
      [
        "...",
        ". "
      ],
      [
        "C",
        "r"
      ],
      [
        "M",
        "ake "
      ],
      [
        "B",
        "est "
      ],
      [
        "ol",
        "og"
      ],
      [
        "C",
        "an "
      ],
      [
        "G",
        "l"
      ],
      [
        "re",
        "g"
      ],
      [
        "'",
        "ve "
      ],
      [
        "mon",
        "ey "
      ],
      [
        "fun",
        " "
      ],
      [
        "R",
        "ev"
      ],
      [
        "in ",
        "S"
      ],
      [
        "F",
        "O"
      ],
      [
        "as",
        "on "
      ],
      [
        "F",
        "re"
      ],
      [
        "d",
        "el"
      ],
      [
        "d",
        "at"
      ],
      [
        "e",
        "? "
      ],
      [
        "ear",
        "ch "
      ],
      [
        "On",
        "e "
      ],
      [
        "ol",
        "e "
      ],
      [
        "3",
        "7"
      ],
      [
        "y",
        ": "
      ],
      [
        "I ",
        "w"
      ],
      [
        "ic",
        "ag"
      ],
      [
        "re",
        "m"
      ],
      [
        "ol",
        "d"
      ],
      [
        "T",
        "w"
      ],
      [
        "un",
        "der"
      ],
      [
        "Wh",
        "en "
      ],
      [
        "O",
        "f "
      ],
      [
        "on ",
        "a "
      ],
      [
        "did",
        "n't "
      ],
      [
        "\t",
        "6"
      ],
      [
        "N",
        "et"
      ],
      [
        "t",
        "ell "
      ],
      [
        "wh",
        "ile "
      ],
      [
        "1",
        "2 "
      ],
      [
        "y",
        "ea"
      ],
      [
        "O",
        "ff"
      ],
      [
        "p",
        "ost "
      ],
      [
        "ch",
        "e"
      ],
      [
        "s",
        "aid "
      ],
      [
        "a",
        "k "
      ],
      [
        "on",
        "d"
      ],
      [
        "it",
        "ion "
      ],
      [
        "ur",
        "r"
      ],
      [
        "thr",
        "ough "
      ],
      [
        "usin",
        "ess"
      ],
      [
        "in",
        "ce "
      ],
      [
        "er",
        ": "
      ],
      [
        "FRE",
        "E "
      ],
      [
        "have ",
        "to "
      ],
      [
        "a ",
        "f"
      ],
      [
        "c",
        "le"
      ],
      [
        "S",
        "k"
      ],
      [
        "3",
        "0 "
      ],
      [
        "a",
        "h "
      ],
      [
        "B",
        "usiness "
      ],
      [
        "(",
        "via @"
      ],
      [
        "tw",
        "o "
      ],
      [
        "G",
        "O"
      ],
      [
        "8",
        "8"
      ],
      [
        "m",
        "ag"
      ],
      [
        "2",
        "0 "
      ],
      [
        "S",
        "u"
      ],
      [
        "a",
        "x"
      ],
      [
        "ic",
        "s "
      ],
      [
        "p",
        "ut "
      ],
      [
        "the ",
        "s"
      ],
      [
        "I ",
        "don't "
      ],
      [
        "F",
        "ir"
      ],
      [
        "si",
        "on"
      ],
      [
        "I",
        "G"
      ],
      [
        "L",
        "oo"
      ],
      [
        "m",
        "s "
      ],
      [
        "ex",
        "p"
      ],
      [
        "T",
        "im"
      ],
      [
        "hel",
        "p"
      ],
      [
        "t",
        "ak"
      ],
      [
        "11",
        "/"
      ],
      [
        "\n",
        " "
      ],
      [
        "gre",
        "at"
      ],
      [
        "t",
        "."
      ],
      [
        "twee",
        "t "
      ],
      [
        "H",
        "ey "
      ],
      [
        "il",
        "d "
      ],
      [
        "I ",
        "can "
      ],
      [
        "s",
        "? "
      ],
      [
        "a",
        "ch "
      ],
      [
        "O",
        "c"
      ],
      [
        "li",
        "k"
      ],
      [
        "check ",
        "out "
      ],
      [
        "W",
        "ill "
      ],
      [
        "e",
        "'s "
      ],
      [
        "ti",
        "ve "
      ],
      [
        "a ",
        "s"
      ],
      [
        "it ",
        "was "
      ],
      [
        "re",
        "p"
      ],
      [
        "wor",
        "ld"
      ],
      [
        "http://is.gd/",
        "4"
      ],
      [
        "! ",
        "#"
      ],
      [
        "C",
        "ome "
      ],
      [
        "le",
        "y "
      ],
      [
        "T",
        "V "
      ],
      [
        "@",
        "l"
      ],
      [
        "@",
        "g"
      ],
      [
        "ation",
        "al "
      ],
      [
        "B",
        "ea"
      ],
      [
        "en",
        "'t "
      ],
      [
        "b",
        "ir"
      ],
      [
        "I",
        "S "
      ],
      [
        "Th",
        "ey "
      ],
      [
        "Blo",
        "g "
      ],
      [
        "Thanks ",
        "for the "
      ],
      [
        "do",
        "es"
      ],
      [
        "al",
        "bu"
      ],
      [
        "ne",
        "c"
      ],
      [
        "Ch",
        "ar"
      ],
      [
        "ar",
        "ound "
      ],
      [
        "Fr",
        "om "
      ],
      [
        "a ",
        "good "
      ],
      [
        "m",
        "en"
      ],
      [
        "il",
        "d"
      ],
      [
        "IN",
        " "
      ],
      [
        "mak",
        "es "
      ],
      [
        "?",
        "? "
      ],
      [
        "el",
        "ebr"
      ],
      [
        "en",
        "jo"
      ],
      [
        "@",
        "P"
      ],
      [
        "some",
        "one "
      ],
      [
        "E",
        "d"
      ],
      [
        "5",
        "6"
      ],
      [
        "do ",
        "you "
      ],
      [
        "U",
        "S "
      ],
      [
        "est",
        "er"
      ],
      [
        "M",
        "c"
      ],
      [
        "s",
        "id"
      ],
      [
        "- ",
        "http://"
      ],
      [
        "St",
        "e"
      ],
      [
        "s",
        "w"
      ],
      [
        "d",
        "ro"
      ],
      [
        "m",
        "as "
      ],
      [
        "n",
        "y "
      ],
      [
        "min",
        "ut"
      ],
      [
        "on",
        "d "
      ],
      [
        "so",
        "on"
      ],
      [
        "i",
        "x"
      ],
      [
        "tr",
        "u"
      ],
      [
        "wor",
        "d"
      ],
      [
        ".. ",
        "http://bit.ly/1"
      ],
      [
        "to ",
        "h"
      ],
      [
        "pr",
        "om"
      ],
      [
        "Wor",
        "ld "
      ],
      [
        "in",
        "t "
      ],
      [
        "fm",
        "/"
      ],
      [
        "M",
        "ag"
      ],
      [
        "S",
        "m"
      ],
      [
        "11",
        " "
      ],
      [
        "V",
        "I"
      ],
      [
        "it",
        "e"
      ],
      [
        "c",
        "all "
      ],
      [
        "em",
        "ent "
      ],
      [
        "su",
        "cc"
      ],
      [
        "5",
        "8"
      ],
      [
        "b",
        "usiness "
      ],
      [
        "twi",
        "tter"
      ],
      [
        "Wh",
        "o "
      ],
      [
        "o",
        "o "
      ],
      [
        "b",
        "ig "
      ],
      [
        "ar",
        "e"
      ],
      [
        "inter",
        "est"
      ],
      [
        "ing",
        ": "
      ],
      [
        "it",
        "ion"
      ],
      [
        "us",
        "ing "
      ],
      [
        "iou",
        "s"
      ],
      [
        "wor",
        "ld "
      ],
      [
        "pu",
        "bl"
      ],
      [
        "b",
        "ook "
      ],
      [
        "@",
        "n"
      ],
      [
        "ati",
        "ve "
      ],
      [
        "B",
        "re"
      ],
      [
        "! ",
        "RT @"
      ],
      [
        "pro",
        "f"
      ],
      [
        "J",
        "ob"
      ],
      [
        "s",
        "et "
      ],
      [
        "c",
        "our"
      ],
      [
        "en",
        "s "
      ],
      [
        ".. ",
        "http://bit.ly/3"
      ],
      [
        ".",
        "htm"
      ],
      [
        "Com",
        "p"
      ],
      [
        "n",
        "ice "
      ],
      [
        "S",
        "ch"
      ],
      [
        "tomorr",
        "ow "
      ],
      [
        "5",
        "9"
      ],
      [
        "p",
        "er "
      ],
      [
        "ub",
        " "
      ],
      [
        "es ",
        "and "
      ],
      [
        "Foll",
        "ow"
      ],
      [
        "c",
        "at"
      ],
      [
        "V",
        "eg"
      ],
      [
        "l",
        "nk"
      ],
      [
        "y",
        "f"
      ],
      [
        "H",
        "el"
      ],
      [
        "ann",
        "a "
      ],
      [
        "pre",
        "tty "
      ],
      [
        ":",
        "("
      ],
      [
        ", ",
        "the "
      ],
      [
        "ro",
        "g"
      ],
      [
        "y",
        "ear "
      ],
      [
        "H",
        "allow"
      ],
      [
        "ou",
        "s"
      ],
      [
        "ff",
        "er"
      ],
      [
        "le",
        "g"
      ],
      [
        "ay",
        "be "
      ],
      [
        "C",
        "re"
      ],
      [
        "Li",
        "st"
      ],
      [
        "b",
        "or"
      ],
      [
        "M",
        "y"
      ],
      [
        "C",
        "ent"
      ],
      [
        "happ",
        "y "
      ],
      [
        "s",
        "ays "
      ],
      [
        "0",
        "6"
      ],
      [
        "]",
        " "
      ],
      [
        "B",
        "ar"
      ],
      [
        "B",
        "e "
      ],
      [
        "E",
        "ver"
      ],
      [
        "c",
        "are "
      ],
      [
        "ation",
        "s "
      ],
      [
        "sel",
        "f"
      ],
      [
        "inn",
        "er "
      ],
      [
        "1",
        "5 "
      ],
      [
        "d",
        "am"
      ],
      [
        "ch",
        "ing "
      ],
      [
        "ac",
        "ks"
      ],
      [
        "M",
        "e"
      ],
      [
        "s",
        "ocial "
      ],
      [
        "er",
        ". "
      ],
      [
        "mis",
        "s "
      ],
      [
        "09",
        " "
      ],
      [
        "i",
        "an"
      ],
      [
        "mor",
        "ning "
      ],
      [
        "h",
        "a "
      ],
      [
        "  ",
        "  "
      ],
      [
        ".m",
        "s/"
      ],
      [
        "y",
        "ing "
      ],
      [
        ".. ",
        "http://bit.ly/2"
      ],
      [
        "ic",
        "e"
      ],
      [
        "P",
        "o"
      ],
      [
        "m",
        "ight "
      ],
      [
        "U",
        "N"
      ],
      [
        "On",
        "line "
      ],
      [
        "w",
        "in "
      ],
      [
        "wh",
        "ich "
      ],
      [
        "fe",
        "at"
      ],
      [
        "m",
        "om"
      ],
      [
        ".g",
        "s/"
      ],
      [
        "lnk",
        ".ms/"
      ],
      [
        "A",
        "f"
      ],
      [
        "you ",
        "are "
      ],
      [
        "ec",
        "k"
      ],
      [
        "?",
        "!"
      ],
      [
        "pro",
        "v"
      ],
      [
        "n",
        "am"
      ],
      [
        "&#39;",
        "s "
      ],
      [
        "oun",
        "c"
      ],
      [
        "out ",
        "of "
      ],
      [
        "than",
        "k "
      ],
      [
        ".. ",
        "http://bit.ly/4"
      ],
      [
        "oc",
        "k "
      ],
      [
        "st",
        "ud"
      ],
      [
        "follow",
        "ers "
      ],
      [
        "1",
        "00"
      ],
      [
        "i",
        "'"
      ],
      [
        "R",
        "ob"
      ],
      [
        ";",
        ")"
      ],
      [
        "A",
        "u"
      ],
      [
        "y",
        "l"
      ],
      [
        "5",
        "7"
      ],
      [
        "i",
        "ate "
      ],
      [
        "ac",
        "tu"
      ],
      [
        "sh",
        "ip "
      ],
      [
        "fr",
        "om"
      ],
      [
        "about ",
        "the "
      ],
      [
        "r",
        "r"
      ],
      [
        "with ",
        "a "
      ],
      [
        "o",
        ": "
      ],
      [
        "od",
        "e "
      ],
      [
        "g",
        "et"
      ],
      [
        "h",
        "and"
      ],
      [
        "it ",
        "is "
      ],
      [
        "d",
        "d"
      ],
      [
        "Ti",
        "me "
      ],
      [
        "um",
        "p"
      ],
      [
        "A",
        "w"
      ],
      [
        "or",
        "ts "
      ],
      [
        "Re",
        "al"
      ],
      [
        "\t2009-",
        "10"
      ],
      [
        "al",
        "i"
      ],
      [
        "al",
        "e "
      ],
      [
        "ere",
        "'s "
      ],
      [
        "W",
        "ar"
      ],
      [
        "http://ow.ly/",
        "16"
      ],
      [
        "s ",
        "- "
      ],
      [
        "d",
        "et"
      ],
      [
        "s",
        "ed "
      ],
      [
        "v",
        "o"
      ],
      [
        "y",
        "r"
      ],
      [
        "us",
        "h"
      ],
      [
        "ie",
        "ve "
      ],
      [
        "ag",
        "e"
      ],
      [
        "ph",
        "one "
      ],
      [
        "ab",
        "le"
      ],
      [
        "S",
        "ou"
      ],
      [
        "S",
        "e"
      ],
      [
        "v",
        "en"
      ],
      [
        "@",
        "t"
      ],
      [
        "p",
        "ol"
      ],
      [
        "Th",
        "at's "
      ],
      [
        "grap",
        "h"
      ],
      [
        "F",
        "e"
      ],
      [
        "m",
        "edia "
      ],
      [
        "A",
        "D"
      ],
      [
        "h",
        "ome"
      ],
      [
        "ed",
        "."
      ],
      [
        "D",
        "ay"
      ],
      [
        "@",
        "N"
      ],
      [
        "I",
        "S"
      ],
      [
        "s",
        "ong"
      ],
      [
        "! ",
        "http://"
      ],
      [
        "ic",
        "t"
      ],
      [
        "su",
        "b"
      ],
      [
        "H",
        "ar"
      ],
      [
        "with",
        " @"
      ],
      [
        "T",
        "on"
      ],
      [
        "To",
        "p "
      ],
      [
        "oun",
        "ds "
      ],
      [
        "ly",
        ", "
      ],
      [
        "any",
        "one "
      ],
      [
        "P",
        "O"
      ],
      [
        "P",
        "er"
      ],
      [
        "! ",
        "http://bit.ly/"
      ],
      [
        "r",
        "u"
      ],
      [
        "s ",
        "#"
      ],
      [
        "ow",
        "er"
      ],
      [
        "ud",
        "e "
      ],
      [
        "are ",
        "you "
      ],
      [
        "F",
        "i"
      ],
      [
        "m",
        "ust "
      ],
      [
        "lo",
        "y"
      ],
      [
        "aw",
        "ay "
      ],
      [
        "li",
        "fe"
      ],
      [
        "al",
        "so "
      ],
      [
        "t",
        "ick"
      ],
      [
        "right ",
        "now"
      ],
      [
        "y",
        "y"
      ],
      [
        "le",
        "ad"
      ],
      [
        "!!",
        "!! "
      ],
      [
        "gr",
        "at"
      ],
      [
        "S",
        "ec"
      ],
      [
        "T",
        "O"
      ],
      [
        "s",
        "ing"
      ],
      [
        "day",
        "s "
      ],
      [
        "s",
        "ign"
      ],
      [
        "C",
        "O"
      ],
      [
        "b",
        "ad "
      ],
      [
        "”",
        " "
      ],
      [
        "st",
        "op "
      ],
      [
        "loo",
        "ks "
      ],
      [
        "p:",
        " "
      ],
      [
        "un",
        "til "
      ],
      [
        "Li",
        "ve "
      ],
      [
        "way ",
        "to "
      ],
      [
        "t",
        "ain"
      ],
      [
        "Y",
        "or"
      ],
      [
        "ch",
        "n"
      ],
      [
        "n",
        "ess "
      ],
      [
        "in",
        "st"
      ],
      [
        "=",
        " "
      ],
      [
        "B",
        "E"
      ],
      [
        "iPh",
        "one "
      ],
      [
        "An",
        "y"
      ],
      [
        "day",
        ", "
      ],
      [
        "g",
        "if"
      ],
      [
        "ev",
        "el"
      ],
      [
        "tal",
        "k "
      ],
      [
        "en",
        "ing to "
      ],
      [
        ". ",
        "The "
      ],
      [
        "mak",
        "ing "
      ],
      [
        "Vide",
        "o "
      ],
      [
        "Ph",
        "oto"
      ],
      [
        "IN",
        "G"
      ],
      [
        "Z",
        " "
      ],
      [
        "@",
        "A"
      ],
      [
        "S",
        "atur"
      ],
      [
        "ad",
        "y "
      ],
      [
        "ed",
        ", "
      ],
      [
        "4",
        "4"
      ],
      [
        "tim",
        "es "
      ],
      [
        "S",
        "an "
      ],
      [
        "H",
        "ome "
      ],
      [
        "h",
        "u"
      ],
      [
        "watch",
        "ing "
      ],
      [
        "adi",
        "o "
      ],
      [
        "ex",
        "per"
      ],
      [
        "N",
        "o"
      ],
      [
        "6",
        "7"
      ],
      [
        "U",
        "R"
      ],
      [
        "co",
        "ver"
      ],
      [
        "ed ",
        "for "
      ],
      [
        "y",
        "p"
      ],
      [
        "hou",
        "se "
      ],
      [
        "g",
        "ets "
      ],
      [
        "d",
        "one "
      ],
      [
        "er",
        "g"
      ],
      [
        "E",
        "m"
      ],
      [
        "I",
        "M"
      ],
      [
        "h",
        ", "
      ],
      [
        "rec",
        "t"
      ],
      [
        "8",
        "0"
      ],
      [
        "O",
        "h "
      ],
      [
        ". ",
        "W"
      ],
      [
        ". ",
        "M"
      ],
      [
        "en",
        "e"
      ],
      [
        "cli",
        ".gs/"
      ],
      [
        "1",
        "00 "
      ],
      [
        "P",
        "art"
      ],
      [
        "o",
        "h "
      ],
      [
        ". ",
        "http://"
      ],
      [
        "ent",
        "ly "
      ],
      [
        "of ",
        "a "
      ],
      [
        "a",
        "ul"
      ],
      [
        "u",
        "/"
      ],
      [
        "lo",
        "ad"
      ],
      [
        "Ch",
        "icag"
      ],
      [
        "gu",
        "ys "
      ],
      [
        "ne",
        "y "
      ],
      [
        "..",
        "..."
      ],
      [
        "h",
        "al"
      ],
      [
        "! ",
        "I "
      ],
      [
        "u",
        "al "
      ],
      [
        "favor",
        "ite "
      ],
      [
        "out ",
        "to "
      ],
      [
        "t",
        "l"
      ],
      [
        "8",
        "7"
      ],
      [
        "T",
        "W"
      ],
      [
        "an",
        "k "
      ],
      [
        "i'",
        "m "
      ],
      [
        "b",
        "as"
      ],
      [
        "pl",
        "ace "
      ],
      [
        "p",
        "i"
      ],
      [
        "c",
        "ool"
      ],
      [
        "@",
        "r"
      ],
      [
        "Ever",
        "y"
      ],
      [
        "for",
        "ward "
      ],
      [
        "n",
        "oth"
      ],
      [
        "end",
        "ing "
      ],
      [
        "illi",
        "on "
      ],
      [
        "part",
        "y "
      ],
      [
        "*",
        "*"
      ],
      [
        "y",
        "m"
      ],
      [
        "A",
        "T "
      ],
      [
        "sa",
        "w "
      ],
      [
        "on",
        "es "
      ],
      [
        "D",
        "id "
      ],
      [
        "re",
        "l"
      ],
      [
        "li",
        "m"
      ],
      [
        "en",
        "s"
      ],
      [
        "le",
        "v"
      ],
      [
        "Bl",
        "ack "
      ],
      [
        "!!!!",
        "!!!!"
      ],
      [
        "E",
        "L"
      ],
      [
        "P",
        "ost"
      ],
      [
        "f",
        "ound "
      ],
      [
        "fri",
        "end "
      ],
      [
        "st",
        "re"
      ],
      [
        "An",
        "n"
      ],
      [
        "O",
        "ur "
      ],
      [
        "in",
        "a "
      ],
      [
        "1",
        "3 "
      ],
      [
        "b",
        "et"
      ],
      [
        "orr",
        "y "
      ],
      [
        "though",
        "t "
      ],
      [
        "sp",
        "ir"
      ],
      [
        "N",
        "or"
      ],
      [
        "a",
        "p "
      ],
      [
        "y",
        "et"
      ],
      [
        "gir",
        "l "
      ],
      [
        "it",
        ", "
      ],
      [
        "Mus",
        "ic "
      ],
      [
        "c",
        "ool "
      ],
      [
        "qu",
        "e "
      ],
      [
        "t",
        "op"
      ],
      [
        "L",
        "A "
      ],
      [
        "than",
        "ks"
      ],
      [
        "9",
        "0"
      ],
      [
        "T",
        "O "
      ],
      [
        "I",
        "ts "
      ],
      [
        "mon",
        "th"
      ],
      [
        "se",
        "en "
      ],
      [
        "Con",
        "t"
      ],
      [
        "B",
        "ut "
      ],
      [
        "h",
        "un"
      ],
      [
        "me",
        "/"
      ],
      [
        "does",
        "n't "
      ],
      [
        "go ",
        "to "
      ],
      [
        "a ",
        "lo"
      ],
      [
        ": ",
        "RT @"
      ],
      [
        "li",
        "p"
      ],
      [
        "p",
        "lease "
      ],
      [
        "G",
        "ir"
      ],
      [
        "pers",
        "on"
      ],
      [
        "Pl",
        "ay"
      ],
      [
        "C",
        "A"
      ],
      [
        "Th",
        "ere "
      ],
      [
        "T",
        "al"
      ],
      [
        "re",
        "sp"
      ],
      [
        "20",
        "10 "
      ],
      [
        "ad",
        "v"
      ],
      [
        "ing",
        "! "
      ],
      [
        "M",
        "ed"
      ],
      [
        "for ",
        "your "
      ],
      [
        "W",
        "al"
      ],
      [
        "ow",
        "s "
      ],
      [
        "us",
        "/"
      ],
      [
        "be",
        "au"
      ],
      [
        "chang",
        "e "
      ],
      [
        "c",
        "raz"
      ],
      [
        "pl",
        "an"
      ],
      [
        "don",
        "t "
      ],
      [
        "re",
        "st"
      ],
      [
        "y",
        "a "
      ],
      [
        "i",
        "b"
      ],
      [
        "h",
        "n "
      ],
      [
        ",",
        "000 "
      ],
      [
        "am",
        "a"
      ],
      [
        "@",
        "The"
      ],
      [
        "D",
        "av"
      ],
      [
        "h",
        "ate "
      ],
      [
        "m",
        "as"
      ],
      [
        "9",
        "7"
      ],
      [
        "Com",
        "m"
      ],
      [
        "peop",
        "le"
      ],
      [
        "t",
        "v"
      ],
      [
        "b",
        "ody "
      ],
      [
        "ur",
        "s"
      ],
      [
        " ",
        "http://"
      ],
      [
        "s",
        "wee"
      ],
      [
        "2",
        "n"
      ],
      [
        ":3",
        "0"
      ],
      [
        "igh",
        "ts "
      ],
      [
        "es ",
        "of "
      ],
      [
        "St",
        "ar"
      ],
      [
        ": ",
        "B"
      ],
      [
        "@",
        "ch"
      ],
      [
        "n",
        "l"
      ],
      [
        "t",
        "c"
      ],
      [
        "s",
        "end "
      ],
      [
        "v",
        "il"
      ],
      [
        "Social ",
        "Media "
      ],
      [
        "V",
        "E"
      ],
      [
        "ti",
        "ful "
      ],
      [
        "tr",
        "av"
      ],
      [
        "n",
        "t "
      ],
      [
        "i",
        "i"
      ],
      [
        "o",
        "to "
      ],
      [
        "4",
        "."
      ],
      [
        "h",
        "ot"
      ],
      [
        "sh",
        "ort"
      ],
      [
        "C",
        "E"
      ],
      [
        "5",
        "0 "
      ],
      [
        "R",
        "em"
      ],
      [
        "in",
        "s"
      ],
      [
        "ri",
        "p"
      ],
      [
        "sl",
        "eep"
      ],
      [
        "New ",
        "Yor"
      ],
      [
        "am",
        "m"
      ],
      [
        "You",
        "Tu"
      ],
      [
        "i",
        "tt"
      ],
      [
        "h",
        "op"
      ],
      [
        "An",
        "d"
      ],
      [
        "How ",
        "to "
      ],
      [
        "ar",
        "y"
      ],
      [
        "ag",
        " "
      ],
      [
        "try",
        "ing to "
      ],
      [
        "di",
        "ffer"
      ],
      [
        "J",
        "u"
      ],
      [
        "um",
        "m"
      ],
      [
        "ear",
        "n "
      ],
      [
        "how ",
        "to "
      ],
      [
        "Fr",
        "iday"
      ],
      [
        "H",
        "a"
      ],
      [
        "an",
        "g "
      ],
      [
        "awes",
        "ome "
      ],
      [
        "it",
        "!"
      ],
      [
        "h",
        "ard "
      ],
      [
        "er",
        "."
      ],
      [
        ". ",
        "http://bit.ly/"
      ],
      [
        "in",
        "' "
      ],
      [
        "up",
        "d"
      ],
      [
        "ar",
        "m"
      ],
      [
        "av",
        "ail"
      ],
      [
        "S",
        "tr"
      ],
      [
        "em",
        "ail "
      ],
      [
        "f",
        "t"
      ],
      [
        "Foll",
        "ow "
      ],
      [
        "ra",
        "in"
      ],
      [
        "yf",
        "rog"
      ],
      [
        "l",
        "es"
      ],
      [
        "Li",
        "fe "
      ],
      [
        "ess",
        "ion"
      ],
      [
        "A",
        "g"
      ],
      [
        "T",
        "ip"
      ],
      [
        "de",
        "al"
      ],
      [
        "with ",
        "my "
      ],
      [
        "uc",
        "c"
      ],
      [
        "pro",
        "ble"
      ],
      [
        "ough",
        "t "
      ],
      [
        "it",
        "al "
      ],
      [
        "F",
        "un"
      ],
      [
        "W",
        "A"
      ],
      [
        "al",
        "ready "
      ],
      [
        "ro",
        "ck"
      ],
      [
        "bu",
        "y "
      ],
      [
        "B",
        "ig "
      ],
      [
        "en",
        "i"
      ],
      [
        "ee",
        "d"
      ],
      [
        "k",
        "ey"
      ],
      [
        ")",
        ": "
      ],
      [
        "s",
        "..."
      ],
      [
        "1",
        "st "
      ],
      [
        "E",
        "ar"
      ],
      [
        "R",
        "A"
      ],
      [
        "su",
        "l"
      ],
      [
        "U",
        "p "
      ],
      [
        "Twee",
        "t"
      ],
      [
        "f",
        "oot"
      ],
      [
        "h",
        "it "
      ],
      [
        "I",
        "m"
      ],
      [
        "s",
        "ince "
      ],
      [
        "l",
        "ist "
      ],
      [
        "B",
        "O"
      ],
      [
        "e",
        "z"
      ],
      [
        "\t2009-11-",
        "0"
      ],
      [
        "ex",
        "t "
      ],
      [
        "Mon",
        "ey "
      ],
      [
        "yfrog",
        ".com/"
      ],
      [
        "a",
        "ur"
      ],
      [
        "c",
        "or"
      ],
      [
        "Mic",
        "ha"
      ],
      [
        "C",
        "oun"
      ],
      [
        "tur",
        "n"
      ],
      [
        "ir",
        "e "
      ],
      [
        "ar",
        "i"
      ],
      [
        "oo",
        "t "
      ],
      [
        "Ob",
        "ama "
      ],
      [
        "a ",
        "d"
      ],
      [
        "el",
        "s "
      ],
      [
        "Ch",
        "r"
      ],
      [
        "6",
        "8"
      ],
      [
        "m",
        "em"
      ],
      [
        "I",
        "T "
      ],
      [
        "G",
        "E"
      ],
      [
        "actu",
        "ally "
      ],
      [
        ":-",
        ")"
      ],
      [
        "quest",
        "ion"
      ],
      [
        "L",
        "ov"
      ],
      [
        "F",
        "ri"
      ],
      [
        "b",
        "all"
      ],
      [
        "vide",
        "o"
      ],
      [
        "m",
        "il"
      ],
      [
        "P",
        "u"
      ],
      [
        "C",
        "or"
      ],
      [
        "ould",
        "n't "
      ],
      [
        "le",
        "y"
      ],
      [
        "week",
        "end "
      ],
      [
        "s",
        "?"
      ],
      [
        "Pe",
        "op"
      ],
      [
        "sch",
        "ool "
      ],
      [
        "5",
        "5"
      ],
      [
        "wh",
        "at"
      ],
      [
        "ea",
        "ch "
      ],
      [
        "Ar",
        "t"
      ],
      [
        "tion",
        "s "
      ],
      [
        "sh",
        " "
      ],
      [
        "Thank ",
        "you "
      ],
      [
        "bel",
        "ieve "
      ],
      [
        "with",
        "out "
      ],
      [
        "s",
        "ha"
      ],
      [
        "*",
        " "
      ],
      [
        "Wat",
        "ch "
      ],
      [
        "d",
        "j"
      ],
      [
        "A",
        "p"
      ],
      [
        "Loo",
        "king "
      ],
      [
        "B",
        "ro"
      ],
      [
        "happ",
        "en"
      ],
      [
        "2",
        "."
      ],
      [
        "2",
        "5 "
      ],
      [
        "id",
        "d"
      ],
      [
        ": ",
        "M"
      ],
      [
        "heal",
        "th"
      ],
      [
        "h",
        "on"
      ],
      [
        "ed ",
        "on "
      ],
      [
        "won",
        "der"
      ],
      [
        "y ",
        "and "
      ],
      [
        "... ",
        "http://bit.ly/4"
      ],
      [
        "Inter",
        "net "
      ],
      [
        "iz",
        "e "
      ],
      [
        "R",
        "el"
      ],
      [
        "for ",
        "my "
      ],
      [
        "This ",
        "is "
      ],
      [
        "or",
        "d "
      ],
      [
        "des",
        "ign"
      ],
      [
        "n",
        "ame "
      ],
      [
        "6",
        "9"
      ],
      [
        "bre",
        "ak"
      ],
[...]
